100011010
11011001
10001001
1111111100101001
1111111011111000
1111111100101010
1111111100011111
1111101
1111111101110001
1110100
1111111011011010
1111111100110100
1100011
1000011110
110111111
110101100
100100
1111111100011111
1111111101011101
1111111101111101
1001000
1111111101001111
1111111101100100
1111111111000101
1111111111110111
1111111101100111
1111111011000110
11101110
100110111
10000000
1111100
1001000
10010011001
1111101100
101010110111
100101100011
10100100110
100101100010
111111010100
111010110111
1111110100110111
10000010101
10101110010
1111011000111101
1111100001101101
1111011010001100
1111100011001111
1111101011010100
1111101101000001
1111011101110011
1111111101111101
1111011010
101001110
100000011
1111111010111000
1
1111111100110010
11100100
1111110111111100
1111101111010010
1111010101111010
1111101100110000
1111011001001000
1111000100001111
1111100000000110
1111111101101110
1111011100110101
1111110000111111
10111100100
11110000100
10110111
101010
11011111
10001101100
110000110100
10010111001
1110110011
1110011101011101
1111010010000000
1111100111101010
1111101011010111
1110111001
1111
11101100
101001100
1111111110100001
1111111010111110
10100111011
10011000000
110001011
1111110111001110
1111110101111010
1111001000110111
1111011100101100
1111101111000010
1111110001001011
111001101
100111001
11110000100
1000011111011
110011011110
101100010101
111001011110
11011111110
110111110
10110100111
10111100
11010
10100110
1111111011100010
1111111010101010
1111111011010010
1111111100000111
10100010011
1111101101101101
1010101010
1111111111101110
10101110
1111111010101010
1111101100010000
100101111100
101100100010
110111101110
110000101111
11100010110
10111000000
110010011010
101111110101
11001100011
1101010101
10000111000
1111110110000100
1111111111000100
1111110000101011
1111101001111010
1111100000101010
1100111110
10100100010
101101000100
1000100110
101010101
1111111101100011
1111100000100101
1100000110
1101000111
1111101110010001
10110101010
100001111111
1111100111
11100000111
1111110011100101
1111111001111100
10011001111
1010001100
100000011101
11100000101
11111011111
1111110011011111
1111011100100111
1111010110000110
1100101
10010011111
1011010001
1111111011111011
1111110101010011
1100010001
101010110101
1000000010
10011100
10101111000
1111111010010001
1111110001111111
1111100110110010
11010011
1100101110
1000010101
1001011100
1100010101
1111110101010010
1111111000101110
11110011
1010111101
111101111
1011111011
10100100
1111101010001011
1111101110111000
1111110001111001
11100111101
10101011011
1110110110
10010000000
1110001101
100100101010
10011000011
100101010000
1111111000111010
100100000111
1111110111100010
1100110001
110101000
1110110011
10010110
100000100001
10000111000
1010001101
1111111101110001
11101001
1001001000
1100100
1111111110000001
101101110
1100101100
100001011
101000110
111101100
10000101101
100100010010
1111101100
1111101010000010
1111110010110000
110011010011
10111001101
11010111100
1111111000100010
1111111000001011
1111011100010100
1100100100
1111111011000011
1111110111001111
1011101001
10011001111
1010000110
1100111
10000001111
110010000
1011011010
10111011111
101000000
100010010
10001000010
1000100101
100100
1010111110
1110010101
1111110001000111
10101111100
11010101011
101000111000
10010011111
11101111011
111000011101
0
1111110010110000
100110101
11110001001
1111111001011000
1111111100111110
11100111101
1110010100
110000000
1111110111010001
1111111001110111
100011111
1010101100
10000000011
10001110010
1010110001
1101101111
1001110001
1111110001101001
1011010000
111100011
1111111111011101
1000110001
10000001101
101101110011
11100000011
110110100
1111100001110100
11011100
1111100110110110
1111111100001001
11010100110
11111001
11110110
1111111111010011
1111111111011011
1111111110010010
1111110011001101
111
1111111101101000
1101110110
10011010011
11101111101
101101011
1111111110111100
1111111001110111
1111111001110101
1111111100010100
1111111101111100
1111110110110111
10111011111
10010101000
101010001110
1111111101111000
1011001010
1111101111001001
1111110001111001
1111011111110110
1111100000011000
100000000101
11011100000
1111110101011111
1111110111010101
1111011101000011
1111101111011111
1111101010000111
1111101010111100
1111110010100111
11001101
10011001101
100001111000
1101000001
1111101011110010
1111100001010110
1111110001010111
1111101010000111
1111011101101101
1111011011001110
1111100001101111
1111011101010001
110100100
110000100101
111101001010
1111111000001111
1111110010011111
1111101100101101
1111001000111100
11011110000
11010111101
1111110
1111110111011110
1101100000
1111101101111000
1111100111000101
1111100001101011
1111011010011110
1111101111101100
1111101
1111100010
1111111100110010
1111101010101110
1111011001011010
1111100100101100
1111101111101011
1111001010010011
1111100001100100
1110101010000010
1110110011000011
1111010100000101
1111111100100100
11011101101
1111100011001110
1101001011
1111111111001101
1110101000000000
10111011101
1111110000000111
1111110110010110
1010110100
1111101111001111
1111111110010001
1111101001001010
1111000101000111
1111010111110111
1111011100101111
1111111010010100
111010
10101011
1111101100000011
1111100111011101
1111110010000011
1111111101010101
1111101000010111
1111010100001111
1110110100000010
1110010000100110
1110011110001111
1110101000110000
1111110001001010
1111101001111100
1100110111
1111101110111010
1111011001111001
11111001
1111010110011110
1111011111100000
1001111010
1111011101100111
1111101011011001
1111000100111110
1111000011001010
1111011011000001
1111100110110001
1111110100001011
10101110001
1001011010
1111111001001000
1111101100111000
1111100111111110
1111111101010001
1111011110001000
1111001110001000
1111000010000100
1110011010110001
1101111101011101
1111001100111001
1100111100
1111101001010110
1111111011010001
1010110111
1101011000
11000101001
1111101101100000
1111110000010100
1111101001010110
1111011001000000
1111011101110001
1111000111011100
1111001101111101
1111100010100011
1111110010000111
10001000101
101101011001
1110101110
1111111011011101
1111100101000110
1111100100000011
1111110010101110
1111100000110000
1111100101101111
1111010011010100
1110110101101111
1110110011000001
1111111100001011
100001100001
1111111101111011
1111101111101011
100101000010
1001100000
101110111011
1111110010101001
1111110010101111
1111011100011011
1111100010011010
1111010101100000
1111100101100011
1111100111011011
1111101110011100
11001110111
110100010101
100111000001
1001001100
1111111000011010
1111100111000110
1111110111111001
1111110000100101
1111101101001111
1111110110001000
1111111101100001
1111101111001100
1111110000011110
110110110
1001001000
1111110101011101
1111111010110101
11110001111
1111111111111001
1000110111
1111100100110100
1110101
1111110110011010
1111110000111101
1111010101110100
1111011110001011
1111010111101110
1100010110
101010101111
11111001101
1100000001
1111111100111101
1111111100010110
1111110001100100
1111111101010110
10001110010
1111111011010111
10110100110
1011100110
110011111
10101011
1111110100011001
1111101000101011
1111101100110010
1111110100000101
101000000001
11011100
11000111101
1111111101001011
10001010110
1111111101001100
100100111
1111111000011010
1111110111100100
1111110111000010
100100000111
1000100110101
111101101111
111111111
100101111
1111111010101001
1111111010000100
10111000110
11100011
10100011011
10111001000
10101001
1111100111
110001010100
1111101110110000
1111011010001111
1111101001111100
1010101001
1111111000011011
11000011110
1111101011110100
110000110
11101010111
1010010011
1000111100
1111111111010001
10001000111
10010011110
100000011010
111111111010
111110100011
100110100111
100011101110
1110100101
11010100010
10010101100
1011101
1010110111
10111100111
11011111000
100000010111
100000011110
1111100000101110
1111111011001110
10110101
1111111101001101
1111110001001100
10001000100
1111111110100001
1110100
110111101
11010011110
10000011011
10101101011
1010001110
1010110101
10110111001
101101100110
111001111001
110010111010
11010111011
110010011
10100101001
10101000111
1111111000000100
11011111100
100000000100
110110011
1001001111
1101000111
1111100011111110
11110011
1011010111
101110100
10101000110
100010111111
100111000
100001
1111100000001000
1111111110001110
111011011
10010000110
10100101101
1111100
1010001010
10001001101
100011001100
100001010011
10100010100
1111111101111001
10111101001
100010100010
1111111011
11000101010
11000101111
10101101
1000010111
1111111001111000
1111110000110011
1111110001011010
11001011
1000010001
1111100010
111100010100
1111101011100101
100111010111
1100110011
1000111011
101110011
1111110100100100
1111111001101110
1111101000100011
1111111100001100
1111110100010000
1001111011
1100110110
10110100011
1000011
1011110101
10101000000
10100011011
10010001001
1111111100
1111111011110100
11101101
1111111000001111
1111110100010111
1000010011
1111111111000011
10101100
10010111
11011111111
1111111011011010
100110101100
1111011000
1111111000110010
1111111010010011
1111011110110101
1111100100101011
1111011110001011
1111110110101101
1111111010100110
110001100
1000101001
1101011011
11010110110
10011111011
11001001000
1111111101100110
1111110101001111
1111110111000010
1111110111010110
10010110001
1001000100
11010111000
10111001111
1111111011100111
10101001
10110001
1111110001
110100001011
10000000011
1111110110111010
111101011101
1110110000
1111111110110010
1111101010100111
1111111001011011
10101010100
10100000110
11000111110
11100000110
10111100011
10000111100
1111111010011010
1111110000000100
1111111011110101
10100011
1111101010111011
101111000
1111011001100100
1111110010100001
10010110
11101111
1111111011101011
1111111011110100
1111111100111111
1111110111000101
1111101010110110
11110100101
100101110010
100001001010
100111001010
11011100000
1011011100
11110001100
100110100011
100101001010
11101101010
10010101001
11011111111
1000110101
10101111
1011011001
111010110
1101011
1111010001011010
1111010101100110
1111111011101100
10100100
1111110110001001
1011001000
100111111
101000100
1111111111010111
1111111011001010
1111100100011100
1111100100011101
1111111011111000
1111100111110010
1000001
1111011010101001
1111010011000111
1011111011
10110011011
10001010110
10111001110
1111110110011100
1111110000011110
11000001100
101011100101
111001110
1111110010011100
1111110110001011
1111001001011100
1111010111010101
1111011110000110
11011001001
1111111111110011
10010101
1101111
1100101
11100
1100
1111111111100101
100101010
1011001011
1111111001101110
1111100111000111
1111111000100011
1111110101100011
1111011111100010
1111101011001100
1111111010000111
1111001000010101
1110111100111110
1110101000101001
1110110010100100
1110101111001101
1111101101001010
1110111101001101
1111000001000000
1111000111101000
1111011111010111
1111101011001001
1111111010101011
1111111011010001
11011000
101011001
