1111111110101110
1111111011101010
101010
100101110
100100101
1111111110001110
1111000
1111111101110110
1110000
1111111011000010
10111110
11101011
1000011100
1001101011
1111010101
10100001
1111111110000010
1111111111100011
10101101
10000110
1111111110010001
1111111111100010
1111111110010000
101011010
1111111101010011
11110
1111111011101100
111001
1111111110010101
1111111010110100
1111111101101101
101010111
1111111101000000
1111110000011001
1111011110100101
1111010000111111
1111000101000101
1110011010011010
1110010000101011
1111101010111011
1111110000010010
1111101110101101
1111010001010000
1111111101110001
10101111101
10110100010
1111010110000011
1111010100010110
1111001010101011
1111010101000111
1111110001001010
100000
101001110
1111111111111010
10101100
1111111111011001
1111111101100001
1111111010111101
111110
1111101100011010
1111101010011110
1111011101110101
1111000111010110
1111100001111010
1111000000110100
1110110011100100
1111000001110110
1111001000100010
1111101011000110
1111000110010000
1110110110010011
1110011110100001
1110110111100100
1110110011110010
1110100100100110
1110111011001011
1110111010011110
1111010000011010
1110111100101010
1111100011100101
11011010011
11110110111
11110010
1001010
1111111111010010
11
100000101
1111011110101001
1111101010011011
1111011101110000
1111111100010001
1111100010110001
1111110001011010
1111101010110001
1111101111000110
1000100001
1111111111010010
1111101100110000
1111100100001110
1111100011011000
1111110110100101
1111101111010010
1111011110001111
1111011000011101
1111100111110011
1111101001011000
1111001101000001
1111000010000110
1111100001110001
1111100011011100
110011110
10100011
1111111011011000
1111101011010110
10010
1111110000011100
1111011100011001
1111101010000111
1111101111101100
11000101011
1111100111001011
1111110010000001
1111110111000100
1111111111010010
1111111011001000
11000011
110001111
1101100010
1111111100000001
11001000
1111111101110111
1111111100111101
1111100010011100
1111110010101110
1111101111110101
1111111010011000
1111101000111001
1111101111000000
1111101011001001
1111110101101010
1111111101110111
1101
1111010100011010
1111101011111000
1111011110101101
100001001011
1000001001
11010011001
11100001110
1111111001011001
1011000110
1111111000110010
1111101110001010
10
1111011100
111000101
1111111010001000
10010011001
11001001010
1111110111100100
1111010110000111
1111101001100111
1111101110011100
1111110000001011
1001011111
1111101111110001
1111010110011111
1111100001010110
1111111111100010
1111100100010101
1111110011110111
1111101110010011
1111011000110001
11101010000
10111101110
1010011011
1010011011
1111111100101111
100010111101
1111111110110010
1000111
101010111
1100110010
1111111111001101
1111111110000111
10000100
0
1100001000
1100011
1111111110101000
1010010
1111101101000011
1111011000001111
1111100011110101
1111011011011111
11010100
1101101
1001010101
1010101
100001
1111101011101101
10100000111
1100111001
111111010
10100110101
10011001001
10110110100
100001000111
10101011110
100100100
1111000
1111111010010101
10101110010
100110110001
1101110101
100010001100
10101011100
11100111010
1100101100
10011100001
111001100
11011110
1111001101110000
10101010000
1111111000010110
101010101001
111001111
100100101
1111100001001000
1111101101001111
1111101100110011
1111111100100101
10010101011
100010011
11111001
1010111100
100111
1000101
11100011111
11111111011
100100100100
101010010011
100010111010
100000000001
100000010110
11000110011
1111111101000100
1010000111
1111111001101000
1111111000111000
1111000001011101
1111111010000110
11100010100
1101110001
1100001111
1011011101
1111111001110010
1111101100100001
1111110001001010
1111111010000010
1011101110
1011011011
11000100
1001100110
1011011
10001101111
11101111111
100110101100
110100000010
1000000010100
111011111000
101000100100
1110101100
10000001111
100011011010
1111111110000100
1111110011010001
1111011100100011
1110111110000111
1111110111010011
100000011000
100001101
100100010100
10010001101
1111011111111110
1111111101001111
1111110111011000
1111100001001000
1111110100001000
1000001101
1111101101111010
10011001
1111110000111111
110011010
1111111110110101
100011001101
1000011010010
1000011101111
101010110110
1011010010
111111001
1111111100001100
1111110110011000
1111100010101111
1111100010110110
1111100001001111
1111011011101110
10101101010
101100110010
1111101101001000
110001011
1111100111111000
1111110100001000
1111010001010111
1111100110110111
1111001110101111
1111100000000010
1111111100100001
1111110110101111
1111110101101101
1111100101010011
1111001100010000
1110111000110011
1111101000100011
1001101
1000100101
110110110
1111111101010010
1110010
1111111010110010
1111111110111100
1111101000100000
1111011000010111
1111010010101011
1111010110000100
1111111111110100
100010110011
1000011110000
1000101110
1111100111111110
1111101100010111
1111100111101111
1111101111001010
1111110111100010
1111110110010100
1111110101001001
1111110100100010
1111101001000100
1111101011011010
1110110011011011
1110010101110100
1111000011110010
1111110010110011
1111101011010000
1001110111
1111101001001001
1111110100101110
1111100110001100
110110000
1111110110001100
1111100010011000
1110111
1111010110101010
1111011100101101
1111101100001101
10001010010
11000110110
1111011011101000
1110011110
1111010101
1111111010110000
1111111001001101
100111101
1101101
1111111111110010
1111101001101001
1111011001101010
1110110100100011
1110100010000110
1110110110110010
1111101010011100
1111110110011110
1111111001011100
1111011100110101
1111011011111101
1111101001010010
1000101
1111111011100110
1111110111000011
1111101010100011
1111010101011100
1111110100111100
1111110101111010
10010000
10000000110
1111010000111100
1111110100001101
1001111111
1011111001
1101101100
1111111001110000
10010011
1111110101011001
1111101000001010
1111011100100010
1111000001010110
1111001111010110
1111100100010000
1111101111100001
1111110100101100
1101111
1111110001111011
1111111010010011
1111101110010010
1111110000101011
1111111100111010
1111110000011000
1111100100111010
100101111010
11110100100
10000101111
1111011101111011
1111101000110010
1111011111111010
1111111100101011
1011000011
1110010011
1111111011010001
1111110000010101
1111110100100100
100100110
1111011100100101
1111001100000100
1111000000100110
1111000101101011
1111110111100111
1111110111110101
1010010000
110001100
1111111100001101
11101111100
1111111111011001
101000101
1001010
1111111110101101
1111110100111000
11100101100
100101011000
100011000001
1111011101001111
1111101001000111
1111100001000011
10001000
1011011011
1100100000
11110
1111110100001100
1111110010011001
1111100100100101
1111011001010100
1111010000100101
1111001100011100
1111010001110110
1111101000001111
100000110
10100000111
110010101
11000000111
100000110111
110000110
1111111000010111
1111110100111111
1111011111000110
1111110011001110
10101101
110000011111
1111111100000101
1111110000011101
1010011110
10011101
1000110011
11001000110
11111010
110101010
10010011
1111101001101011
1111101001111000
1111011101010001
1111010111110111
1111100000011100
1111100001100101
1111101100000111
1111111111100011
11111001011
11011001101
1011001111
10100011000
1111110010110001
1111110110011101
1100101
110100010
1000000110001
110111110110
100110010111
10111000100
1111100001010101
11101011100
1111110000001010
1011101010
1101010
1010000111
1110111001
1010101101
1011011110
1101010100
111010111
1111101001110100
1111100001011000
1111101110010100
1111110000011100
1111111000
11011000011
100011101101
100011001101
1000101001
1101010
11101110010
1011011011
1111111101000101
1010000110
110001100011
100001101
1111100001010111
100001000000
1111110010111010
1111110011110011
100010101000
1111110100101101
11110100010
100100010001
11010000101
101010110010
110001101100
110011111111
11001110111
111101010
1111111101000100
1111101010110101
1000000010
10001101000
1001011101
10011101110
1100110100
1010001011
1111111010001001
10100110
1111110011011101
10100111010
1111111100011001
1111111000000001
1111111110001100
10110101100
1111110011001010
110101100
100101110111
101011011100
11111011000
101100100010
110010011001
101111010011
111001001001
110100101010
101101110010
1001001000
1111110011111101
1111010110010100
111
11111010
10000101
101001110
1000101000
1011111000
11000000
1101101100
111000100100
10101110110
1111011001
1111100000000001
1111111011000101
1111001100010000
1111010011011001
1111110110111010
100111110000
101101110100
1110001111
1100000110
100001010011
11111011011
11110000001
10010110011
10101010111
1001011011
1111110000110000
1111100101100110
10010011
1111111101010111
1000100100
1111111010
1111111100100111
1111011111
110111010
1111110100111011
110111100101
1111111111011111
100111
1010110100
1111111011000111
1111101001111110
1111000100001100
1111111001110011
111000
10011110
1111111011111101
1101000
101111100
10001110111
1010000100
111111
1101001101
100001000
11101100
1111110110110100
1111111001111001
1111110110101001
111001111
1111111100100111
1111110011011101
11010000111
100001001110
1111110100000111
10101001000
1111110111100001
1111101100110110
10000100110
1111111100000111
101000100
1111001010100011
1111001111010100
1111101111110011
1111101010101000
101010101
1111110111001001
1111011111101010
1111111001000011
1111111001010011
1010011100
1111111010011110
1111110000111011
1111111011101110
1111101010000000
1111100111101100
1111101011110011
1111100010101110
1111011000111100
1111011101101101
1111111010101110
1101100101
1111110000100100
1111110100001000
1111101010011011
1111101001101010
10010010
1111000
10110
1111010010000011
1111100011100101
1010101010
1111111001111011
1111101110010101
1111110010111011
1111011110100010
1111100001100110
1111101100100000
1111101100100001
1111011111100101
1111011110101101
1111110010011101
1111110110001111
1111101111011000
10010111110
111001
1111011001000000
1111000100011011
1111111100000010
1111110011100100
1111011000110010
1111110101100011
1111110000000001
1010110010
1111111011000001
1111111110010110
100110011
1111011001111010
11110001101
100001100110
1001011001
1111111101011001
1111101110011000
1111111110100010
1111100000
1010101111
11000011010
1001000010
1111111001001010
1001000001
10000001110
1111111100001000
1111100111011101
1100000000
1111101111100101
1001110001
1111110110001110
111000100
1111110011011011
111100111
10011000111
1000101011
1111111011101101
101011010
100100111
1110001
100100001
1111100011111111
1000100000
1111110000110111
1111101100111010
1111110100100100
1111111100110011
1001000011
110100011
1111110001111111
1111111110000001
11101000010
101110010100
11100010001
1111101110101011
10101000101
101000001010
10100111010
1111111100111100
100100010000
1111001000
1111100110010011
1001111011
11101011
10001
11010110
11011110
101000010
101010110
11100000110
110000000100
1111110010100001
110111010
1100010100
11010000010
101101010111
1001001110
11111001011
1011011101100
110001000001
1000001000
110110011110
110111001001
10010110110
1111111110011011
1111110100100001
1111101110010101
1111111011101100
101011011110
11100111
1111111101011011
1111111110110100
100011
