1111111110010101
1111111011110110
1111111011101010
1111111101110100
1111111100000010
1111111110100001
1111111110001100
1111111111111101
1111111101111011
1111111111111000
10000110
1011011
10010100101
1010100100
1111110101000100
10110011
100011100
1111111100010110
1111111111101101
11110010
10100000
1111111101011110
10000110
100011011
111011
1111111110010100
1111111111110011
100100011
1111111011110110
10011110
11001011
1111111011100111
1111110111101000
1111101111001110
1111101110110100
1111110011100110
10111011011
101000110111
100110100011
11011110110
1100110100
1011100111
100111011101
101011111
1111010100101101
1111011000101101
1010010110
101011000
1111111111001011
100100010
1111101101000111
1111110101000001
101010100
1111111111001110
11011010
1111111011010101
1111111011000101
10100
110
1111101110010011
1010010110
1100100010
1111110010100101
11011011001
1111101011110001
1111101110101100
1111110100101110
10100001101
1111101101100010
1111101110100011
1111110100010111
110101010
1111111010100101
1111011110010101
1111100110001011
1010011001
10100100110
1111111010000100
11110010101
1111110100111100
1111010100101001
1111011010001000
1111111100110001
1111111110000110
1011010
1111111110111001
1111101111000110
1111101111001111
11110000011
10110111010
1111100111000011
1111110101111101
1111001100110000
1111101101010010
1110001110
10010001
110011111
1010011001
10010000
1010111
1111101111011101
1111110101001001
1110101010
1101100001
10010010110
101001
11011101011
1001001
1111110111000000
1111100011011010
1111110000010111
100100100
1111111110101111
10110001110
1111100001111011
10110000001
100011101110
1111110110111010
1111100001100001
1111110111000001
101011100
100011010
111001001
1010110010
11000001111
10111010000
11010010001
1010111100
1111111000100001
1111111110110100
1101000011
1111100000
10111000
101111100
1111111010101000
1110110111
11011110010
1111110011001100
100010100
1111111111111111
10100111
1111111111111110
1111110010110111
1111111111100000
1111111111010111
1111110010101101
1101101011
101100011
110001010
1000101011
1111100100101111
1001111100
10001111110
1011000000
1010001001
1111111001001110
1111111110101001
1111111110000010
1101000100
1011011001
111110000
1111110000101010
1010001000
100011101
1111111111100100
1111101011101001
1111100011011010
100010100
1111111011111010
1111100001011001
1111110000001011
1111101111101000
1111111010010010
1111100100100000
1111101111110000
11101001100
1101010101
1001010
1111011110110001
101000011
10011110001
10101101
1111110100110001
1111110001001111
1111110010111010
1111111011001111
11000
1000010000
1011100
1110010111
1000111111
1001101001
11101000001
10001001001
1111011011000110
1111101111011011
11100011
1111100101001110
1111110000011101
1111111000000001
1111110111000101
110100011
1111111111010111
11100011000
11101011
1111101100010110
1111101000000000
1111110011011111
1111111010001000
1111110101100001
1111110110101101
1111111110000011
1111111000010111
1111101100101111
10101010
1111111110001000
1111110010111000
1111101111010000
110001001
1111111111100101
1110010111
101011000101
1111001000100010
1111110000000010
1111111011110011
1111010100111011
10001000
1111110001001110
10011100
1111110010000001
1110011
10100001
1111101101010101
1111100100001101
1111100100110100
1111010000010010
1111010100011000
1111011011011000
1111110101000100
1111111000101100
1111111010111001
1111110011111011
1111110011111010
1111111100101000
1111111011111000
1111111001010100
1111110100001101
1110010
10110100000
10010001100
1111101101010110
1011111000
100101100
10011101101
1111101011100001
1111101011110111
1111100011010110
1111100100111010
1111101001011101
1111100101110000
1111100000111010
1111001001011011
1111011001111100
1111001101110110
1111010101110111
1010001100
101111100001
10101101010
100
1111101111001000
1111110110011100
110000001
101011010
1111111100110011
1111110011001010
1111100101001110
10110000101
1100111011
1111101111101100
1111101010110101
110001000
1111011111
1111111101101101
1010011101
1111110000110100
1111100001111101
1111011010001010
1111001111100010
1111001000010010
1111011110000010
1111110101000100
10001010000
110011011010
1011100001101
1110101101111
1001100100010
110010101
1111101001011000
1111011110111110
1111111010110011
1111111110101010
110110111
1110011101
1111100101
100011100010
1111100101010010
1111101111000100
1111010101000101
1111010111
1111100101011000
100000011000
101101110101
10011011010
101011010
1111111100000100
1111111011111010
11000011001
1000100011101
1111010110000
10000000001101
10011101111110
10001110110100
1100110111101
100100001111
10100
1111111001110101
1111111110011001
1111111111000011
1111110100011000
1111111110001000
1101111000
1101101011
1010001001
1111110111000111
111011111010
11001101100
1100011101
1101011111
11111101110
1001100110100
1000111111100
111101001001
1001111001101
1111110101010
10111111101011
11000101101101
10111001010001
10001100010001
1001110110110
110000100100
10010100001
100111001
1111111110101001
1110001111
1110010
10001111111
10111000
11001011
10000010001
1001111100
1111111010001011
1111010000001110
1111011110011001
100010010000
1111110100000010
1101101001
10010110111
1010111001100
10000111001001
10000111101101
10011100010100
11000110101010
10011000111101
1010101100101
101110111000
1000011101
1111111110111000
1111110100100010
1111111101110111
10010010011
10010110100
10000110110
1100000011
1111111101010011
10000001000
1111111000110111
1111111011010001
1111101001000010
1111101010100101
1100100111
1111100011011111
1111111000011011
1110111110
10111101010
101011100
1010011111011
1011010001011
1010000111000
111111000101
101100010011
110100
1111011000101110
1111000111011110
1111010000010101
1111100010000100
1111110110100101
10101010
11001011001
11111100010
10001110100
1111110110111010
10101111
1100100100
1111101001111100
1111111110101111
1111110111110100
1111110001000011
1100000101
1111110000010101
1111010010110010
1100001110
1111110111101011
1111001001110001
101011100110
10101100100
1111111100111001
1111110101100110
1111100111101110
1111010110011001
1111011001110001
1111001000100101
1111100000101110
1111111000100110
1111110100010101
10001
110000101
11000011001
100100
111100
100001111
110100111
1111100111011011
1111110101101001
1111100110101011
1111100010110100
1111010101001100
1111000100000101
1111101001011010
1111110111100001
1111101010001001
1111000011111101
1111110011110110
1111101010011011
111001011
1111110011101110
1111100000111001
1111111111111011
110111
1111110101111000
1111111000111100
1111110010000001
1111101101111000
1111110101100010
10000110110
11111110
1111111010001111
101111101
1111111000100011
110011000
1111111101011010
1111100011011010
1111010000111110
1111100010100011
1111010101111111
1111001111110000
1111011101000111
1111111101110011
1111110110010001
1111000001111111
10100100010
1111000110001100
1011100011
1111111101000000
110001100
10001001101
110101
1010011000
1111111101100100
1111101011010000
1111100101111110
110000011
1100110101
111100011
11011000
1111110110001000
110011011
11001101
101100000
1111101110010010
1111100110111111
11110101
1111111101111000
1111110011010001
1111010010000011
1000011111
1110010101
1111001011010101
1111101000110000
1111011000100110
1111101010010111
1111111110110001
100100110
1110011
100011100
10101011
1111111011010111
1111101001101010
110111
110011011
10111011100
110001011
1111110000000111
1111111000010111
1001101
1001011111
1111001001
1111111011011011
1111111001100110
100011100
1111100110111010
110011110
1111001001101100
1111100011
11011110
110100011
1111101101000011
1111110010010001
110111100
11101000
1111110000110101
1111111011000000
1111110010001110
1000101110
1011000010
1001111101
101101100
1111110110010100
1111101101011110
1111100110000000
1111101101000111
1100100111
1101001111
1111111101000111
1111111010001000
1111101100110110
1100011011
10010110000
1111011000101010
1111011101010100
1111111001101010
1111011
1111110110011101
1111011111
1111011000111010
1111110111001101
10001011001
1111110000110001
1111111111011001
10100111
10001101
1010011011
1011
1001101001
1000010000
1111100101111100
1111111011001111
1111111100100110
1100000011
1111111111110101
1011011
1111110110000010
11
1111111100110100
1101110101
1111111111111101
1111100111100011
1111011010111010
10011000101
1111111000101011
1111110011101110
1111110110000010
1111011000100101
1111110001110101
1100111
100011111
1111110101111111
1111111100001010
1000000110
110100
11011101
1000010000
110011010
1111111000010001
1010010011
1100100101
11111110
1111110110110101
1111110011100111
1111101100111000
10101
1111011001
1111111110000101
1111101110111111
1111101110110000
1111010010001111
1111101110111111
1111111100100010
1111111000001010
1111100101000001
1010100000
1111010101011111
1111110011011111
10001001011
1111111011001000
1111111100100011
1000010100
1111111110101101
1111111100101011
101011010
1101101010
10000100
10000011010
1111110101111111
1111100111011010
1111110001000101
1111100100000111
1111110100101101
1111101100011001
1111101101001011
1001010001
10101000001
1111101010
1101011001
1111101110011011
1111111110110110
100100100
1111110111111100
10101111
1111110011001010
1111110001011010
1111101100111010
1111110100011111
1001000000
1000001101
11110110110
1111111110001011
111101010
1111111110010001
1110111010
101011
1111011
1000111000
1111110111001101
1111101111101010
1111111001100000
1011010
11110110
1011000010
100100011100
1111010010
11010011100
1111111111001010
1111111111010110
1111111101011101
1111011111110100
1111001111101101
1111101011000111
10000001
1111111111111011
1111111010111100
1111110001100011
1111110101001000
1111110101100000
1111110001000010
100010
1101001
11111010
10010011011
1100011110
111011000
11000000100
10010101011
100011001001
100111110110
11000000001
1111111000110011
1111111110110001
1111001100011000
1111110110111111
1111111011001100
1111111101000011
1111111101000001
10100000101
10000111111
1111111000011011
1100000010
1111111100100010
1111101011001110
1111011010000010
1111001101011001
1111010101111011
1111011111000110
1111100000010011
1100011101
1111111011001010
1111101011001011
1000010010
10100011111
10000110100
10111010001
10000000011
100001000010
101100011001
101011111100
1111111011011111
1111100011101101
1111111111010000
1111111110001100
11110000
101001000
1111111011011101
1011001101
100000011010
100111100111
101111100000
11011100101
1111110001111000
1010001110
1111100111110000
1111110011001110
1111100100111000
1111110010000111
1111100001111110
1111111110110001
100111011111
101001110010
101011000
10011100100
110101100001
1001111001111
110011010010
11111110101
1000100110
0
11011000
1111111010101110
1111111101000110
10100000
11000101
10000
1111101110011110
1100000100
10000010011
10011001000
11101001011
100000011011
1111101001111101
11110011
1111110010111111
1111101101011101
1111010010000010
1110110101101100
1110111101100000
1111100010100001
100110
10011000110
100111001100
101010111001
100000011111
1111111101111101
1111111100101100
1111111011011101
11110111
1111111100011111
