1111111100111110
111
100111111
1111111100100000
100000100
11001100
1111111101000111
111011
1111111111110110
1110000
1111111110010111
100011001
101000
1111111111001100
1111110110111111
1111111110111110
1111111101100000
101010010
1111111100111111
100
1111111110001101
11010011
1111111110000101
10110110
1111111110000110
1111111110010111
11100011
1111111100000100
10101
100011010
1111111011111101
100111011
10111111100
10011010100
10011001000
100000011001
10110010000
11000100000
1011110111
100001100110
110111111101
1001000011010
1111101000100001
1111110110010111
1000010100
1010100111011
1011011110001
1001100011011
100100010010
101011011
10011000011
10001110010
1000111
1111111111010101
10001000
1111111111011111
1111111101011110
110
1011000110
1111001111
110010111
1111111101111011
1000000101111
101000110011
100001100111
1000011000010
1011101100111
1011101010000
110001100111
1100100101
11001000110
11110000110
101011010011
111011110101
111001001101
1000001100011
1000011000110
1101000110100
1010111100000
101101111001
11000110110
1111101
101010011
10101010
1111111111110000
11101
1111101110111011
1111111100110010
1111110000110011
101011111
1111110010011101
1111100101001010
1011010101
10100011001
1100101
101011101000
1010001001011
1000011011001
111111101011
101011100110
110100101010
110101100100
100010100110
100010011111
1110001
11001101010
1110100111
10011101001
100110001011
1111110100011111
10011011011
1111111101011010
1111111101111111
11000010
1111110001000001
1111011001101111
1111011111000000
1100010001
1100001
1111110001010101
1111100110000000
1111011010100001
1111100011100110
1111111001011001
1111110111000101
1111111101100110
1111110000010110
1111111101111000
1111111000100010
100101011
10100001101
11010111
100010010
10011110
1111111111110011
1111111101100000
1111100001001100
1111111110001010
110001001
11001010110
1101100
101
10000010111
100101100
1001101110
100101111100
1111111100111001
1111111011000100
1111100110001000
1111110011001111
1111101011
1000100000
10011100
10101111001
10001100101
111110101
1010010011
1111111110101100
1111111001000100
10000110110
1111111101000010
110001010
1111101101101100
10111110011
1001011011
1111111001111110
1111110100101011
1111110111110101
10000111
1111110011111100
1111111011111110
110010011001
1111100111101010
1111111010011111
1001110110
1111101100100010
1111110100101000
101010100
111011111
1111110100011000
1111111011011000
100101111
1101001110
111100011
1011
1111110111101110
1111111001101110
10110110
1111110100011010
1111111101110001
1010101111
1111110100000010
1111000101
101011101101
1111110110111111
11001000100
1111111100111010
1111101000000111
1111011000111111
10000101011
1111110110000001
10101101100
1111110110010011
1111110001011110
10000100
1111111001111011
1111110101010011
10111001100
100110101
10100101101
100001010001
10011011110
10000100
11101011
101100001
11111110
1000000101
1111111110110001
1001000101
1111111101101100
111110011
10001111010
111000111100
100001100001
11100010011
1111111011100001
1111110111010001
1111111101110000
10100111010
1111111111000001
1111101110110111
1111101111111100
1111111011000011
1111110100100011
10100110
1111111111111001
101000000
11010110
10111110010
1010100110
1011111000
1111111110011000
1111110001011010
1111101110000111
1111111101100100
110010111
1111111100111010
1111111001000110
100110110
1100001
101100000111
1011111000
1000001111
1111111010110110
11001010010
1111011001001100
111101111000
1111110001111011
1111111010100101
1111110010010011
1111111110010010
1111100110001101
1111110100111100
1111110011011010
1111111000001011
1111111010110101
10010111
1111101011101011
1111011100000000
1111011101000101
1111110000101011
1010011011
1111110001101001
1111110011111001
1111111110111101
1001110
1111110110001011
100011111111
10110101110
11101011101
1001100111
1111110111110100
101111000010
111100111
1111110000011010
1111110001111100
1111111000101101
1111101111000011
1111111111111010
1111101010010011
1111011100011001
1111101010000010
1111101101110111
1111110101000101
1111101010000011
1111010011110011
1111010000101110
1111100001110110
1111001101111101
1111101101101011
1111100110001101
1111100010101011
1111101001011101
1111100000011011
1111111110011111
1111101011000101
101100000100
10001000000
101010111
1111111111100001
1111011100001000
1111101101001100
1111111100110001
1111100111000000
1111101011000111
1111100110000010
1111101110010101
1111100101100100
1111101010110111
1111110000110011
1111101101001110
1111111110111011
1111011100010000
1111010000100011
1111001010000001
1111011001111111
1111011011010111
1111101011000000
1111010001100011
1111010010100101
1111001111010110
1111001100010011
1111100011101100
1110110101101101
111010
11001100
0
1011110
1111000011101100
1000011011
100100001
111110011
1111101001100010
1111110001010100
1111111110111100
1111111101000000
1111111111000001
111010101
11001101010
1111000000
1111110110000111
1111010111011110
1111000110010011
1111100001001110
1111110110000001
1111100101111110
1111010011010101
1111001101000011
1111011111001101
1111001011111111
1111110101000111
1111100110100001
1111110101111111
1111110111110110
10010111001
1011000000
10111001
100011100011
1111001011
1011010010
100000100
1111111110110010
1111111011111010
101100101
1000000110
1001011101
11001111001
10101100111
1111101011011011
1111010000110010
1111001011110001
1111101011010111
1111111011101011
1111101010010001
1111011011101100
1111101010010000
1111101011001000
1111100011111000
1101001001
1111110010000010
1111111111100111
1111110101101110
110111111
1011000001
1111110110101111
1111110100010100
11001111
100100
1111110010111011
1110111000
1100110110
1111111001001111
1111101111100110
111010110
10010011010
1111110001110000
1111011001111010
1111101000100101
1111010110100011
1111101011100100
1111100110010000
1111011010000111
1111100011011111
1010011000
1111111000000100
1111100111011011
1111100001011101
1111010000110011
100100001
10101000110
1000110010
11100010110
1111101111000110
1111011111001001
11101010010
111101010
1111100011101101
1111101111111101
1111110000011101
1111110010001001
1111111111001110
1111111001010011
10000110110
1111111100000111
1111011101111100
1111110001100001
1111111011111011
1111111010100010
1111100110100011
1111101100000100
110110010
10000010110
1111101111111110
10001
1111110011110100
11001011
100111111110
101110010
1111111101100101
11010110110
1111111010100110
1111101111011100
101111011
10000100
1111010010011011
1111011001111100
1111000001001010
1111011101010111
1111110100100110
1001000110
1111111111101010
1111110100000000
1111100001111111
1111110010001111
1111110000000001
1111110001100100
1111101001010010
1111111011011110
1110100011
1101100111
1001010110
10000111011
10101011111
100010111010
11100000010
1111001111
1111111101010011
101111011
1111110010110111
1111110011010011
1111101001010111
1001011110
1111100101000010
1111110100101111
1111000111111001
1111001010111000
1111100001110100
1111100000111100
1111010011101111
1111000111111101
1111010101011001
1111101000001011
1111110001001011
1111101110110000
1111110001100100
1111110010001110
1111111110001111
1111111100011001
1010100110
1111110110010101
1111111011010000
1111111111011110
1111101110010011
11100110
1111100011110100
1000101100
1001001010
1111111101110001
1111100110011000
1111101110110100
1111111111011111
1001111100
1111101101110001
1111011101100100
1111101010111011
1111010111010111
1111010001000100
1111010000111001
1111010101010110
1111111010011110
11010111
11000101
111000
1111110011001010
1111111101111100
1101001111
1000010111
100001000
1111111100000010
1111110001100001
1111101101101110
1111100110111010
1111101001010101
11010100000
10011011011
100010101000
1111110000000000
1111011110111100
1011011001
10100100001
1111110110100111
1111111010101011
1111110010001110
1100000110
1100001110
1111110111000111
1111111100100010
11011110001
10110011111
11100111000
100011101011
111010011
10100110011
1101011000
11110001
1010110010
1001001111
1111110101000011
1000010101
1111101110101010
1001111
11001011001
10001010100
101011100111
11110010
1111111100011111
10111111101
110000011001
11000101001
11001001001
100110100111
101101111001
110010011101
100001000000
101100011100
101011111111
10111000000
11100001100
101010100000
11011101000
11011100011
100100011
10111001100
100101111001
11110000001
1111110100100000
1110001011
1111111101000010
11010
101111001011
1111111001110011
100100010010
11000001100
10010011001
1101011001
100101111100
11101111111
10001011010
110011001101
1000110010010
111111110011
1000010010001
101011010000
11101111001
1100110111
10110110101
110010011100
11011110110
10011000001
1111111110110110
100100011000
110100010010
10000010011
11010111
110010111001
10011110001
1111111001110011
100100110
100000100110
10000011000
11011100
11111110110
100010000101
10110101
10010111001
1100100000
11000010111
100011000110
101010000111
11110001000
1101001001
10000110001
1111010111
1110011010
10011100100
11100010000
10111011111
100010000000
10101110100
101010011000
1111011110010100
1111101010000111
11110111011
11010100101
1111111101001001
1101001
110111011011
11010000111
11100000111
100000110010
11011011011
111101001
1111000010
10011001110
1011100010
11111011010
10100010010
1011100110
1001001010
1101011100
10100001010
101000010101
100101101
1000010
111101000
1110001111
1101110101
1010110011
101011110
1010111111
100110000
101000011
101000000
1111111111101110
1111110110010111
100000101010
110001100101
10011010110
110001000
10101101111
11111010111
101000011100
100101100011
11110101000
11101101101
11001110011
11000010110
1111010011
10110100000
11000111101
10111001011
1111101110110010
1111101110100001
10100000101
11001010100
1111110100010110
111000
100000101110
10001111010
1111111011010101
1111111111110010
10001010
10011000011
1111110011111111
100011
1111100000010011
1111101000011011
1111110000100100
10001101101
110000010100
1111111011101010
1000
1101001
1111111101101101
1111100011101101
1111011111010110
1111110011111001
1111101010100110
1111110001110101
1001001111
1001111111
1111100001100001
10100010111
101000111111
11100100001
10001000000
1110010001
11110110
1111111100011111
1111111100101111
11111000
1111111111010000
1111110001101111
1111010111001110
1111001110011100
1111100010101001
1111100011110011
1111111000110101
101000
1111110000110101
101001001111
1000
1111110010010101
10100111100
0
1111010010001100
1111101101010010
101000001111
100101001100
1010111110
101110101100
10111010010
1000000110
1111111110000010
11101
1111111111001111
110
10010101
1111111110010100
1111111101000100
100101
1111111100101101
1111101110000100
1111101100100100
1111101011110111
1111101001100111
1111001111001101
1111001001011010
1111100100000000
1111101001101001
1111010011010100
1111010010000001
1111100001001011
1111011111010010
1111011011000000
1111100011110110
1111110011000010
10100001
1111111100110100
1111111011101000
1111111111011011
11111010
101001000
1111111101000101
