10011110
1111111100111110
1111111110110010
10110101
1111111111011111
1111111011100101
1101
1111111110100000
1111110
1111111111100001
1111111101001000
10111011
111110
1111110101001001
1111110111011001
1111111111010111
1011111
10110100
1001001
10001111
10000000
1111111110011000
1111111110100001
10100010
11111100
1111111011110001
1100010
1111111111111001
101000101
10000001
10011
1111111100100010
1111111100101010
1111111000101000
1111101110110101
1111111011110010
10000101010
10000001
1111101101110001
1111100101111110
1111110010000011
1111111010011000
101110111001
1111101101101001
1111100101101001
1111011110100011
1001011000
1111110010110100
1111111010110011
100110010011
1001111000
1111111100001010
1111111100110011
1111111111101110
1111111100000111
101001111
1111111111001110
1111111110100001
1111111101111100
1111101000010001
1111100011000010
1010001011
110011011110
100110111000
1000010011100
1010110001011
111101001111
101010010111
101001000110
1011101011111
1001011111100
1001001000000
101001110001
111111100111
1000011110000
110110011000
1000000100110
100011010001
10101100101
1011001000
1111011011100101
1111110000101101
1111111011111100
1001111
1111111111100111
1111111101110110
1101101001
1111101100101111
1111111101000110
11101100
11101000
100111000001
1111010110
100100110101
1111111011110100
1111111010011111
1010011000
10000010001
11010010000
110011001100
10100010110
101101010
11111000
11000011010
110010110
1111110110100110
110100000100
101111110111
10011110111
111000000
1111101010111001
11000011
1111111101100010
1111111101101010
1111111000100000
1111111011010110
1111101111000001
111011111011
101001000000
1111101011111111
100000001011
1000111
1111101010010010
1111111001011110
100011000111
10101101110
11000011100
10101011100
11010001001
1100101000
1111101110000111
1111011000101111
110101111
1111111000110011
111111100
1111111010101001
10100101100
110010101011
101011101
100000011
1111111010100010
110001
1000110011
1100100101
1111110111101100
10101101101
100011000
10100001100
10011100110
100001001101
100011111010
11000101101
101110001100
11100010110
10100011000
11110111
1000001111
1111110101011010
1111100100110001
1111111101100100
1111110111
10010011100
10001111100
1000100000
10000000001
111100000111
11100111011
100011111000
10101011
10001000111
1111101011111100
1111101000101001
1111110010100101
1111101111
1111110101110101
1111111001101101
10001101100
111100111111
1101110010
110001010
100001101000
100010000000
1111100000
11101101110
1111101101
111100100
1111111000101110
1111110000001010
1011011110
10010100001
1111110011000011
1
1000001011110
1000100101111
1001101100000
101100000110
1111110111010011
1111110011000100
1111001000011101
1111010010010010
1111111111110001
1111111111100110
101101
1111110000010110
100110
1001100101
100110001
10110000
11010000011
100100100100
10111101111
10111101010
10110001110
1101000011
1111110110010010
1111110011100010
1011000
101111111
1111111110111111
1111110001111001
11011000100
11001001010
110001000000
1111110110000011
1111011101111100
1111110000010101
1111100101011101
1111001101111011
1111110000101100
1111110010110001
1111111010100000
1111101101111101
1111111100010111
1111111101100100
10001011011
11101001001
11000001101
100001110110
11000010100
10100111000
101010101
1111111000011100
10000101
110110101
1111101111101111
1111110111001011
10001010
1111110001100110
10100000110
100101111101
101110100111
100110011
1111100110101010
1111011111100001
1101011010
1111100100101001
1111011001001101
1111110000101111
1111110110000011
1111101001100000
1111100011010010
1111011110000011
1111110011101011
11001101
10001110
110110111
1111111111110000
1111111111011010
1111100010000111
1111001100111011
1111100100101111
1111101100101111
1111110100100000
1111111011000011
1111101111100010
1111110110100111
10101010010
11100001010
101010000100
1111111111100100
1111101001101101
1111110111011111
1111101101111110
1111010011110011
10110010
1111100101100111
1111011110001010
1111110101011000
1111110000101000
1111110000100011
100101001
1111101101110000
1111111011011110
1111100000100010
1111101000011101
1111011110011110
1111010000110000
1111001000011100
1111001011011111
1111001101111010
1111100010011000
1111110000000010
1111111000000000
1111001001
100110010111
10101010011
100010111011
100000101111
1111111011000001
1111010111100010
1111100011000110
1111011110001111
111100
11001110000
101010001
1110
10010110010
10001010110
1011101111
1111101011111101
1111110011110101
1111100001010100
1111111111010110
11100011
1010010
1111100001010100
1111011011100111
1111000011000100
1111001100011101
1111010010001010
1111110010110100
1111111101000010
10101111110
101001110100
101010000100
11111111100
1110110
1111100011100000
1111101000010001
11010111
1100110010
1111110000110100
1101
1111110011111110
1111000010
10001110
1111111001000110
1111100110101110
1111100001100001
1111111101100101
100101011000
11111111111
1111110111000111
1111101101101111
1111101001110001
1111011010101010
1111011001011100
1111101111100000
1111101011111111
1000101001
11001101101
101010110100
1111110000011001
1111111010111000
100010100
10011010
1111011100101011
10000001100
1111011110111101
1111010111100011
1111111100000001
1111101010100000
1111111111100100
1111100
100101000
10010101
1111100
101101111100
1000011100110
110100111101
111001100
1100110001
1111111100101011
1111111110000111
1111101001111010
1111011011011101
1111011100001000
1111101011100011
1010001000
11100110001
100111100011
10110110101
10101110
10101010111
1111010100111000
100110111110
1111111100111000
1111110100001011
1111111101101100
1111111101011000
100001011
1111111010000001
1010011001
1100001111
1010000010
110011010010
1000000111100
100100010100
110100111110
10111111011
1111111111011100
10001110
1111101001000110
1111011010100111
1111100101000110
1111100001100010
11010011001
100101011111
11101100100
1111111101110111
1111110110101000
111011010
10010100001
110100101001
1111111010011001
1111111010111000
1111111011001010
1111111010010010
111100100
100101011
101011111
1101101010
100100001000
1001001001111
111110101011
11110011001
110011011111
100000010000
1111111000111101
1111110101011111
1111011110000010
1111100110001011
1111100000010100
1111110111101010
10101110001
10011010100
1111101100001110
1111110011000110
1111101010100101
11110110010
101100010010
111010001111
1111111100110000
10011101110
110110010
1111110011111100
1111110101100011
1001
10011000011
100111010011
1000000011001
1010010111001
1000000001111
11001011010
1100000110
1000111011
1111110111110000
1111100110010111
1111100010001010
1111110001010110
1111110101111000
11011100101
111000101100
100100100101
10100010010
1111100110110000
11000010
101110010
101010100011
110001
101100011
101001001
11001101011
1111111011011111
1111101000110111
1111101011010101
1111110001010011
1111011010
100001111010
101111111100
110001111011
10111000001
1100100100
1111101101010111
1111111010010101
1110111011
1111111001100111
10011111000
1111110111110100
10111110111
111011001
100110101111
1111100000010101
1111100000110011
1111110011011000
11011101
100100110010
10001000100
10000110111
10100111001
10101101110
1111111101010111
1111011100010010
1111010100011100
1111001111100001
1111110010101010
100000101101
101010001100
11000010110
10000011110
110101
1111100010101010
1111100100100100
1111110011001111
110000001
1111111110101101
1111110111000001
11011000111
10101011101
111010011
1111101001000111
110000111
1011000111
1111010100100100
1111011110
1110111101
1111101010111110
1111111010010110
1111111000110101
1111111111110001
1111101001001101
1111011000000001
1111010010011010
1111101111010010
1111111110011011
11001101100
11010100011
10100001100
11011111
10101001
1111110101001001
1011010001
1111110011100011
100111101
1101101101
100111100101
10010111
1111100001100110
1111110100111101
1000111011
1101000
1111100010111111
11001011100
10001011011
1000000
1111100110111111
1010110101
10000101
1011000111
1111101011101011
1111011001000100
1111100111011101
1111110010100010
1111111100100010
1111111100110001
1100011001
1101111101
1110011111
1110010000
11101101101
11100010101
110101100
11011110110
1000011111110
100001001010
11001101000
10001000011
10000000010
101000010
100000100000
110110100001
10111101000
10101101101
1111111011011001
1111110111001111
1111111110011110
100101101
1111111010111110
1111100111000001
1111110111011000
1111111101101101
1111111000001111
1001001111
1000000111
1010010010
10010100001
10011011111
100011000010
11110100000
1111101011
110000010101
110101001001
1111101110101000
1011100
1111011100110110
1111101111100011
1100000111
1001111111
110100100000
101011001100
101010100110
100100110111
1010011111
1001011
1110011100
1111110100001110
111000010
1000011111
1111110011011000
1111110001110010
1111111101101100
1111111100011101
10001010
100011010
111
11000111001
100110101100
110110100001
110001010100
1001110111000
100000001001
1111010110100001
1111110110111001
1111110000100001
1111111111000000
1111111110111101
111101000011
1000000010110
10101010001
11101111100
1111110001000001
10110000
10011000111
1111111101000001
1111110100101011
1111110110011000
101001001
1010010110
10000000
10001101011
1110111100
1111111010111001
100000110011
1100011101011
1110101000010
1010101011110
110010110101
110110000000
1111101101000100
1111101111011001
110010110110
1111010
1111111110110000
100011111
10111100011
1111111111110000
1111001000000111
1111101010000110
1111111000010000
10101111110
11010010111
1110101001
10110001110
100011000101
110010100101
101100000011
100000100011
11110011111
1101101011
1111101111001001
1001101010
1000100101101
1010111111110
111111010010
111011000001
1000001101000
1111111101001011
10100101010
1000100100
1111111101001100
1111111010100110
1111111100111000
1111010011
1111000011111100
1111011001100101
1111110010010101
10000000
1111111000000010
11011010011
100000101
10101000101
1111110011011101
10101001110
1011100011
1111111011000010
1111111011100110
1000101100
101111000110
100101101110
1001011110011
110110011001
1001011001100
100011000110
11010100101
1111010110111101
1111100000101001
1111111101100100
10111101
100100111
11101001
1111111111001110
1111110100000110
11101110000
1000000001
1010101011
1111110111110110
1111111111110010
1111111110000101
11101010
1111110100011101
1111111011011110
1111100100101010
1111101110010001
1111100110111101
1111011111010111
1110110111
111100001
10000101110
11001110001
101101010001
1111101100001000
11101110
11100000011
1111101011110110
1111111110100100
1111111110111011
1111111011010000
1111111100010100
11010010
10100110
1111110010000001
1111100000101100
10000111010
1011100011
1100010
10101010
1111011101101001
1111110110011010
1011110011
1111100110111010
1111100111000011
1110111100
1111111110011110
1111011100000101
1111011110001010
1111011011001101
101100101
1100000011
1111100011000110
1111110110000100
11100001
1111111100100110
101010011
1010000
