1111111011100011
1111111101101100
101011010
1111111011011001
1101010
101110
1111111011011001
1111111111000001
1111111111000111
100010001
1111111101000010
100000111
1111111011110000
1111110000110110
1111100111111110
1111111110100101
100000001
1111111110100000
1111111101100100
1111111011000101
1111111100111000
11000000
100001000
100110111
10011101
11100101
1111111110001000
1000101
101010101
1111111111110011
1101100
1101101
1111111001000110
1100
1111101101011011
1000011000
11100000000
10101001110
1111111101010010
10110000
1111101101
11110
10000110001
11101001111
10001011011
110011010
11111001110
1110110101
1010101101
1110111001
1111101
110100001
1111111101000100
100011001
1111111011111110
1111111011101110
110100
11101011
1111111100111000
1111111010100011
11011011001
10010111101
1110000
100111011110
1100010101
1111111110110011
11101011001
1010011101
1111101010010111
1111111011011001
11000111110
110000001000
1010010001100
10010000101
110
11110111111
110100000011
11011101110
11000001110
1111110011011100
1111100001000110
1111011101100011
10100000
0
1111111010101111
1111111110011100
1111111010010100
1111111000111101
11010100110
1111011001111111
1111001001010000
100100001111
1000101101
1110110011
101000101001
11001111111
10111101111
1000110000
101001010001
101110110010
11010010111
11011001001
100101010010
110000001010
101000111010
10001011101
11000101011
110011
1111110000101000
1111100100111001
1111100000010101
1111111110010101
101011001
1111111100100000
1011100111
100101001111
1000111001
1111100100101101
1111001111001111
11010011100
1111111011111010
1111100
1111111110100110
1111110001001000
100001011
1111110110111100
1001010011
1110001101
1110001111
100010100101
10001110001
1111110011101000
101101001
11010001110
10101010010
100001000111
10010100110
1111110001010110
101010011
110101001
1111111111100110
1111111111101101
1111101011010011
1111011001111011
1111011001010101
1111111000100101
10001100100
1111110100111110
1111110111011111
101010011
1111110000101011
1111111001000100
111101000
1000111000
101010010
1111110010100111
1111111110101100
10001000111
10000101101
1111111111010000
1111110111101011
1111110101110100
1111101100011111
1111111011111111
1111101001010011
1111111010110010
1110010100
1100011100
1111111110010111
1111101111001101
100011010
1111010101100011
1111011111100011
1001001100
1111111111000001
1001101111
1000010101
10001100
1111110011110101
1111111100101111
1001010
1011101001
1111111100101010
1111111011010000
1111111101011011
1011000000
10101111100
1111111111001010
1111111010001110
10101111110
1001010111
1111101000
1010101100
11110010001
1111110111001001
1111101001011011
1111111001110101
1111100011101100
1111110011000100
1111011110001111
1111101010101111
100001100
1111110010010111
1111110110011011
1111111110110111
1010011010
11001000
1111110100011111
1111111110111000
1111111011101110
10011001
10100000001
1100001101
1111100
1110000110
110000011
1111111000011011
1111110010010100
1000000010
10100001000
1011010100
100001100001
1111110000110100
1111100100111011
1111101101000110
1111100001100000
1111111100000000
1111111111111111
1111011100011001
10101000100
1101000101
1111111101110010
10001101
100010
1111101100110100
1111101110110000
1111100100111010
1111101001100011
1111111001111111
10010111001
10110000111
1111111111010101
1111111101001010
101010100
1111111001001000
1111111010110010
10011100010
1100001101
11000001111
1001001011101
10101000101
101001010
1111101110100101
1111101
1111110101100011
100001101101
1111101011111100
1111011011111100
1111110110011100
1111111010101101
1001111
1111100000000110
1111100100111101
1111001110010101
1111100101100001
10000000011
101000100011
10011000110
110110100
1111110011111100
1111110001100011
1101111001
1001101111
11110111001
1100100101
1111110010000110
101011101110
111000100100
110001000
1111111111011010
1111101111010001
1111110101100011
111100001
1111111110111001
1111111111100111
1111110100011111
1111010111010110
1111100000010000
1111010100110111
1111001000110011
1111011001111001
1111011001011100
1001111100
111111110011
1001000000101
100100011101
1111110111010000
1111100000110010
1111100011111100
110010
1111111101101010
11000100100
1111110001
1011101000
100101111
1111011000100010
1111011011001111
1111100101001110
1111011100100111
1111001111101100
11100001100
111100000
1111110101000100
1111110011010000
1111010011011110
1111001011110100
1111010101101000
1111101111001010
11110011110
100010000110
1100011100001
10010101000011
1010101110000
11110111101
11001010100
10001100101
111000000
1111111010010000
1111111000101001
1111111100110110
1111111110000011
10111111
1000100111
1111100011100011
1110000100
1111111101100101
1111110011001100
1111000001100101
11010101101
10111111110
1111101111000000
1111101101001101
1111110110001011
1111111010011100
11000111101
1000100001001
10001110000110
11010100001000
1111101101001
1010011111001
10110111001
1111111111100001
1101010
1110010101
111100111
1101111011
10100100
1111101110000010
1111010101
11000010011
1111100101
1111100010101100
10111000111
1111100111
111001100
1111011001100010
1111111001001001
111000011001
1001011000110
11000100000
1000110010011
1111011110100
10001110110111
10100100000100
10101101000101
1100101010110
1110011011
1111110010101111
1111110111111010
110000010
1010100101
1001100111
1000111100
11001000001
10101010000
1111111001111010
1111101001011001
1111111110110010
1111110000100000
1111111011110110
1111011101100000
1111011100010101
10101110
101010010
1111100010101101
1001110100110
1101010010111
1111011010110
10011101000000
10111001010110
10011011111011
1100000011011
10011111001
1111110001101000
1111110011000011
1111110111010100
1111111010001000
110011010
1101001010
1111111111101101
11110100
11100000010
10010110110
10010011100
1111100100011011
1011101
1111110011000001
1111111100011010
1111110010010110
1111010101101111
1111111110101110
10000101111
1111110101111111
1011001010011
1101000101011
1100110100011
1101101101010
1000111110101
10100011001
111000001
1111101000000100
1111100101010100
1111111010101111
1111100110000101
1111110011110111
110010101
1001000100
1111000111
10001000010
1000011110
1111110101110001
1111110101000100
1111111111100001
1111110010010010
1111000010011110
1111110110011110
1111101100001100
1111010000111110
1111111000000110
1111101010100001
1111111110010010
110111011001
1000100111000
111001001000
11011111100
1111101111000000
1111101100110101
1111101110000001
1111101110001110
1111110110111000
1111111010011101
1111100100110110
1111110110110010
10011001
1111111110011000
1111110110100101
1111110000100010
1111101000110010
11111100
10001111
1111101111000110
1111101100000010
1111111101001011
1111111110111010
1111111000100111
1111010011001111
1000011
1111101101000001
1111110011101000
101010110
1111111010111101
1010010011
1111111001101000
1111111100011011
1111111000101101
1111110000001110
1111101110111000
1111101011010110
1111100100110000
1111011001111010
1111111001000100
1100011
11001010100
1101010011
1111111000100111
1111111010111001
1000001001
10000100010
1111111101010111
1111110101010011
11111100
1111111110001110
10010000100
1111000110011100
1000001011
1111101100010101
1111101010100110
1111110111111111
1111111100110110
1111111011101110
1111110011000000
1111111000100111
1111111110010010
1111111000101110
1111111111100110
1111111110000010
1111101010110001
1111110000110110
1111111101000111
11000011011
101101100
1001110010
1010000111
101000100
10001100101
101000110
1111111011011000
1111111010000010
1111110000011101
1111111011100000
1111111
1111010111111101
10000101
1111111101101010
1100001101
11111011001
1111110001100001
10111010
1111111101110111
1111110111000011
101010100
1111111011011101
10110111
1111111110011000
1111111111001101
1111011101000001
1111101111010101
1111111010101100
1111111011010100
1111111001110000
10110011000
1011111110
1000010110
10100001001
1111110001001001
110010001
1001010101
1111110111000111
1110111001100100
1111100110000000
1111111111100001
1111001011
100010
1111001111001101
1111100011010010
111001011
1111110010100000
1111111001000110
1111111100110111
1111111101011111
101100011
1111110101101010
1111111001010110
1111110110001110
1111110100100111
11000
111110
101100001
10001000101
1101010
1111100010111110
1111110011101101
10100101010
1111111100001111
111100100
1111110001111011
1111001100011001
11101001010
1111110000101000
1111100011110110
1111101100001010
1111011111100111
1111100011001100
1111101101010111
101010111
1000001111
1111111011110100
110111010
1111111110110110
11100101
1111111100001010
1111110111010111
1111110000110011
1111100111011001
1111110110101111
1111111100101111
1111111001001011
1111010110010111
1111100100000110
1111101011110010
1010000001
10101010001
1111111111111000
1111110110011000
1111101100101110
1111110101011001
1111111000110011
1111101110100001
1111100110111110
100001001
1111101000011001
1111100101100100
100000011
1111110001111111
1111101011000101
1111110000101000
1111110110000101
10111101
1100011
1001100001
1111101100101111
1111110111001110
1111110001110000
1111110010111011
1111110010100110
1111110100100010
1111101111101000
1111101000101010
1111110010010101
111001
1111110001000100
1111101011110011
1110011101
1111110101011110
11111
10110011
100101100111
110001000010
1101001111
1111101001100001
1111111011011111
1111111001110110
1111110010101011
1111101011101110
1111100110
100000011
11010111
101111001
1010000000
1111111101101101
1111101011110101
1111101011110101
1111101111110110
1111110000011011
1111110111101100
100001100
1111110001111011
1111110101100110
1110001100
1111101010101111
101101110
11100001
1111111111000111
1111111111110000
10001010001
1111111001011001
10110001
1111111110011011
1111110101110000
1111101101111101
1111011111110001
100111
11111110
1111101110101010
1111110001100110
1011000100
1111111001101001
1000110111
1111111001011100
1111100111101000
1111110111111001
1111110100110000
1111111110111001
1010001000
1111111010100100
111100010
1111101000101001
1111000100110000
1111011110000000
11101001
1111111110100001
1001111
100001000000
111101110
1111111011001011
10010011011
1111110110111001
1111010011110111
1111000000101010
1111100101100101
1111110111100010
1000000001
10011101000
110010001
1111101111100110
1111101101011001
1111101001000000
1100000010
10000001110
101000010000
10101011000
101101101010
100101110111
1001011101100
1000000100111
1111110110001000
1111101000011100
1111111111010110
1111111101001001
1111111011100101
1111111110110100
1010110000
101001100010
110001100111
101010111001
1111110010101100
1111011000100001
10101000111
1111011011011001
1111011000001100
1111111101010111
1110110
1111110010111001
1110000
100100101101
101000100011
10110000100
11111011001
101111000001
1010101000110
101010010100
1111111111000100
1111110011101010
1111101101010100
100001111
1111111010101010
1111111010110111
1111111111111000
1111111100101100
1111111111101110
1111010100110100
1111010011100010
1110100101000110
1110001111010000
1110001101000101
1101111111001110
1111000010011000
1110010010111110
1100110110101101
1110001011010000
1110011011011001
1101101010100100
1100100001000100
1110111010001010
1111011011001000
1010001011
100100100101
101010111101
11100001011
1111111100001100
1111111111011101
100101110
1111111100101010
11011000
