1111111110010110
100101000
1111111100111101
111010
1111111101011110
1111111100110001
100110110
1111111110000010
100000110
1111111100010111
1111111101010100
1111111101000000
10010010010
111010010
1111101110111100
10010101
1111111011011110
10001010
10100100
1111111100000101
1101111
10101011
1111111010110111
1111
100100010
11011100
10101
1111111110110011
110011
11001100
1111111
1111111011110100
101001101
1001000001
11010110000
101001001111
100001010101
100011010100
111000101110
1111101100011111
1111111001000110
1111100101100111
100110111100
1011111110
1111100011100110
1111100011011110
1001011100000
1001111111101
1000111110111
110100000000
11101111011
10001101000
1111111111111011
1
1111111100100011
1111111111110010
100011111
11000110
110101100
1111101111110011
1111111101100111
10100011011
1111111000101101
1011110011
1111111011000011
10100100
11110101111
11001100101
1111110101000111
11011001
1111100100110001
1000100011
100111010101
11001110010
11110100101
1000110110001
110111001100
1011001010110
1001110010011
10001010111
1111110000100111
1111011110001001
11001011
1111111011111110
1111111101011101
1111111101111111
10011010
10010110101
1111111101000000
1111111111110100
10011110101
10101111011
1111111100011110
10010110
1111110011111111
1111110000110111
1111100011101100
1111011111101101
1111000010111011
1111110010001010
1010110011
1111111101000000
100011100101
100011001010
111100100
1111110110011000
10001000111
1111101111000000
1111101011101100
1111010111000100
1111110111000110
1011110
1111111111110100
1111111110100101
1111110011101001
1111110100111100
1011001111
11111000101
110
11010101001
1001101101
1111111100110110
111010110
1111110100100100
1111110011000000
1111011100011010
1111010011101100
1111100001010001
1001101011
11101100101
11101100111
10111111000
101101100000
10111001
1010111011
100000110001
1111101101010001
1111101110110001
1111100011110010
11000010110
1111111111101110
10010101
101101000100
1111110010100100
11100111100
11011100111
101100010000
11001000100
110000111
10001100
1111101001100110
1111010101110011
1111011011110011
1111001000110101
1111011011001110
1111101101100110
110100000
11101010
1111111001010000
1010010101
10101011000
11100000011
10000101101
100010101001
100100110101
1111110101100100
1111111110111100
11111100111
10011
11011010
1111101000100010
1111110101010010
10001101
1111110000000010
1011011000
1111100100100111
1111111100100111
1111110110101111
1111101001100001
1111100011101010
1111010010101011
1110110101011001
1111000101011001
1111011000100101
1111100110100110
1111100010011111
100011000
1000101011
1010101110
10111100110
10010001001
11101000101
100011111101
1100010001
1111101100100001
11010010111
110111
1111101011001001
1111011100000010
1111110101010110
110011000
1111111111001010
1111100111000001
1111110101010011
1111111100000110
1100000000
1111111000111010
1111111100001010
1111010101101011
1111000111111001
1111010100000011
1111011001110001
1111100101111011
1111111111101000
1000001100
1111111101110001
10010100001
1111110110011110
1111111110010011
1111111001011001
11010000
1111100000010011
1111110010100010
11000000010
1111110110000110
1111101001101111
1111011110010011
1111101001001110
1111111010101100
1111100001100110
1111100000000111
1111111000110110
1111111011011011
1111110111111010
1111111100100111
1111110001100110
1111011100100110
1111001001111101
1111011000100111
1111100010101000
1111101010111001
100101010
1111101110111011
1111101111100011
1111010110001100
1111011110011101
1111100111000101
1111010110001111
1111011111111111
1111000111001010
1111011111011111
1111001011111000
1111101010110001
1111111110011000
1111101101101011
1110111110100010
1111000110011011
1111010010000011
1111010011001011
1111111011111011
1111110101101100
1111100000101100
1111100100110010
1111101111011111
1111100001011010
1111010110000001
1111100000110101
1111110100010100
11100011
1111110111010000
1111101011011001
1111100110111010
1111010111101000
1111010101000111
1110111001100101
1110110111010000
1111011001000010
1111110010011010
1111010011111010
1111011110000101
1111110011100100
111100101
1111010100100011
1111011010111001
1111011101001101
1110111010000001
1111101000110111
1111101111000001
1111110111011110
1111111000010110
1111111101000011
1111110011110001
1111100110111101
1111101101001111
1111101001101001
1111111111100011
1111110100000011
1111110111101000
1111101101001110
1111100110010100
1111000101101011
1111010001111000
1111101000010101
1111101110000001
1100110110
10000000011
1111001100101001
1111110111111111
1111111001010110
1111101110101001
1111010000101110
1111011011111010
1110110011101000
1111011100100111
1111110000011100
11001101
110010101
10001100010
1000000110
1111100101110001
1111101101011000
1111111001101001
110001010
1100111101
11011011
1111101011111100
1111100011111010
1111011001010010
1111100001000110
1111101110100111
1111011110010100
1111111111000011
1111110010001011
11111000000
1111110010101011
1111110000011010
1111111110110000
1111101010011010
1111011111001001
1111010101011110
1110111110000100
1111101110110001
110001110
101101011
11
10111010111
10000010101
1011110
1100010011
111000100
1101100010
1101000101
1110000
1111111111001111
1111110000011110
1111010011001011
1111101000110101
1111110011111101
101100110
10101011001
101011001001
101001001100
10110001100
1111011111111011
10111110001
1111110010001001
1111001010010100
1111000101011101
1111001111110110
10011111011
10100110000
1111110111100011
11011010110
10100100001
10110101110
1001111101
10000010101
110100110
10001000110
10000101110
10000101
1111110100010001
1111101111111111
1111100011110000
1111110101101111
1111111100100101
111011
110010110001
1000001000110
11101101101
10001001000
1111101010010100
11110110000
1001101100
1111110110011111
1111011101010100
1111111010011011
10011000010
1100111101
1010001
100011011101
10100101110
101100111
1111111101011011
1100100110
10101100010
10001111101
1100001101
1111111111110001
1111110000111110
1111100010100011
1111110011101011
1111111111110000
1111110111100100
101001010100
1110000011
100100001100
100011001010
1111111111001100
1111101000110110
10100001011
10100111010
101011010010
1111110110001001
1111011101101011
10001011000
10110100101
100010001011
11001011010
10100111110
1111111111000101
1111110101101011
1000110100
100100111011
101100110001
10011110000
1000010100
1111111110100001
1111100011111001
1111110111001011
1111110100111010
1001010111
100001111100
10101010011
11010001011
100001001010
1100010001
1111101111010100
1111110111001110
11110100111
101011001101
1111100000110000
1111101000001011
1111010010
1110100011
11111010111
11000001101
10010010100
1111101111010000
1111101110110000
1111111111100110
100111111100
110011111100
11101011010
110010000
1111101111111111
1111111100000101
1111111100101111
1010111101
11011111100
11110100100
11011111010
101001011101
1101011001
1111100100000010
1111010111100110
1111111101100000
100011111010
11111111100
1111010101100011
1111101000110001
1111110110111010
1100110111
11001010100
1111011010
1000001101
1111110100001010
1111101011001011
1111101101011101
11001011111
100010000001
1110111100
1101001
1111110010000011
1111111010111011
1010111101
11101100000
100010000001
1001001111
111000111
1010
1111011100010101
1111001010001101
1111010011111000
1111011110111001
11000000111
11000010
1001110101
1111101001010001
1111101111001000
1111111001110100
11000101110
10011101001
10111000010
1111110100110110
1111100000110000
1100001
11101111000
100110011
1001111011
10110000
1111111001111110
10001101001
1111111000001100
1001100001
1111111110001100
1111101111010010
1111011101100000
1111110010000111
1111100100101111
1111100010000010
11110100011
11111110001
1111100001100001
1111111010110010
10101001100
1111101000100001
1111100100010000
1111101011011001
1011011100
1111111011011000
10010000010
1111111001111110
1111111111000001
1111110001011000
10101110
101001001
11101011111
11000000011
1100111100
1110110010
1111111000111100
10001111110
1111110110010100
1111100011001101
1111111000110100
1111011111100101
1111001011000010
1111011111010111
11111001110
11100001
1111100011101010
1000000001
1111110111101011
1111111110010011
1111011000000011
1111101000011101
1111010100000111
1111111001101000
1000111
1111111100011010
1000100011
10010111010
1001110100
101001011000
100010000101
10101101001
1100000100
10101100110
1111111000101111
1010011100
1100011
1111001110001110
1111101100011010
1111100001100100
1111110010110111
1111100111010010
10010101010
10110101010
1111110101100001
10010
1111001010110000
1111111110011000
1111111001111011
1111110001100110
1111101111000101
1111101110101011
1111101011001100
1111110000100001
1011111000
10011111001
110001011111
101100101100
11011101101
10101001111
11100101100
10101000001
10000011110
100101111
1111100011111010
1111001111101111
1111100101010011
1111101011111011
1111010001011101
1111011001000010
1111111001100001
11000101000
10101001110
1000100110
1111001101111010
1111110111100000
1100100110
1011100
1111101100110111
1111110101101111
1111011010111101
1111010111100010
1111101000011011
1111111001100101
10010000010
100010001
11011010000
11111010101
10001001011
1100001
100011101110
1010110100
1111100000100111
1111011101101111
1111111001101100
1111101000100100
1111101111110010
100101000110
1111111000000100
1111111100111100
1111111010111010
10111111010
1001100100
11101110001
100101000101
101000100110
11010011011
10000110010
1111111111100110
1111001111010111
1111001110011001
1111100010001101
1111101110010011
1111110101111100
11111011110
100110000100
11001100100
1101010101
1111111011111100
1111110111000001
1010110110
110111011
101011001
1111100100010000
1111100111111001
111101001110
11000000
1111111111101111
10011000
1111011011100011
1111110111100100
100111110
11110000110
1001111101
101110011
1110111010
10010100010
1111011111000001
1111010000011111
1111011010010101
1111110001010111
1111101110100111
1111101101110010
1111111011101110
1111100010100001
1111101101011111
1111101100001110
1111101000110010
10100001011
101011111000
101100010001
10110000111
1111111111001101
10111010010
100101100
11001001
1111111111100011
1111101110111101
1000000000
10100111100
1111111100000101
1111110111110101
1111101110111101
1101010101
1111101000010000
1110111011000101
1111000111111111
1111000100001110
1111010110000100
1110111100010001
1111000110100101
1110110100111011
1110100000111011
1111011001010101
1111011100000111
1111110101101111
1111110100000110
1111111100100110
11101111000
11010011010
1111110101101111
1101001
101000111
1100111
1111111011011101
10101001
1111110110100001
10100011101
1111010111001110
1111000010000011
1111000010110011
1111110111011111
1111011111111110
1111010001110111
1111001010111101
1110100011101011
1110000110100000
1110001110011110
1110010001000111
1110011011000111
1110111100000110
1110011001010010
1111010100110001
1111010011110111
1111001011100101
1111011001100100
1111101000001111
11010101
1111111101100010
10010101
1111111100110101
1111111110001111
1111111011100010
1111000
100011010
1111111000110110
1111110100011010
101010011
1111111111010001
1111101111000000
1111011100101110
1111010011000010
1111011100010001
1111001110001011
1111000011010100
1110101011000111
1111011110101101
1110110111000101
1110111101111111
1111001001011000
1111010101101011
1111011011001011
1111100010011100
1111100101101011
1111111010101101
1111111100101000
10001110
1111111110100000
111
