1111111100111110
101000100
1001110
1111111110100110
101011000
1111111111010101
11000
1111111011011011
10000001
10111010
10111111
1111111011110111
1111111000100100
1111101001101011
1111110011100011
1111111011010100
100011011
1111111110100000
1111111111000001
10101001
11101110
101111
1111111111100101
10101100
1111111111000101
1111111101100000
101000011
1100101
1111111111000111
11100110
101100
1111110
110011100
101101110
1110101110
101001010
1111100000111101
1111011110111100
1111110010101101
11100110101
11000011100
101101010
1111101011111110
110101111100
111001000001
100110110011
1111111111010110
100010000111
101001100000
11001011000
101101011101
100101111100
1100010
1111111110010011
1111111011110110
11100111
100010010
1111111111111011
1100001110
11001001111
11001010110
1111111001110011
1111111110000001
1111101001001101
1111111000101101
1111111001110100
101000000
1111101010101011
100011001
1111111100001001
1111100010100001
1111001110100111
1111101010000100
1100011100
101000001100
10000101010
1111111111
11000100001
100001010111
11010100001
100001110000
10101101101
10001110
1000001
1111111011100110
1111111100111001
10110001000
101001001111
110001000100
1111101101111011
1111101000000101
1000010000
11010010010
1111111111111001
10000110110
1111110110010010
1110001101
11101111010
1111110011100101
1111100100011001
1111011010100000
1011000100
10110111111
101100110
11110001111
1100101000
1111101111101011
1111110000000011
10110101010
1111100101010101
101011010000
1111111111101010
1111111011111000
10111001110
1111110110010010
11101000101
1111100100001110
1111010011001011
1111100001001001
1111100100111101
1111101110101110
1111110011110000
1010101000
1111101110101111
1111101100101000
1111100110001111
1111111101001001
1010011000
100011000
101111001
101011010011
101000110101
1111111101101110
1111110100100101
1100010
1111011101110000
1111100110101001
1111100001101101
1011000110
10010011011
1111111011011101
1011100
1111111110100010
10011101010
1111110010110010
1111101010001101
1111110101011000
1111110100000111
1111110011000101
1111110001011111
1111101110001111
1000111111
1111101111000110
1111100011111110
1111101100101100
1111111010111111
11101001001
100000101110
100101101110
10101001000
1111111000111010
10101011010
1100010100
1111110100001110
10001100110
10110001
101101011000
1111111110101111
100001000
10010010101
10001001000
1010000001
1111011111100110
1111111011101101
1111101001111110
100100001
10110100011
10110001
1111111110011100
1011110100
10100111000
1101001101
1100011000
11101101010
10110111000
111111101
11100100
1111111010011100
1111111011000100
1110010011
100101110011
1111111011000110
10100001001
100001100011
101010110
111011101100
1111111001111100
1110010000
110011010
1111111011100110
1111011111000101
1111111111010010
1111101001000100
1111111010001101
10010101101
1011001101
1111111111001101
100101001
10001001111
10001100000
11010010101
10101001001
1000100011
100010
1011100110
10100010
1010100100
111010
1000010110
10010100101
1111111010101001
111100011
1111011010001011
1000101110111
11101000111
1111011000
1000000
1111110111001011
10011001
1111101001010101
1111100101011011
1111111000111110
1111111000001111
1111110010011000
1111111011010100
1111111100010101
10011101111
100001010111
11110111001
11000001001
11010000010
1111110110100001
1111111100000001
10001001110
1001011001
1111110101010111
100000101110
11000110000
100111010
1111010110010000
1111101000101101
110011001001
1110000010
1111110001011110
1111101011010011
1110011001
101011011
1111110000101111
1111111000010101
1111111011011100
1111110110100011
1111111100100001
1111111100111000
10111011
101111100
100100101111
100100100100
11100101111
1110000001
1111100111000010
1111110000100000
1111001010
10101101
1101000
111100100
110101111
101001011111
1100110101
1111111101000111
1111101000010111
110110000
1110111010100111
1111111011110010
10100011100
1111110110101000
1111101111010101
1111101101101000
101101
1100111
1000101111
11110101
11001100
1010101100
100110110010
1000110110110
100101100011
1111111100101010
1111110010111100
1111111001100101
11111
1111111111100011
1111110110011101
1111011
10010111011
11110010010
1111101100000100
11000111100
10000011110
1111100011001010
100011000010
100010110
111001100
100001110
1111011100111100
1111110111000011
1111011100000000
1111110110011001
100000
1011011011
1010110001
1000100100
100110100011
1000100011110
100100110101
1111101100110101
1111100000100011
1111101100111111
1111101111010110
1111100010011100
1111110001001010
111111001
1000000
1000000010111
111111001
10100011011
11110011
1111101000110111
110001100
1111110101100010
1111110111011010
1111100110110011
1111110100001101
1111110111100100
1111111101010001
1111100110101111
1101010010
1011011
11001
10000111110
100110111001
111111101110
100101100100
1111100110001000
1111100010010010
1111101011101011
1111011001111011
1111011000110101
1111111010100011
1111110101110000
10111100010
11000011011
100100111111
101010100100
1011100101
110000001
10000101100
11000101001
100001000010
1111011011110111
1111101101010110
1111101000111111
1111011011110111
1111100011001010
1111110101100000
1111101011001010
1111111111101101
10100110010
101101110110
110001011101
110101110
1111100010010110
1111100010101110
1111100010111011
1111110110100001
1111101001101101
1111110011101100
1111101010101100
1000100100
100001001001
101111010101
10101101011
11101010001
10100011111
110111111
1111110111
10010111
1111011001001110
1111010111101110
1111101111111011
1111100111111111
1111100100011011
1111011111100111
1111110101111001
1111101000
100001001110
100101100100
11011011000
1111111101011000
1111101000010111
1111101011111010
1111110101010101
1111111011001010
1111101100001011
101011001
1111001110001100
1111110010111011
1100101000
1111111001111111
100101101001
11110000011
1100110100
10111110101
1111100111
1111010100100011
1111110101010110
1111111000101001
1111110100100111
1111110010001101
1111110111010001
1111101110101010
1111110111011001
101011011
100001000010
101011011010
11100101000
1111111100010011
1111101100101110
1111111001001101
1111111011011011
1111111000100011
1111100101111100
1111101010110001
1111010111100000
1111111000010010
100110100
1111111011101011
1111111111000011
1111110010001000
1111101001111110
11011001001
1000101110
1111111100010000
1111101011011101
1111111010101001
1111101000100011
1111101100101101
1
1111111100110011
1111111011100000
1111001010
100011011110
111001111110
11010011111
1111100111011010
1111100010010110
1111101100101101
1111011011101011
1111100011110111
1111011001101011
1111110000111101
10100000
1111101010011100
1111111011010000
110000000
10110100000
1101011001
10111000
10011011101
1111100010101111
1100001
1111101001010011
10000110
1111110110100001
1111111001001001
1111111100010100
1101101001
110001110
10001100111
110010011010
100110011011
1111111011010011
1111001011101010
1110111111100110
1111010101010110
1111100001111100
1111111111101010
1111110111100100
1111100110100010
10001011011
1111111010011110
1111111111110100
1111101011001110
111000011
100000001101
11011111000
10100111010
1111011100001111
1111101101011000
1111111010101101
1111111110011110
1111110100000000
1111110000110101
10000110000
11000001100
101111100111
111101011001
1001010010000
11011001001
1111100101000000
1111000110010110
1110110111010011
1111010111101111
1111100001101110
1111110101100010
11001010
1111110111010011
1111111111110011
1111001
111001010
1111101110100110
1111101101011100
1111110011011011
1001010
100100110110
11010011
1111111011110101
1111110100110001
1010000011
1111110010111010
1111111000111001
1101110100
101000100101
111000100101
101111111110
1000100101100
1111100011
1111010010001011
1111001101110111
1111001110010001
1111011110100001
111000
1111111111001001
110110001
110110110
10000110011
11011001011
10010101110
11001010100
1010110111
1111111010100100
1111111100000001
10000101110
1111011100010111
1111101011100010
1101001011
1111111111001000
1101001000
1101011000
11111101111
100111110011
110011110111
111111000101
101110000110
1001001011
1111011111000000
1111100111110100
1111010101111011
1111011111100101
1111101000100100
1001111100
10101001110
11000000110
10011101001
100001110000
1111101011111111
1111111110101101
1111111011100001
10110010001
1111111101111001
1110101001
1111111010111100
111010101
1111111011
1111100111011001
100010011101
1011011100
1111101111100111
10100101010
11111111011
100011110000
10000011011
1111111100101111
1111111010100100
1001011000
1111110000010001
1111100010001001
1111101000110001
110010101
111000101
1101110111
110101011
10001001011
1111110101110011
110010
101111011100
101010001
1111111011100111
1111111011110100
101000
1111111101111100
11100010001
1010000110
10101100000
1111110110111000
1111011110011110
1111110111000101
1111111101010010
1100111101
1111011011
10111110100
1110100100
10100110010
111110111
10100111
111110
1111111110101101
11011001
11100101101
1111111011000110
1100110000
110110010
10001110001
101010010110
10100
10010110
1111111110001010
1000000000101
100100110101
11100100101
11001011000
1010101101
1111111111001111
1111111111111111
1111101010110010
1111111101110100
11001100100
10001101100
101110000010
11011000100
10100100000
1001110001
110110000
1010100000
1111111101010001
1111101111010010
1111110101110011
1000111000
10011010001
1011001000
11000111011
11111111100
1111111111001010
1111111011101001
10110010
1111110010001111
11010111010
11111000010
1111111000011001
11110100111
100100
110001010
1111101111011000
1111111011010110
1111101111
11110000001
11110000001
10011000001
1111110111111100
1100011111
11110110111
10011001011
1000111110
1111110101111111
1111101011100111
100111011010
1101111001
111110001110
1111101000100110
111010110
1111111110011111
1111111100110000
1111111110010000
1111111001111000
11100011111
1101101110
101110110001
1011000000
11011011100
1101100110
1111011001
110111110
1111111110100011
1100000101
1111101000
1111110011101100
1111111111110110
1111111010
11100011100
1111110101010000
10010110101
1111101110011111
1111100111000000
111010000
10001111001
111010000010
1100011100
10010000000
1001110
1111111111010000
1111111110110000
10001
1111110100101001
1111001111001000
1111111011100100
1111101011011010
1111110000010010
1111110101001100
1111011110111001
110001010
1001011111
11011110010
1111111110110010
1111100000101101
11011111
1111111110110101
1111110101101110
1111110011011101
1111110100101001
1010000010
1110111
101100011
11010110111
1101110110
1111111111110101
111011
1111111101110011
10001
1111111010110010
100000001
1111111011010010
10000011001
1010011000
11011001
1011110101
1001001110
1111111101000100
11010111111
10010001101
10010001000
1111111101010100
10001011100
1111001110100010
1111001100010100
1111010001111000
1111101100111111
1111100111011011
1111011111010111
1111011001110001
1111110001110011
1111100101011100
1111111101100100
100001000
10100100
100111
