10000101
1111111110010100
1111111011011100
10001111
1111111011000111
1111111101100101
1111111110011001
1111111011100011
11111000
1111111111000000
100001100
100010100
101101010
110001110
1111111010101000
11011
11101100
1111111011000111
1111111110111110
1111111011001000
1111111100001001
100100101
101011011
1111111111000000
1111111100000100
1011011
1111111100000011
1111111011111110
101010101
10
11111110
1111111111111011
101
1111111011011001
10111111110
1101001010
10101011111
10010001001
10100100001
1000101001
1101100010
1111110011
11101010111
101100001
1111110011101010
1111111101100111
1111001000
1000111100
10000010100
1111001101
111
11110100
10111010
1111111111101101
1111111010101011
1111111101000100
100101111
1111111101011001
1110110
1111111111000111
11100110
1100010101
10111010
11100001101
11101000110
11000000100
1010000101
11011100000
110011010010
1100110110010
1100011110101
1110010101000
1011000111101
1001111110
1111111111010110
1111101111111010
1111110101001100
100111111000
10000000001
11001001011
11010100
1111111001000100
11010
1011
1111111011000010
1111111101100000
1111111111111100
101011001
1111101010101000
1111010011101101
1111011100010100
1111111010111100
1111101100011110
100001
1111111100000110
1111101100011110
1111110000011111
10101101101
111001101
1010001100
10000111000
1111010111
10010011111
1111011011
1100011011
101110000
10000101100
101010111000
1111110111100011
11010100000
1111110000010110
10111
100100101
1111111001000101
1111100110101100
1111010110000010
1111111110100010
1111110101101111
1111101100111110
1111111000101110
1111101100110000
10100011110
1111110100111001
1111101001111010
1011101100
1110110101
1111111000011011
1111110100011100
1100011001
1111110100100111
1111110010000101
1001000000
101010100111
100000
1111100110000100
100010111
1111101011101101
1110111100101010
1111011010100010
1000000011
101010000
1111111101110010
10001100
1100001111
11001000001
1111011110011111
1111110000001111
11100111
1111101100100011
1111111100010011
1111110000011010
1111110111101011
1001100111
1111111100101111
110100100
10100011101
100110100100
1111111111100001
1111110100000111
1111111010110011
1111101011000010
10010
1111100011111010
1111111100011100
1111101011010010
1111001010111001
1111110111000011
10000001011
1111111110111101
110100111
1111001001101010
1111101011000101
111101010
1111110100010000
1111111011111101
1111111001010110
1111101101101010
1111110100001100
1111110111001001
1111111010000010
1111110110101011
1111100110011111
1111110011110111
1111110011101111
1111100101100010
1111101001000111
1111110000000011
1111101011111111
1111101001110011
1111111010010011
1111110111100010
1010111101
1111101100110010
1111111100111000
1111111100101001
1111110000110110
1111111101001011
1111110000100110
1111000101101110
1111111100110011
11001111100
10010101101
1111101000100011
111110100
1111110100000110
1111111001001100
1111110100001000
1111110110001000
1111101001010001
1111100010111010
1111101100000010
1111110001111001
1111011111101000
1111101010001001
1111101011110010
1111110001000100
1111110111001000
1011111000
1100011110
11001111111
10011111111
10010111
1111100001111001
1111100100110011
1111101011101000
110011011
1111101110101110
10111100000
10111100
1111100100100001
1111110001001100
1111111010111101
1111110001110100
1111111010101011
1100000
1111111100110111
1111101011111101
1111101111110100
1111110000001101
1111101100101000
1111100101100011
1111111011011110
101110100
101010111
1100110111
100100100
1111111111011110
10110111110
10111100010
100100101101
1111111100110101
1111111000000100
1111110000011001
1001111
1111101101110001
1111101010011000
1111110011010010
1111111111111101
1111111010011110
1111110011100000
1111111101111101
1111110110100110
1111110101101011
10011011
1111110010110000
1111110011011000
100000000
1010110101
11001001011
11001000011
11010101111
1111010111
1111010001
1010011010
1111110111110111
1111111000001000
1100000001
10111101001
1000010001
1111101010100110
1111110110110101
101001001
1111100100110101
1111010011010111
100010011
1111110011111111
1111101111101100
1111111110001010
1111101011011010
1111110110110011
1100011010
1101001
1011111111
10011010101
10000001101
100010011000
11010001001
11101011010
1011110010
1101000
1011100010
10001100
11100101000
11001000000
10101101110
1111111100100010
1111010111001110
1111111100011100
1111110011010101
1111010010
1011000010
101010010
1111100000100010
1111111110011110
1111110101011001
1111110010010101
1111110100000001
101100111
1111111111
1101101
10111100100
10001111111
1011010001
10101011111
111001100
1111100110010110
1111101110101001
11001100
1001000001
1111111111010001
1111110010111100
1111111001011010
1111101100011101
100110
1111010100010001
1111101000010011
1111111100110101
1011010001
11010101110
1111111100
1111101111100011
111001001
1111111011000110
1111101101111111
1111111101001010
1111111111100000
1111101101000000
1111111111001101
1111010001
11001110
1111111010110101
1111110000111011
1111111010000111
1111101100000011
1111111011001000
10111000110
10101010011
1001010001
1011101100
1111110111001101
100001110000
110010001
1111001111111101
1111110011000001
1111111110011001
10001101100
1011000001
1011010011
1100011011
100001011000
10101110100
1111111010111110
1011110101
1110101
1111111000101100
1111110101100101
1111110010111100
1111011100001001
1111100011001001
1111110101001100
1111101100100010
1111110001010000
1000010
111101001
100010001
1010101001
101101110
10101000000
1111101000010111
110010000
10010101110
10111110001
1101110100
1111111101111110
10100010011
10110110110
101000100000
100101110001
1001101010
1111110100101111
10000100
1111110100110111
1111100011110100
1111101011101001
1111101000101001
1111110001001110
1111101111010010
1111101001000001
1111111111010000
1000010
1011001100
110101001
11100
1111101101011001
1111110011011010
1111110111110110
10101100011
100101010110
1111110100100001
11110101101
1010100110
1111100101110001
100001011000
100111100100
111001000101
11011010101
110010101
1111111101110100
1111100111110010
1111101110111100
1111001101010100
1111000010110100
1111011101001010
1111111000100100
1111111111111001
1111111010110010
10010000100
1111111101110001
10110010
10001010100
1111111101111001
1111111000000100
101011
1110101111
1111101110111111
111100000
1111011010100110
10110010001
1011110010
1111100110111000
1111100000011010
1111111110010011
101010101110
1010010001101
111010110111
11010000101
110000111
1111100111010001
1111001111011000
1111010001101000
1111011111100101
1111111010110001
100001101101
100011000000
11000010000
1100000101
10000001011
1101010
10011100000
1111111000101000
1111110001111100
1111111000101100
10010111010
10101010000
1101101011
1000111100
100010110
1111101001111101
1111100110100000
1111100101001110
101111100010
1110101010110
1011101001100
1001111111010
1010011111100
100011011111
1101001000
1111111010010000
1111101101111010
10110001111
100110010100
10101011110
1110111111
1101011010
1111111111101111
1111111110010000
10110111001
1101010111
1111111101011000
10000010001
101011100000
10100101
11
101100000
1111011010100011
1111101110000010
1111011000011100
1111011011001001
100011010110
1001111110010
1010000001010
10011111110100
11001111111011
10111111001110
10001011010101
1100110000001
1010101101111
1000001101001
101110100001
11010110110
1101001111
110111
1011101000
1111111110100001
10001000
1111101011000111
1111110011001110
1111111011110000
101101000101
111010100
0
110001011111
101000101
1111011111110100
1111101011000000
1111001100110101
1111111001101011
100101011100
10011110001
1001110011001
10000010000000
10110001001111
10111011111101
10010011110011
1011111110100
1001001110101
100111011110
11100100011
1011111101
1101100011
1111111110011101
1111101001111011
100101011
1001001110
1011001000
11111001
100000001000
1111100010001100
10011101111
1010101100
11011101
1111100100011000
1111011000100101
1111000100110101
1111100100100000
1111111001100111
1111101000110110
10101010
1001111000
11101000000
101100111011
111000110110
110000001110
11111110011
10100011100
11000100010
1010011111
1111111001000001
1111111110100101
1111101111100010
1010000100
11000110100
11011111
1111110010001011
111010111
1111110110001001
1111110101110011
1111011101011010
1111111101010010
1111011010101100
1111100000111110
1111010101101100
1111011100110110
1111110001100110
1111101101011010
1111100100000000
1111110110011110
1111101010001110
1111100000010100
1111110000100011
1111111110000001
10110000110
10110110010
11001010111
101111101
11011001111
10101011010
10111010000
1101010101
10111000101
100000110001
1101100111
100000011
10111010
1101011111
1111111111000001
1111111101101111
1111110110101111
101110111
1111110100010011
1111111000110011
1111110011001100
1111101000111011
110
1111101011101001
1111100101110111
1111010001011001
1111101001111001
1111110110011111
1111000010
11111101
10110100111
10001110110
11010100011
11011110001
100001001010
11110110000
10110011011
1010000100
1111011100010001
1111111101001101
1111101100011110
11101010000
1111110011100010
1111111110111000
1111111110011101
1111001101101111
1111110101010011
1111010111101010
1111100101001010
1111101001010011
1111101000001000
1111110000110100
1111110010010000
1111100100001010
1111100111011110
1111111010011010
1111111101000011
1111111111110101
10111000110
11101000011
10100101111
1111111000
1111110101011101
11100110001
101000101100
11011001110
10010100101
1111101010111100
1111110001100100
101100011110
101000010
1111111010111000
100011111
1110001110
1111001100110010
1110101010011001
1110111110011001
1111010110111100
1111001011011110
1111101001010001
1111110111111101
1111011111110110
1111110100011000
100110100
1100010111
100000111101
101010001011
101011011000
110100000
110010101
11001010010
11010001111
101000001
100101010111
1111110100100101
1111101101010111
110100100000
1110101101
11101100
1111111110001110
1111111101000001
1000100
1111010110011111
1110111101010000
1110111010110000
1111101011011100
1111011011110000
1111010100100101
1111101000010100
1111010101011100
1111010100100001
1111100100110111
1111111100000001
100111
1011100100
1111111010100101
1111110001010011
1000110110
1111111000100001
1111111100111010
1111110000011011
1111101010001100
100000100
1111011011100010
1111100111111000
1111111011111000
1111111101110011
1111111101101101
1111111100111101
1111111110101111
1111100110101111
1111001001110000
1110110010101000
1110110100111100
1110101111111000
1111101010010011
1111000001111100
1110101010100110
1110100101010110
1111001100000001
1111000001100001
1110100010111101
1110101011111110
1110110101100010
1111100010001001
1111010001110000
1111110101111111
1111110010001011
1111110000110110
1111101000110000
1111100111000101
1111111000100001
1111111001011111
101010101
1111111101001010
11100
1011111
10000011
1010111
1001010001
100111110
1111111000100110
1111111001001000
1111101111110011
1111110101110001
1111100011000100
1111110011000011
101000101
1111100101011001
1110111011000011
1111011111011110
1111110110101000
1111110000110100
1111100110001110
11000000
11110010110
111011110
1100100010
1100110100
100111101
1111111101101100
1111111111000100
1111111110111011
