101011001
1111111110110101
100100111
1111111100110011
1111111111011010
11110011
1111111011001111
1111111101101011
1111111100010011
1111111100110110
1111111101011111
100000
1011001011
1011110001
1001011100
1010100
101100
10111010
10100110
11101110
10000000
100111000
101001000
1111111111100101
1111111010100010
1111111110011101
10010100
1010110
1111111011000010
1111111101101000
1111111100000001
10111001
1010000101
1011111001
10010101101
11110010100
11010101111
101101101110
111111101010
100000001011
110011110010
1100000110
1111000111011000
1111101000011101
1011010111
111001111101
111110111101
1010011011001
1000011110001
1001010011000
101000111100
11111001101
1001111
11100101
1111111101000010
11000010
10010101
1111111111100011
11000100101
100000110000
100111001011
101010100100
100010000110
1001100001111
101000110001
110101101110
101000110010
11111101011
100011100100
1111110001001000
1111110101101111
1111100101000010
1111101101101100
11111001110
10010010101
1100100111
1111110110111010
101010010011
0
10101100
11001100000
100010100
100010010
111100
1111111111110101
101011
1111101010111101
11101000101
11010010110
11101001111
10111010011
1111001010111110
1111100001011100
1111111100110010
1111111001010111
110111001
1111101001110110
1111100000010011
1111101111011100
1111110100011101
1110011
10001010010
1111110110000001
1111100001001011
1111110011011101
10011101111
1111111011110100
1111011111011111
1111101011101010
1111111010000111
1101001111
10000011
1111111011110000
1111101011111000
1111100011001101
1111110011101101
1111110011010001
100001
1111010100
1111111110100101
1111110111101001
1001010001
1111111101000011
10001010110
10101000001
111001011
1111111010001101
1111111110011111
1111111101000100
10000
1111100011100101
1111000100011100
1111100010000100
1111110000101111
1111101010001010
1110100000000010
1110110110001000
1111110110011100
1111110111111100
1111111101011010
1111111011011110
100001001
1111100001101111
11001000
1111110001111000
10001101
10001111110
10101010010
1000100111
10100010
10011000111
1101011011
11011110010
11110011000
10000101110
1111000001
110010111
1010
1111011111010001
1111000001001011
1110100001101000
1110000110110110
1101110001011111
1101111101001101
1110011000111000
1111100110101011
1111111110111101
10010100001
100110
1111101001110111
10101101101
100001110010
1011101110
110011010
10011111000
11000001010
100110010
1100001110
10101100010
1101111111
11010011011
110010
1011001111
1111111111101000
10100010101
111001000
1111101010111101
1111011110000010
1111010001001100
1110111110010000
1110101101011010
1110110000110110
1110111011111110
1111011111001001
10000111010
1111101110000100
11111110
1001111110
11011001100
110011001101
1111110111100001
1111110101001001
11011011101
1000011011
10101101001
1001110011
110001010
10101001101
1101101
1111110100000001
1111101111001011
1111110101101010
1111111000011111
1111101111011110
1111011011011011
1111010000100100
1111101110111000
1111011011001001
1111010000001100
1111001111111101
1111111010110010
1100010011
1111111000010000
1000010
100101010010
10110010000
10111111011
111000010
10010001
1111110101110100
100101011
1111111100110000
10110011110
1111111000
1011001
10100110011
10001011
1111101010011010
1111110000001111
1111111011101000
1111101010111010
1111011001011100
1111101010110110
1111110111000101
1111110110101110
10111010
1111111010101011
1111111011111011
10010111001
100100001110
1111111010100000
1111010111010110
10010101001
1111110000110101
1111110110100111
11011000
1001001010
1111101010000010
1111011111101000
1111110011111101
111001
110100
110110100
1011111001
10010101011
1111101010111100
1111101101110110
1111100110011111
1111001110111000
1111101001001010
1111110110101010
1111110101011011
1111110100110100
1111110000110001
1111111110111011
1000011
1111111010101110
1111110110010000
1111110000101011
101000011
11001101100
1111100111001101
1111110101011010
1111110111101010
1111110101111000
10000010010
1111110111011110
1111110110100010
1111100111101010
11001110
1111
10110000
1111110101111011
1111110101110011
1111101000100100
1111011100110010
1111110100111101
1111100
1111111111110010
1111110000111011
1111011110001111
1111101101101111
101001111
10000100010
1111110110010000
11110110100
1111101011011111
1111010000011110
101100010
10000001001
1111111001110001
1111011111110101
1111101111000100
1111111011110000
1110000101
11111
1111110100010101
1111111110111010
1010100
1110011
10101111
1111111110000010
10100000
1001000101
101100001110
111011110010
11110100100
10101100101
111111100
110000111
1111110000100011
1111100100
1111111101111100
1111110101110101
1111000001101111
1111010001011100
100101
101010000
10100001000
1111110001001010
10100011
1111011101001111
1110010
1100
1111111100101100
1001011
111110011
110101
1111100110101000
1111110010110100
1111110101100001
11110000010
110101100001
110010100000
100111001011
11011100110
1011010
1111110010110100
1111111100110011
10000000010
11010111
10000100111
1111110111011110
1111101000101011
1111100011111110
110000111
100011001111
1111110001101000
1111101110101011
10110110111
1010100011
1100100
1111101101000111
1111110001101011
10101111
1111100101011111
1111100111111110
11110000
111110100
100011010100
111001111110
100111010011
11101010101
1111001110
1111110011111000
1111110101010000
1111101010011111
1111111000001110
10000101
1111111100000111
1111110110011111
111000111
10000110000
1111110110001000
11001011100
10001101101
1111111001100001
1111111110000001
1111111111101010
1111111000110000
1111111100101101
1101100111
10001001111
1001011
1111111101011100
1111111001100001
1111111101010001
10111010111
100111111100
11101011011
100000011000
1111110101010010
1111110101000000
1111010100010101
1000111010
1111111111001101
1011110000
111011011
1111110011110100
11110011111
11010100011
1111110011001011
1111110101100010
1111101000
1111100111010001
101100110
11011011011
1111110011111011
1111100111000111
1111101111000111
1111111100110110
1111110010001010
1111110110111010
1111110101001110
1111111010010010
11001100000
110011000
1000110011
1010011010
1111111011011110
1111111001010011
1111101011101100
1111111001011100
1111110100110000
10001010111
10111010000
1111110000001101
10001000110
1011101000
1111010001101110
1111110011110110
1111111110100011
1111110110110100
1110010001
11110111110
1111111001011111
1111100011110101
1111100101100000
1111101011100101
111010010
101000101
1001101000
1011000101
100001101011
10100111111
10001001010
1111110011000001
1111100110100001
1111101100001110
1111101111000101
1111101111110101
1101010100
1111111010111010
1111010011
1111111100110111
1001110011
11001011
1111010111110011
11100001111
1110000000
11100111
1000110011
110011011
1111101010001101
1111101110011001
1111101110110101
10110011
10111000100
11111101001
11111110110
1111111110000111
1111110111100011
111000
1111110000110001
1111111000000101
1111100111010010
100011000
1110011000
1111111100000000
1111111111010000
11011011
111001000101
1111110100110011
100000001011
111110111
1111011011111110
101110000001
1111111011111000
10100011100
1111111111000111
1111111111101011
1111110011001001
1111110110010011
1111011011010011
11110100
11001101111
11000000011
10001001000
100101000
1111101001001011
1111100100111010
1111110101101000
1111111001111100
1111111000000101
1111110101101011
1101111101
10000010010
111110111
1111111001010101
10001110111
1111111100110001
1111101111110000
1111100111001010
100001
1111110011000000
1111101101110000
1101100010
1111101110110010
1101010
1111111000100100
1111011000100001
1111011101100101
1111110110000110
1111101010
1011111101
1111101111
100010000001
1111111010101101
1111011110011100
1111111100001110
1111111111100010
1111111000111001
1111111011111000
1111111100001011
1111111010011111
1111111101001110
1111111000001110
1111110100111010
10001111010
1111011101101011
1111111110110101
1001110001
100111100111
100100011101
1111110101011110
1111110000010000
1111111110101010
1111100101100100
1111011011010101
1111100110010000
1100000011
1111111110100110
111010101
1000010001
111110010
1111111000000000
1111100011111011
1111101110011011
1111110100110010
1111111101111110
1111111010001110
1111110110011011
1111110110111011
11111011
10100011100
110111111
111101101
1111011110100010
1111110100101010
1111110101010101
1111101000100111
1111101010101101
1100101110
1111110111101011
1111101010110101
1111010100011011
1111101101001110
1111101011011010
1111111010010100
1111110010100000
1111111000010111
1111110000010000
1111100101001111
1111011010011110
1111100110101001
1111011110010100
1111101010001011
1111110100110110
1111110100111110
1111110110110000
1110101010
10000100010
100001000101
1111110001011110
100010001110
10100101
1111110111001111
1111110011100000
1111110010111100
1111010000111100
1000001
1111011011110000
1111110011110010
1111110011010011
1111111011001011
10000110
111100010
1111111010100001
1111111101110000
1111101010010001
1111110100111110
1111110000111010
1111111010001010
1111100000101001
1111101010110111
1111101110101000
1111100100101100
1111111111100000
110001100010
1111111010001111
11000010110
1111110110101111
10001101111
1111111101101100
1111111010111010
1110101
1111010000000001
1110111000100001
1111100011010110
1111100010001011
1111111001101100
101000
1111110010001001
1111101101110010
1111011111011101
1111101111110101
1111101101010010
1111110001000000
1111111100111100
1111100011001011
1111001001101011
1111001110111011
1111101100001111
1111110101111101
1111110111101001
1111110010
101000110001
110101010
100011010111
10001000001
1111011011111111
10010001
100101
1110010
1111101111001110
1111111000111010
10001101100
11110110110
111111100
1111110000011111
1111100110110010
1111100110100101
1111011101101001
1111011000111000
1111011011111100
1111100001110011
1111011011101011
1111001101010100
1111001001110110
1111011100010110
1111011111011011
1111110110101110
1101110000
100010000000
1110111110
10010101011
11101000000
1111111001011111
1111111000100000
1111111011110100
100100101
1110
1111110010001101
101011101000
10011011000
1111010001
110010111010
101011010001
1111110010101111
1100011001
11101001111
11101010001
100011
1111101110000110
1111101101101000
11100011
111110
1111101111111001
11001
11001011
11010110010
111001111011
110000110100
10101100111
10110110000
100101010110
1000100100
11100111
1111111110010001
11110000
11111010
100010001001
1111101010111000
1111111000101110
101011001
1111111011111100
11001111111
110100100100
1101010
10110100
1111100111011110
1111101001100000
1111100101001011
1111011100001000
1111010111111000
1111101100111101
11001100110
100100101101
1111101100
1100100000
1110101001
10010001110
1111101101101000
10100001011
1111111110010001
1111111110100111
1100111
1111111110000100
101001
11101000
1011111110
11010001101
1111110011001010
1111111100010100
1010101000
100001110000
1001111110
100000110000
100010001001
100001100000
10110011100
1111101110111000
1111110111100100
10101011000
10111000110
10110010110
1110001001
1111111000000001
1111011111111101
11010010
1110100
1111111111010101
10011011
10110001
