11001100
1111111100010110
11111110
1111111010111111
1111111101000011
1111111100000110
1111111011111010
110011
11011011
11010110
1101011
1010011
101001100
1111010010
10010101100
10011010
1111111100101101
101010000
111001
1110011
110101
1111111110010011
1111111101001111
100111110
1111111011001101
1111111101000010
1111111110010011
10100001
1111111100100110
11100101
1111111110101010
10000
1001000101
10011000111
110010010100
111100001001
101101000110
1000100001100
1000001011100
1011010000110
1001111110101
10001010001
1111110001010111
110101001110
111010110010
111001110010
110001101011
110001000100
100000110011
1111111101110110
1100000101
1110010110
1111111010110111
10110001
1011
1111111101001011
101010100
101011
1010011001
100000011101
11101101001
101011011000
1001001100110
1010001101110
1011011100100
1101100001001
1011101001001
1011001110100
1011110000110
101100010100
100111011110
100011101001
100110001011
1111111110011100
10111111101
101110010101
10101100011
100101111010
1111101110
11011101101
101111111101
11000011001
10101000
100111000
1111111101111001
11111111
10100110
100011100100
11011110111
100010110010
111011010110
1001010111000
1011010000110
1010101110100
110101011111
111110111011
1010111111110
1101001000010
1000111111110
111101011010
110011100111
11111
1111110000101001
1111101011001101
1111100011010011
1111101000101011
1111111011000011
1010011000
11011000111
10110111001
100000010011
1111111110000010
101001111
1111101101010110
101000000
1111111111000001
1111110000100001
1111111111011011
1111111100110101
1000111111
1111100001110100
100001111000
110000000100
100011010100
10110101010
1111000001
1111110010
100000001010
1110100011
1111100001010111
1111110001000110
1111111011110001
1111110100101001
1111111011111000
1111101001010101
1111110100110001
1111010001001110
1111110101001001
11011011110
11100100110
101000110
1100111
10000100001
10000100011
10110101
1111100100001101
1100100
10010
1111101111100010
1000011110
11000100111
111110110
1111111011010101
1100011001
11110101
1100110000
1010111000
1111110011010100
1111110100100111
11110111
1111111100001101
110010011
1111101111100101
110000000
1111101000011100
1111111000011111
1111010001
1100001000
1000100
1111110010110110
100101000101
1011100100
111111001
1111100110110001
101100110
1111110001110100
1111100100111111
1111010111011100
1111101100001010
1111110100110110
1111110000110110
1111111000100011
1111110110010101
1111110010100100
1111110101011000
1111110001010100
1111111010111110
10000110110
1111111111110011
11111010
10000010011
1111101101110011
1111111111101001
11111000101
1111100111100001
1000001000
11011011
1111111100010001
1111100000
1111101010001111
1110001000
1111101011011110
1111111010101010
1111100000110000
1111011111000010
1111100000100001
1111100011001010
1111111100101010
1111111100100111
1111110010101001
1010010000
1111110101001010
1111100011110001
1111011
1111111000101111
1111111110001100
1111011100000110
1111011110101011
1111100000110000
1111011000000010
10001000000
11011000101
1111011010111101
100001101000
100101010101
1111100101
11110111110
1111111011010110
1111101101000111
1111011010000100
1111111000101010
1111110010010101
1111101000000110
1111101000000000
1111101011001001
1111110000111011
110101111
1110100111
111101000
11010100
1111111011110011
1111101110101011
1111010100101110
1111010111100111
1111100010110000
1111011010010101
1111001111111100
1111101110110001
1111100011010001
1111010101110000
1110111100100001
1110010010
10010111000
11111100010
1111111110110011
1110110111
11101000101
1111111110111010
1111110000111011
1111110010110111
1111110001111110
1111100110110111
1111101000000110
110
10101000000
10110011100
11110010101
10010111101
1111110011000101
1111001101111011
1111001111101000
1111010110010100
1111100000100000
1111100111110000
1111000100000111
1111001010010010
111010111
1111011001101001
1111010111111101
1111110010011000
1110111011
10110001001
1110001001
1111111111101001
1111110011100000
1100111001
1111101101101001
1111110011011001
1111101110101000
1111110111001110
1111110100100110
1111101101
1001100011
11110010001
110111100111
101100011000
1000000010
1111101010001101
1111011010010010
1111101011110011
1111110101011000
1111100101001111
1111100110001111
1111111001111110
10001111111
1000001100
1010000000
1111110001111000
1111110101101110
110101100110
1111100011001010
1111101000010101
1111100101000010
1111101110111001
1111111111010101
1111011100100000
1111110100001001
1111111000000001
1111110110101001
1110000100
1101
11101001011
110110100001
101001011010
110111111
1111101101110010
1111110000110011
10110101101
1111111110111101
1001110101
1111110110010111
100110001111
10010010100
100001100010
1111101100101110
1001000
1111110111011000
10100111110
1111110010100100
1111111110000011
1111011010010110
110100010
1111101010010110
111000101
10100110100
1101001000
1111111111100101
110100100
10110111000
100001100
100000110011
1110001111
1111101101011010
1111101001001000
1111111100010110
1110001
1111111110000000
1111110111000001
1000010100
1001110
10110001110
1111110101101101
1111111101000000
110101001
10010011010
10010000010
11110111011
11101101011
1111111001101100
1111111111101100
110000111
1111110010110000
111100100
100101010
1111111010001111
1111101111111011
1111110001010000
1111110100110100
110101110
1111111010010111
1111100010100100
1111101111010110
1111111000110111
10001100100
1111111110001101
10110110001
10000101110
101111111011
101001110101
1011
11001110101
101000001
10000110111
1111110011011011
11101001010
1011100001
1111011001101000
1001010110
1001000111
1111111110011100
11000010110
111000000
1001000001
1111110000011001
1111101000001111
1111111110011010
11001011
101101010
1111011001110010
1111100001011010
11000111
1000
11100000001
100000110100
100100111110
1111000100
110001111011
100110100
10101101011
11010010001
11001110
1000111
110101011
1111111101110001
11101001000
1111111100101010
1111101111110101
1111111000100011
1111111111000110
1111111111000010
1111101100101111
1111011001011011
11000001
11000001010
1111111110010110
1111100111010101
1111011111110101
1111101010010000
1111111010011000
1100110001
10100011011
10110010001
1111111001
11011000001
1000111101111
10110001100
11101011
1111111001000101
1111101011101011
1111111001001110
1001101100
1100100100
1011111110
1111110001110101
1111111001000010
1111111000111001
1111110010000010
1111110000011011
1111100001100111
1111110000011111
1111111011100101
1101011101
1110101010
1111111110101101
1111101011100100
1111101011010000
1111101111011000
1111111001100110
1101000110
101100011
10010111100
101111110101
101101000011
1001111111
110100010
1111001011
1111111101101001
10011110100
1111111101011011
1111101111011101
1111111011000110
1111111000011111
1111111001000010
1111111000111011
1111110011000100
1111101010010010
1111101110001011
110011
10010010100
1110111110
1111110101010111
1111101111100011
11111000
1111110100001000
1111101100011110
1101001011
10000001011
1111110010011000
10100111010
11101010010
10110111101
1111111000110011
1111111110100011
11110011010
1111100011100100
1111110101100001
1111101011011010
1111100101100101
1111111110100010
1011001110
1111111110010101
1111111000000000
100100110
1111110101010110
1111110110101010
1000001
10011000001
10001100111
1111111011000000
1111110011110110
1101001001
111001010
1111110011011110
1111111000011001
1111111100010011
1111101111110100
1101101100
101100010111
100010000000
100110111
1111110111010000
101010100
11010010
11001110010
1111101110100100
1111110101111111
1001110010
101010010
1111010100
1101001001
1111110111111001
1100100001
11010100110
100110101010
110001001010
100101100011
1101001110
10100001001
1000011010
1001110110
1111111110000111
1111101001100011
1111111101011111
1111110000110111
1011101111
110001110101
1111111110100100
1001100110
111010101101
10011110100
10100111
10010111011
1111111100010010
11101100100
11111000001
11011011100
11110100101
11001110011
10101001101
100100110001
101101110011
110101100110
101111011110
101110110010
10011001000
10001011000
11001010
10010010
101001111101
1111111101111100
11100110010
111111001
11011101101
11011110101
1111111111100011
1111110111101000
1000101100101
1111101101011000
11111100
1111011100100111
1111111011010111
101000110011
1000001110
110100111
1010011110
1101101111
1111111111001010
100001011011
101010100011
10100101011
1110110001
11110111000
10010010111
10110111001
110001111
10111000001
11111000101
1111111011111000
1101110
1111110100000000
1111111010111011
11001110010
1111110001010001
100010001
101010100011
10001011100
1111111111111000
1111111100111000
1101101001
1111110010000001
1111110100101110
1111111001011001
1111111010001001
1111111001101111
1111111000111000
1101111001
1111101000
10101100101
1001110010
1101101111
11101001
1010001011
1010111100
1100000101
1111110110110110
1111111111110010
10110100101
10010011000
1111101111111101
11011001101
10000111
111011
1010001111
10110100110
1111111010111000
1111111111001101
10110000110
1111111111001011
1111111001111001
10001100011
1111111111100000
1111111111111011
1110
10011101001
1011111000
10100011101
1101011111
1000100001
11011
10001
1111110010111111
1111110101110010
1111101111100111
1111010101010110
1111101101010100
1111100110000000
1111110011011010
1111111011000010
1001000001
111111010
10000100010
1111111110110111
100010101
1101110
1111101111111111
1111101011010010
1111010110100010
1111001100010001
1111010101111011
1111000111011101
1111100000101100
1111101001011011
1111100110111011
1111110011100111
1010100
1111110010101011
1010110100
1111111111001101
1111110101101001
1111111101000000
1111110110011011
1110110110001001
1111100110001110
100100100111
101010101
1111000101001101
1111101010100001
100001001001
100111000001
100011001
1
1111111101000001
1111111100011011
1111100110011010
1111001101001100
1110001011110111
1110011010000000
1110010000111101
1110011001100001
1110100100101000
1110010111001001
1110111010000010
1111001001100010
1111010001001111
1110101011101111
1110010110111000
1110000101100110
1110001011011000
1110110101000101
1110110001101011
1111011101000110
1110110100110011
1111011011000111
1011101111
100000011000
10010100101
11010101110
1111111110111101
1111111110110100
101001110
101010010
1111101000011001
1111000001101010
1111100101001010
1110111110001101
1110101110111100
1110001101110111
1110001100101000
1111001000000111
1111100001001111
1110111011010011
1111010010001101
1110111001100111
1110101010000100
1110001111101011
1101110110100111
1101111101110001
1110110101011000
1111011101100011
1111001111100101
1111011011100001
1111000111101011
1111101100110110
1111111100111010
1111111011101011
10011011
1011100
1111111101110010
1111111101001101
10000011
1100001111
11000010001
1111110111111110
1111111011010101
1001000101
1111111101111010
1111111000101111
1111010111111111
1111101101000111
1111101000100101
1111011101101001
1110111100001100
1110111011000100
1111010110100001
1111100100111111
1111010110010110
1111110101000101
1111101010000111
1111110110010001
1111110101111011
1111111111101111
1111111111001000
111100
1111111010110000
