1111111011010111
1111111111110101
100100001
1111111100010001
11101
1111111101111100
1111111011110010
1111111100010110
10001011
1111111110110111
11001000
1111111110011011
1111111110111000
1111111010111111
1111110110000001
11110010
1111111010101001
1111111111011101
1111111010100001
1111111100000111
101010100
1101001
100001
1111111111000011
110001
10110000
11010010
1111111111001101
1111111101110001
101000
1111111100100100
11011000
1111110101001000
1111101100011001
1111100000001001
1111010101100110
1111100110110001
1111001011000111
1111000110101111
1111000010111101
1110111111111011
1111010001011100
10010101110
1111001101111110
1110111000011100
1110111101010101
1110101100100000
1110110111110001
1110111111111011
1111010100010010
1111011001000111
1111011111011010
11101000
11000001
1111111101110111
1111111101011100
1111111110110111
10001101
1111101111110001
1111100010001100
1111011101011011
1111011110010001
1111000010100101
1110110101101101
1110110101101001
1110110000101101
1110100010000011
1101111110110111
1110010111110111
1111011101101001
1111101000001000
1111001100001111
1110111111010100
1111011110100010
1111001100100011
1110000010100001
1110110110001110
1110110001000111
1111000111111001
1111001010110000
1111000101001110
1111110000010000
1111111011100011
11011110
100111111
100111000
11001100100
1111100010011101
110111111
1110110010110100
1111000000100100
1110100000001111
1110011010100110
1110110000110101
1111100010101001
1111100100000111
1110111001001011
1110101010101101
1111010001011111
1111001111110000
1111001101110011
1111111101101011
100101110110
11100010011
1111111100110011
1111111111000101
1111011110111101
1111010110001111
1110011011010011
1111110101110001
11001110
11111010
101010
10011101
1111111100010010
1011001111
1111110011101110
1111100011011000
1111110001001110
1111001001010110
1111101101100000
1110110111111110
1111000010110010
1111100001001100
1111011010011110
1111110110110100
11101100
100101011
1111110001001011
1111110001011110
1111011011011110
1111101011100000
1111100100000100
1111101011010111
1111101101100011
1100011101
11100100110
110000111
10011100000
1111011110010010
1110
1111111111110011
1111100101100000
1100010
1111111011110011
1111001001
11000010011
1111111000000001
1111111100101001
1111101110100010
1111000111100110
1111010111001101
1111111011110110
1111100111111110
1011011
1111101011010001
1111011000101111
1111001111111101
1111001101000100
1111011110101011
1111110000110100
1111100010001010
10011001111
1111111000111000
1111110101011100
1001010000
101100011
1111101010110100
1111111100010011
1110111
110100101
1111100101100001
10001000111
100110111011
111110101
1111111101101011
1111100010110000
1111101111100110
1111011110011011
1111101111011101
1111110111000100
1100100
10000100
1111110111101110
1111100110110010
1111101011011001
1111110000010111
100100100
1111111000110000
1001001
1111111111111111
1111100010
1111110111000001
11110010001
111010100
1011000110
1110101100
1111111010101001
10000010110
111010000
1111110000110111
11000101010
1001111001
1111110100001111
1111100011000110
1111101000100011
1111111100011001
1111111011110101
1110110010
10101101101
1000101011
110000100
11111110101
1110010100
10001010010
10101111000
10101010011
10000101100
1101110001
1010100010
1111101010010010
110010001001
111110101
1111001101
1111011101110101
1111011110110000
1000010100
1111110100110011
100010011001
11111011010
10101000011
10110101010
1111110100100000
1111101111100010
1111110010101000
1001
1111
11100010110
10100000100
11010101001
101011101001
11010001010
111100100111
110101101101
100100011011
11001010101
11100110011
1011110000
10000100000
1100000011011
100110001010
1111111110100111
1111111001000110
1011001101
1111111101011110
1111101010111110
1111111011101110
10111001011
111001100
1000000110
1111110001010001
1111011111010100
1111101110001110
1111100100000110
1111101010010010
1111110111011001
100011
1000011011
11011111101
101110011010
111100111110
100101011011
100110100100
101111010110
100011010001
1011111100
1111110000101111
11010101000
101011000111
1111110100001110
1111111101000011
110011011011
1111110110100011
1111001000101000
1011100
1111111011000100
1111101010001111
1111110100000011
1111100101111110
1111011000011111
1111100000100101
1111001000011111
1111010101001110
1111011110101111
1111100111001100
1111111101101011
1111111100011111
1111110111111100
100010101110
1101010111
10111110000
11000110011
10010111101
1110111001
1111111100111110
1111101001010000
1111110000001110
1111111010111011
100101011100
1111101111101011
1001000101001
1111001110101000
101100111
1111111011011000
1111110011001101
11010000
1111110010001010
1111101100110100
1111110000001111
1111101000100101
1111101101010100
1111100100001100
1111101011110010
1001101001
1111111001001001
101111011
110100
1111111000000011
10000000011
1111111011111011
11100101110
1000100001
1111010111101011
1111010110000110
10000100110
1111100111010111
11010011100
1111111010011101
10011101110
1111110101100000
1111111110111100
110101011
100001010
10111010
1111110111110110
1111111110111001
1111111100000100
1111100000111001
1111100100010110
1111100011100111
1111011111110000
100010000
101100100
1111111010110011
1111111010010010
1111111110110010
1111101011011111
1111110010011000
110100011
10110000010
1111101100000000
1111010001010001
1111100011001001
1111101000100101
1111110000010000
1111101110010100
1111001001111110
1111010111100000
1001101011
10101110000
1000001110
1010000100
10001111000
1101101000
1111111111010110
1111101110001001
1111100100111110
1111100111001100
1111111100010101
10011100
1111101101110001
1111110110011101
1111111000100000
1111010101000110
1111100010001101
1111100100000010
11
1111100111110001
1111001001101011
1111101100001100
1111101001101000
1111100101000011
11101111100
110100000
1111011101000110
1010111001
1001111010110
101010100011
1100111000
11101101100
101111010011
1000110111
10011001
1111111111100010
1111110000010100
1111111011010001
110001000
1111111000100011
10100
111011001
1111101010101101
1111110001010110
1111101101101011
1111100010010010
1111101101101110
1111101010000100
1111100100000010
1111101010100110
1111110100000011
1111101100100111
10010100010
1010001110
1111101100001011
11000011
1110101010
11000100010
100010001011
11111010101
101000000000
11110010011
11000001110
100111001100
10000110000
1111111011000100
10010101
1111111001000111
10000010101
100110111010
1111101101
1111110101111001
1111100010101101
1111011110110000
1111111110011001
1111110101101010
1111100010001000
1111100101001110
1111100011011011
1111111110101111
110000
1111110001011000
1111011011001101
1011011101
11011000
100110100000
10010011011
10110
11010110
1010011101
11010011100
100011110111
101111010101
1111111111
1111111110111000
100111111
11100110101
100001001000
1001010000
1111110110001101
1111111010101100
1111110101000000
1111110000101110
1111101110110111
1111110111010101
1111011110000110
1111001011010011
101001011
1110
10001100111
1111101011000111
100010010
1111110111001001
111111011
1111110011111011
1111111111111110
1111111100110110
10000110011
10111011011
11111100010
100100010100
100101110101
10101011011
100001001000
10110100110
1110000011
1111111100000011
11010100
1111101111010101
1111110110000110
1111110100110001
1111111110110100
1111111111000100
1111011101101100
1111111000010000
111011111
10111110101
100000110111
110001010
11111100
11100000
1111111110101000
1000111110
111100010
1111111100001011
1111111101001000
10001110100
1110011010
1010001001
10010010001
100011111001
11101110001
1000110110
1111110100001100
1111111110111011
1000100010
1111110000011110
111011010
1111101110010101
1111011100111001
1111010111111011
1111011001100100
10000000101
11000001
10101011000
1111101001001011
10101100101
1111011100001000
1111110111110010
1101101000
1011011000
111001101
100001000
1111101111011111
1111101110011111
1111100000100011
1111011110011111
1111110011000011
1011110111
11100001
11111
1111101011011111
1111111100000100
10010111000
1111110000101000
1111110110010100
1111101111011010
1111100001000110
1111001111100100
1111101111000011
1111011100000010
11010010100
1111111110111101
10111110
10010111001
1111001001110111
1110111101101001
1111011001111100
1111110111000000
1111011110101101
1111100010000101
1111100000100100
1111010111000110
1111011010110010
1111001110011100
1111111001001001
1001010000
110010101
10000111010
1101000101
1111100110110001
1010010
1111101100010111
1111101101101111
1111100111011101
1111011010110110
1111101101010110
1100001000
1111100111101001
10110101010
1110100100
110100
10101010010
1111010110100111
1110111001111010
1111001001101110
1111011011001001
1111011000001011
1111011001110010
1111011000111001
1111000100011011
1111011001001101
1111011101010111
1111000110111001
1111100000111100
1111110001011101
1111111111110101
1111111000000111
1111100001010010
1111110100000110
1111101101010001
1111111001010110
1111101000010110
1111001101001011
1111110001010000
1111101111000001
1111010001011011
1111001
1101100111
1110010001
1111110001001111
1111100011010010
1111101101101001
1111011111011111
1111101100101011
1111110101010000
1111110000010111
1111101001000101
1111011001011101
1111101011100010
1111110011110110
1111101100010011
1111101100011010
1111100000010001
1111110000001110
1111111000001100
1000011100
11100110
1111100100101111
1111011000101101
1111101001100101
1111100111111001
1111110011101111
1010011010
1111111000100000
1111110110111101
100010
10001100
1111111010001101
1111101100111100
1011111011
1111011110110010
1111111100100000
110100100
1011000110
1111111111000001
110101100
1111101101101111
1111111001101101
1111100001001110
1111100110000101
1111100001000000
1111111010110110
110110
1111111001001100
1111110110101001
1111110110001000
101100000
1111101010000000
1111100101110011
1111101110110110
10110000
1110100010
1101
100011101
1111111010100100
1100000111
1111111100001011
1111111100001100
101011111
10000011111
1111010111
1111111110100111
1111111101100111
100011011
1111111010010111
1111110100010000
1111110110011000
1111110110001000
1001110001
1111101010010001
1111101101011100
1111011011110111
1111100110101100
1111101001100110
1111101011000001
1111010100101011
1001000000
1111101110101001
1111100011011000
1111110000010101
11100101
1111111011110110
1101011
10110000100
11110101011
11010101110
1001100010010
1000010101101
1001111101010
1001011110101
110000010001
1010100011111
101101100011
10000110110
1100111110
100001111000
10011011111
1001010011
10110010111
101100000
1110101111
1011101111
11011001101
1010101000
1111110010000011
1111111001110110
1111100001111000
1111101010111111
11101110
1000011
1111111100101111
1111111110011111
1111111110000111
111001011111
101011010011
110111011001
1011101010101
1111110010001
1111001000000
1100100010000
111110100110
1000001001110
101001011110
111101011100
110101001011
110010100011
1001000100001
100111110100
110100101
100110011000
110100111110
11100001100
110010100110
11110110110
11111011
10100101
100100011
1010010
1111111110010010
1111111011001111
100111101
1111111000110001
101111101
10100000100
11100111
1000100011
10010
1111100111010110
1011100001
100010
10001100000
1001110010010
1010000111111
1001110001001
1001111001011
101011100001
1111101100
1111111110000111
11010001
1111111100111011
1111111110
1111111111000000
1111111011111000
1101010
1100100
