10111111
1111111011000111
1111111101010011
100001010
1111111101000011
1111111011000010
100001111
1111111110101001
1001111
1100
1100111
1111111100111010
1111110010110111
1111110011011101
110111100
1111111100000011
1111111101100010
1111111101011111
1111111101101100
101010011
10101010
1111111101110011
101010111
10111100
100
11000011
1111111010110100
10111000
1111111011111010
1111111101000011
1111111011100111
11001101
1111111100111001
1111110101010011
1111001101000010
1111000000110000
1111001011110100
1110011011010100
1110010011010010
1110111011100111
1111100000110110
1111001101001110
10000010010
10110111111
10001011111
10100010
1111001101010110
1111000101000110
1110111110111100
1111100000011111
1111101100010100
1111110001111111
1111111101101001
1111111110110110
1000001
1111111010101100
1111111110101101
10011101
101101101
1111110011100011
1111101000101011
1111010001110000
1111100101011001
1110110101101111
1111111011001110
10110000110
1111110101111010
100101011
110000001100
111001110000
100010000101
10000100100
10111110
11001001001
1110001101
1111100100000110
1111100100010001
1111111001110101
1111010010001101
1111100111011000
10000111111
11011010101
1111111100101111
1111111011100101
100000001
1111111110010011
11100110111
1111101011000010
1111011001100011
100000001000
11011101010
101100101111
1100101001
1111101100001010
1111011000011000
1111010110011101
1111111100110110
111011101
1011100100
11100010001
110001101110
101000000000
101100000
1111110111001101
1111101001010110
1111101011001111
1111110111000000
1111101010000001
1111100000101110
11011010100
1111100001000010
1010010
1111111101011100
1111111100011010
11011110000
1111011110000101
1001110100
101101101000
11011000
1111101100100010
11110100
10111
1101000010
11110000
10101101011
10001101011
11010010010
1111111011111101
10100011011
100000100101
100000010100
1111101110000110
1111101011111110
1111100110010111
1111100111111000
1110111110110000
1111000110100000
1111010011110001
1111101001
1111110101000000
1111111101000000
1111111100111111
101001111101
1111110000011110
110110101011
11110010
111
1111111011100100
1011000
1110100111
100111111
1111111111101100
10011110010
11111011110
10101000110
101001011010
1011101010111
111001110101
100110111110
1010100110
1111101111001111
1111111110101110
1111110001110010
1111000010110001
1111000110010010
1111101111101000
1111111101001100
1111111110101000
1111111101110010
1110011101
1011110010
1111111100000010
1111110010100011
1111011011110001
1111110011011011
1111101010101000
1111101111001100
1111111000100110
1111111111010000
1111111110100110
10110000011
11111110000
100000111110
110011101010
1000000101001
110100101110
11010010010
1111111110001110
1111111100011001
1111101100111111
1111100101110010
1111101110111100
1111101111100110
1111100110101101
10111000101
1111111110000001
1111111101100100
10000000101
10101110110
1111110101011000
1001010101011
1111110001101110
1111111011101100
1111111100000101
1111110001111011
1111110011001000
1111110000010000
1111111010110010
111010001
1001111101
1010111110
1001100110
1011001110
1110111
1110111101
11011111100
1010110011
1111111100101011
1111111110111100
1111111111100010
1111111000111010
1111011001010110
10011011001
1111101000001111
1111100010101000
1011010011
1111100000110111
1111101100010110
100011001001
1001011
1111101101000101
1111110001001010
1111101111100010
1111111000110101
1100101111
110000101
1111111110100110
1011011001
1111110001111100
1111110111101010
1111101001100110
1111101011101000
1111111000010001
1111101001
101110000
1011111100
1000010101
1111111100001100
1111100111110110
1111110001100110
101101110001
10000101
1000000111
1111111010010001
1111101001110110
1111011001111110
11000011000
1111111100010111
1110110011
1011111
1111110010101001
10011101110
110010001
1111110101001001
1111111000110101
1111110101011010
1111100000000100
1111011011101101
1111100101011000
1111011110000000
1111100010010100
1111100111010111
1111110010111010
100010110
1111111101000001
1001010111
1111111110011011
1111110111001100
11101100
1010000011
10001100011
1001110011000
11000111
1111110011001010
1111111111011101
101010101
1111111000001000
1111111011100100
1111111101001101
1010011101
110000000
11010111
10001111
1111101100101010
1111100001101001
1111011110111000
1111011011100010
1111111011001011
1111110110001100
1111011011111000
1111110100110101
1100101
1111000
10111001
1111100010001001
1111110100101110
11100
101101011111
10010001101
1111011011110111
1111011101100000
10100010101
10110000001
10101111000
1111111110001000
1111110100110111
1111110111011000
110101011
1011010010
101001111
1111110010010100
1111110000000100
110100100
11100110
1111110110110100
1111111010100100
1001000
1111110011111000
1111111110101100
1111101010011000
1111101111000011
10100
1111100110101001
1111110000010010
10011111010
10110100000
1111111100
1111101011110010
1111001110001001
1111111010010011
10001010010
111010000
1111110110001010
1111110101101010
10001001
1111111111111010
1101111000
1111111000000011
1111111110010011
110100110
11000011111
1000101101
10000011110
11110011100
11010001001
101101100
1111110110010101
1111000
1111111010000001
110010110
10011000111
101011101011
1111110011000010
100000010010
111100101
1111100011101111
1111110001100111
110000111
1111110111011011
1111101111111101
100010101111
1111100101011000
1111110010100101
1111101101111010
1111011110101000
1111110100011101
1111110001101101
1110000010
1111010111
11110001000
100111100111
110011110011
110111000101
101010111010
11110011001
111100011
111000010
1110011111
10011011000
101101001100
10111101110
100100001100
1111111101110111
1111110010111011
110110011
10110101
1111101011011011
1001000000
1111111110101001
1111100101001110
1111110000001100
1111100101010110
1111011110100001
1111110000101100
111110
100001000
100100101110
11011111011
100111011000
110011110
10010000100
101000010010
111011100
1111110010010110
1111101010011101
111111011
1101100100
101111001101
1000001011011
11111100111
1001000100
1111110001011000
1110011100
1110100111
1111100010111000
10010010011
101010
1111011101101011
1111101100110100
1111110111110001
1111011011010100
1111011110011101
1111101110111110
10111010111
11111010001
11111001100
11001000011
1111110000011101
10000101
10100100101
1111111000010110
1111101000110010
1100000011
111010001
10010110110
101111011010
1000000010010
100001110011
11001010111
100000000101
11000011111
10100010010
1111111010000100
11001001
1111101010001011
1111111011110101
1111111110100111
10001100111
100011010
11001011
10110110110
101001111110
110000110001
100010010100
1110001000
1001011
100001000
111000100
1111111110110111
10110001110
11100000000
1010110
101101110100
110001001010
1010010010111
11111000000
1111111010101001
10000100100
10100010110
1111101110100101
11000011000
1111110000110110
1111111011010000
1111101101111000
1111110101111100
1111110100111010
1111110110000010
11010011110
100010010011
101101110110
100001001000
1011001000
1111111100101110
1011010101
1100110010
10001100000
11000
10111111
10101000
1111111000100000
110000111
1000010010011
101100011011
1111111000
1111101001110001
1111111111111011
10110000
100011000000
11011100111
1111110000101010
1111101
1111110001101100
101001001
1111111011110101
1111101100001000
1111111110001111
1100111000
100010010
1111110011101010
1111111101100000
1111111111010110
10001100010
1110010011
1111111100101010
1111110110010100
10000101
1111111001100100
1111110000100101
1111111010000011
11010110000
11111110
100100010001
111000101
1111110100010011
10011111
11001000101
11100110011
1111111000010000
1111111101101101
1111111010001011
11011111
1111111101000100
1111110010000010
1111101010101000
1111110101001100
1111111100101001
1111111011110000
1010010010
11100000100
111010111
1111110100110101
101111
1111110101001010
1111111111011101
10000000
1111111001010001
1111110010111000
1111000000
101100001010
10001111010
1010110
1111100011111101
100010001111
10000011010
10110000111
1111111110000110
1111111000101000
1101001
1111111101110000
100010010
10001001
1111110110000001
1111110011100001
1111101101110001
1111011
10001101011
1000111101
1111111000010100
101110101
10101011100
1100011000
1010110
10100001010
1111111010011110
1111110110101111
1111101100100000
11001001001
111000010
111000010
10111000110
101001010101
11101101
100110011
1000010100
10000000000
100011010
1111111100001101
100110010
1111111000111001
110000
1111111011010111
1111111010101110
1011010001
10111111011
11101000
1010
10110101010
1011111011
1111100100001111
1111011110011110
1001011
11000001100
10100001110
1111101011101111
11010111110
1111110111011100
1000011001
11101101
110100101001
100010011000
11111011111
1000001110010
101101110011
100111111100
1111111110100110
1111111010101000
1111111001111111
10010001100
1111111101100110
1111111110101110
1100010100
1010100001
1111100111000111
1111100111101010
1111111010001110
1111110110010111
1111101101000101
1111101011010000
1111110101000111
11011011
10101011011
10110101011
1111111010011101
1111110101001111
1101
1001010
1111101010010101
1111101110
101011011000
111101101111
1001011011000
101001010111
110111001
1111101010
1111111111001111
1101000001
10100100010
100001110101
11101101010
11111010100
1001100110
10000100
110100101
1111110011101101
1111110001110001
11110011
10100001000
1111111100
101001010
100100110001
11000000101
1111111111111100
11111101
1101000
10110110
101000
101010110101
1000100011011
1001100110100
101100001000
101010010000
100000010010
100011001010
10100111101
1000111100
110011001100
1000110110110
10101100100
1111111111011101
1111100101010101
1111110101100101
1000100001
1100000111
100100111100
1111111110100110
1111110100101100
1111111111010010
110010101001
101001100101
111100
1111111110000110
1111111101001010
1111101100100000
1111100110101000
101110110
101101001
10111111001
11100111000
101110001000
100111011
1111110111110101
1111101101111110
1111111100100001
1010100101
10111110111
1111110110011000
1111111100100111
1111100110001111
10001100101
11100110111
101100101111
1111101000100001
1110110010111001
1111000000110000
1110101110000001
1111110100001001
10001000001
1111111111110000
10111010
100000011
100010000
1111100101100000
1110111100111010
1111000100010000
1110100110110101
1111000100100100
1111100110001111
1111000100110101
1111101011010100
1111011000000011
1110110101000110
1111001011000000
1110110011000011
1110110100100001
1111010010001000
1111110001011100
101111001
1111111101101101
1111110110010011
1111001001100001
1111000101100010
1111011010100000
10101000111
1111111000101101
1111111011110011
101010010
1111111010110011
11000011
11000001
10001100
1111111100100000
1111111011010010
1111010110011110
1111100010111011
1111101011000101
1111111001110101
1111110100101111
1111010011001010
1111110000101010
110010011
1111010111011110
1111001111101000
1111111111101011
110111010
1111111110000101
1111011000111011
1111101110111111
1111100111101110
1010001010
10010011100
1111111101010111
1001000
10000011
1111111110011010
