1111111010110101
1111111100110010
101001010
10
11110111
1011010
1111111101111110
1111111101011111
1111111111011001
100110110
11000101
101000
1111
11100000
111111
1111111111001100
1000100
1111111111000010
1111111100010000
1111111101100011
11011101
1111111110010111
100011101
1111111011111011
1111111110010101
1111111011110111
1110
11011111
1111111011001010
1111111011110010
110110
1001001
1000000000
1000011111
1111111111011010
101110100
10100110000
11110101111
110010110011
110001110111
100000000000
111100111101
1111011111100101
1111101001011011
111011000
101000001111
11011110001
101100001000
11100011111
1110011111
10001110100
101110010
11011
1101000
10000100
1111111011100001
1111111010110101
1111111100000010
1011011101
1100100
100100100111
11100101010
11000100100
110100011110
1010011110
11000010101
101001001
1111111101001000
11110011
1111111011110111
1111101001000010
1111001000011000
1111001001100110
11110001
1011010100
1111111001010100
1111101011000110
100100001100
1001110000
1111111000100010
11000001001
1111110001010101
1111111111010010
10101000
1010100
10011100
1111100100011011
1111100100100100
1111101010011000
1111101100010100
1111101000110000
1111010001101011
1111111110110110
100111
1111110100010011
10010001101
1111111000110011
1111100110011100
1111111000100001
1111011100001110
1111101100000001
1111110001111000
1111100111010111
1111110001010111
1111110101101101
101000001
1111111110100011
1111101111100001
1111110010010101
1111110111001100
10111100111
1111111101010011
1111111110100101
1111100111101000
1111100111101100
1111010011101011
1111010101001000
1111101011110100
101111110
110001100
1111101001011101
1111110110101011
1111100101001010
1111110111111101
1111111010101100
1111111010101100
1111110001100100
1111110010000101
1111111011011010
1010010100
1010100111
110000111
1111110011110010
1111100010101000
1111111001001001
10101100001
10
1111111011011011
11110001111
100010001101
1111111100011010
100100010
1111110000010101
1111111010110000
1111111011100001
1111111100101111
1111100110001111
1111011110111110
1111110001110000
1111101000110100
10101001110
1110100000
11001110
1111101111101111
1111101000010100
1111100110100100
1111110111111001
1111110111011111
1010101010
1011100100
1111111110101110
10011010
1011000001
1011111
100001000
1111100110010101
11101010010
10101011000
1111111011000010
1111101000010100
11011001010
1100101011
1111111011111011
1111101001100011
1111110110000100
1111101000101010
1111110010000000
1111111001101010
10011011001
1011100000
1111111010010101
1111101110100000
1111110111011011
1111101100011100
1111111101101000
1111111010001000
1111111011110101
111000101
1111111110001010
1111111111010000
10111011000
1111111111001100
111101011
1110010000
1111111010000000
11110001101
1000001
1111110010111010
11000111100
1111111111000010
1111110010110111
100001010
101101001
1111110101000011
1000000011
1011100
101001010
10100111011
1111110010111011
1111111010010100
1111110111100011
1111111010101011
1101001010
10000110000
10010010101
110110111
10101110
1011101
10100011
1111110000001100
1110011000
11111000010
1111110100001000
100011001011
101000101100
11010110010
10111100011
110100000
100001000
1111110000010011
1111100111011001
1111111101001100
10000110101
111001100
101010100
1111110111101011
1111110010111111
1111110101011111
10101111
1111110010011011
10100110101
1110101000
1001001011
1000000000
1111001111
1010101100
1111110101011010
1111110110110000
11010100101
10000110011
1111011000010011
11110010
10011011110
1111101110101111
10110101011
1111101110110000
101110101101
1111111111111110
1111110101101000
1111110100011010
10000110110
110110111
1111110100110100
1111111110101101
1011100000
1111110101110000
1111011110010111
1111011010101010
1111110010010001
110111110
1110101110
1110100001
10010101
1111110110000100
1111111000010011
1111111001011000
1000111001
1111111111000000
1111110001001000
100100100
10001110101
1111100001001100
101111100
1100000001
1111001
101100010110
10100011111
1010100
1111111011110001
111001101
1111111100100000
1110001001
1111110101100010
1111011111001100
1110111101100110
1110111011110111
1111011100110000
1111101010111010
1111110001101100
1111101101001010
1111110100111000
10011100
1010110000
1111111111000001
1000001011000
1010111000
1111110000011000
1111010111010000
1111111000011000
1111101011101110
1111010001001100
1111011110010100
10011101
1000000000011
111111000001
100000011010
10110111001
101100010000
110101111101
10111100010
1111100011011001
1111011001011111
1110110111011110
1110111100100110
1111010110011111
1111011100100101
1111011011111000
1111111100101100
1111110111101101
11010010111
101010001011
10001101001
1111011110
1111110111111101
1111000110111101
1111010111110001
1111110101111001
11101111101
1111110101100011
1111100111110110
11011011100
1010011111100
111100010111
100001011011
11111011101
110010100000
100111111110
111000001
1111101101101001
1111011011101101
1111000111001001
1111010001111111
1111100000001000
1111101010101011
1111110101001000
1111111110001101
1010100011
1111110101
11000111111
11011111010
1010000110011
100011101101
11111000110
1111111011010001
1111110010100010
100000001111
101100010110
1111011010110110
100001011100
110110000010
100111011111
111000100110
101000100000
101110100110
101101001001
10111100011
101110
1111100011001011
1111001011100001
1111001010001101
1111010110011101
1111110100001111
110111111
11010001001
11101110110
101000000000
11101011010
100110000100
1010000110111
10100100010
101110001110
11011101111
10110011001
1111100111000100
1111110010100010
1111010000000101
100001101111
1001000010000
101001010110
111001111110
111100001100
1001100010000
101101101111
101010001101
11011110111
1111101011101111
1111011110001111
1111011100010000
1111100000001010
100011100
100000010001
11100001011
11110001001
11011110000
1111110001000010
10010011011
1010101010
1111010010110100
110011100
100000000110
11010100011
1111100000111001
1111001011100001
1111110011101111
1111111100101111
110000011110
1011111100
111001101
11100111001
110011011000
111001111000
110110001001
111001010000
10000011010
1111111110010001
1111110000001100
111111011
101100101000
100101100111
1001101010
1111111100010001
110110001
1111110011011011
101010010110
11000000110
1111100000100110
10011110110
101011000011
1110010100
1111100111110111
1111000110000100
1111100010011001
1111111011010010
1111111000110001
1111110110101000
111010100
1111111011011001
1111001111
101011010001
1000111010101
1010001001000
111010011110
1100100001
10010010111
100010010010
101001010011
1111101110
1111110001000110
1111011100010010
1111110010000110
11101101110
110010001010
1111100110010010
11011111101
11110011100
100011101110
100110111
1111011110011000
1111101111001011
1111111111111110
1111110101011011
1111100100000001
1111100000000111
1111101110101000
1111101000100011
1111110110111110
100000000000
111010110000
110000110000
110000110011
11101000011
101100101101
1111000101
1111110011011101
10111011
1111101010011000
1111110100001100
1111101101111110
10010
10111000010
10001001010
11111001010
1101010010
101011100010
1111110110011100
1111011100011000
1111010101101010
111001000
1111110000101110
1111110111100110
1111100100100011
1111101111010010
1111101010010110
1100001
10111100010
100111010111
101111000100
100110011100
10000111110
10110001100
1111110100011111
1111110000000111
1111111100001101
1111101000101010
1111011101010000
1000111100
11001011101
10100111010
10011100000
1111101010110100
11000100011
10011010010
1111100010111101
10100111010
1111100111
10011010000
1111110001011110
1111101001101001
1111101011100010
1111100110000010
1111110100001111
111111011
10001010
10111110100
1111111011
1111111111101000
1111111101010111
1111110111111111
1111110010001000
111101100
1101011111
11100000
1111110101101110
11101000001
1100010101
11010100010
100010011010
1111100000011101
110110000110
1111101101100010
1111111110100000
1101000000
10011000010
100010010110
1111010101011101
1111101001100000
1111110110001101
1111110011101100
1111111001010000
1111111110110010
1111111100011011
11111011
1111110011101110
1111110010100001
1111101111110010
10101110
1111111111111011
1111111110000101
10110
1111111011010011
1110010
1101110111
11011011110
100111000000
11010001011
1111111010001011
10110010011
1111100100101101
1111110011101000
1111111100110010
1000111100
11110000100
1111110111100100
1111110111000000
1111111000011001
10011100010
110011111
1111110110001011
1111111001110001
1111111110100100
1111111101111111
1111110011000000
1111110000101100
1111111101011001
100010100
1001111000
1001100100
11011000111
1111111111110101
1101101
110100000
111111111100
100001110011
1111110010000111
100110100011
11101101010
1111110001011111
1111110000110100
1010110011
11111001
1001010110
1111101111110110
1011111011
1010100011
1101001000
1111111111101011
1111110101100011
101001000
11000011011
11001101
1111111010101110
1111111111100011
1000011001
1010110010
10101001100
11001010101
1111111010011000
1111001101
11000101110
11010111011
110000010100
110110001
1111110000100001
10110110010
1111111011101011
1111111010101001
1111010101011000
1111111011001010
1111111101011101
111011111
11011000000
1111111111001010
11110001
111000101
110001010
1110010111
1111111000100000
1111110100000100
1111111100000011
1111100100110001
1111110001110110
10101011
100000001000
100010001110
10100100111
100100100011
110101001001
1000000001011
10000100101
1111111000110101
1111110011011010
11100010
11100010
1111111101011100
1111001001101001
1111100101011111
10011111000
1111111100001010
1111110101110010
1111110110100101
101
100001110
10001100101
11101100111
100011110
1100101011
10010110100
1111111001110111
1111110011000010
11000011110
11100000001
100111001100
111011101111
10010000001
110100100110
100111110111
100100111110
100001010110
11001010
1111111101111000
10110011
11100
1111101010000011
10011101100
11111110101
11111010
1010000001
1001001011
1111101101000000
1111110100010011
1111111111001110
10101001110
1111110000100010
10011011100
1111111011000000
10000101
10010101010
100011100001
101111001101
111001011101
110010110110
111111111001
1000100111101
11111000010
100000100000
1100000111
1101101010
11111
1111111110101000
11010110
11010001
10000010111
110110101
100110110001
111111001100
1001011110111
10100010101
101110110
1110110100
11111100100
100100111011
10000111010
1111011110011011
1111100011010011
101111110
1001000
10010001010
111010010110
110000000010
100110011000
110010111111
100010111001
1111111011100000
1001011001
1111111100111110
10011010
1111111111000011
1111111110001010
111010
1010110
10011001010
10101100100
11101100011
101001101110
100010
1110100110
11100100110
101100000111
10101001011
101010101100
11001011001
1111011111011001
1111011110100100
1100010001
100010111110
1001111010011
100110010001
11000101101
10111001000
100010101
1111111110000011
1111111110111101
10000001
111110
