1111111100011111
100010000
1110
1111111011111100
1111111100100111
1001100
1111111011010001
1111111111111111
1
100010011
10101101
11101001
1111110010101010
1111100011100100
1111110101101011
1111111100001101
101000000
10110110
1111111010100100
11001010
11110100
1111111110001100
1111111101101111
100101000
11010010
11101010
1111111100010011
1110100
10011111
11011
1011001
1111111110101101
1111101100001101
1111110011101100
1111100100111010
1111100011110101
1111100000010111
1111010101110000
1111001000011100
1111011001101100
1111011000110001
1111001111110101
10110000001
1111101011010111
1111100111011101
1111011001000011
1110111110110101
1111010010100110
1111100011010001
1010000010
1010101111
1111111110101110
1111111110000011
1111111101001001
1111111011111000
11001011
1111111011001101
11001111
1111101010100011
1111110110001100
1111100000010000
1111100010110111
1111101001011100
1111100010000001
101001011011
101110110101
101010011100
1111111100110101
110001101
11011100110
100100010101
111001000100
100011011000
1111110001000101
1111001011001010
1111011111110100
1111101111010110
10001101
1111100100001100
1111100110011010
101010001011
11010101000
1111111111011010
11010111
11110110
100101000
11011010101
10101101101
1111101000101100
1111111000110001
1111110111000011
1111111000110110
1111111101000001
10100101110
1111110011101001
1111001110101101
1111010100000101
1111101111000000
1111110101110111
1001100111
11011000101
1111111110100101
1111101010011011
1111110001110001
1111100011111011
1111101110011001
11001110011
1011111110
10010001
1111111000001101
1111100101011001
1111111101111100
11010110
1111111011110000
10000000
1111100110101101
10111100
1111110011100111
1111101111010011
1111011010110111
1111100111100101
1111101100001011
1111101111100011
1111010101110010
1111010100000110
1111111010111000
1101011100
1100010011
11110011111
10011001011
1111110010011000
1111111100000001
101000100
1111111011001001
10101000
1100010111
1111100000000101
1111010101111010
1111000011010000
1111100001110000
1111111011101000
11001110
10011001100
10111010
1111111100001110
1111110010011001
1111101001101111
1111110111111111
1111010101000001
1111010101101100
1111011000111100
1111000111100001
1111011111110111
1111110110000001
10011110000
11010110010
11010000
1111111110011000
1111110001101011
1111101011111111
1111100110010011
1111111110111011
1111001110
1111010100101000
1111100110000001
1111101011010010
1111010101010101
1111101010001010
1111111010111101
1011100110
1111010101011110
1111101011010010
1011000010
1110110111001001
1111100100110110
1111011011101111
1111000001001110
1111011100011110
1111100101011011
1111101111001111
1111100111000100
1111110001000101
1111111011001100
10000000
1111111111100110
1111101101001000
1111111110111111
1111110111100110
1111011111011111
1111100101101101
1111111000001111
1111010010101101
1111010010111111
1000011100
1111010010011110
1111110000010110
11010100
1111110011101001
1111100101000100
1111011000100000
1111100111001000
1111010001100000
1111011111100010
1111110000101011
1111010011101110
1111100110100001
1111101111000011
1111110111011011
1111110100101100
1111111110010001
10110100110
1010000101
1010101000
1111111101100101
1111101101001001
1111101011000010
111000
1111110110100000
1111110001110101
1111110010100011
1111001100101100
1110111100110001
1111010001000110
1111100100110100
1111011100001111
1111111010010010
1111010101011000
1111110101110001
1111101001011110
1111110011110100
11010101
1111111100000110
1111110010100010
1111111000111011
1111111010111110
1111100011110101
1111110100101011
10011111111
100011111110
100110110011
1111110111111111
1111111011110110
1111010111101100
1111101001110000
1111110011010000
1111111001101111
1011001110
10011101
1111010001000111
1111010101000111
1111000010101011
1111011000111100
1111111000010111
10100
1111000110110111
1110111101010011
1111111001110001
1111110110011010
1111110110010011
1111110011000001
1111010101000100
1111011110001001
1111011000000110
1111010101101100
1111110101110001
1011100010
100110111010
101011110101
1001110
1111100111111000
1111011010111100
1111110011110110
1111110101010001
1111111001001001
1001101111
1111100101011000
1111000111000000
1110011010100010
1111101101001001
1111110001101011
1111110101100110
11100010101
1111000111010000
1111011000111001
1111101101001101
1111110001111110
1111111101011001
1111101001000111
1111010101100000
1111001110111101
1111100100100011
1111101110101001
1111111010100011
1110010111
11101011000
11011010111
1111110101011000
1111111001010001
1111101101111101
1111111100111010
1111101000100001
1111001110110111
11111100
1111100101111101
1110010110100001
1111111100011001
100001110100
11111010111
1111111100101011
1111110010010010
1111101100011111
1111100101110111
1111011110000011
1111111100011101
1111011101101110
11110111
1111111110000011
1111110101001001
1111101000110110
110111000
1111111111010011
10110001010
11001001001
10101110111
10100100
1111100101001011
1111101111011000
1111111111100011
1111101111101000
1111100100111110
1111110110010110
1111111000001101
1111001000110011
1111110100010000
100001100011
100010100000
1111111011001111
1111011110000000
1111110010011011
1111111100010010
11100011100
1111111101111000
1111101011110010
1111010010
10000110110
1001100101
1111101001111100
1111110111011110
101010101
1000110001
11110011
101100001
1111110110111010
1111101111000110
1111111000101000
1111100100101111
1111101101100101
1111001110001000
1111101100111001
1111110011111001
1111100011000111
1111100100100111
1111101110010000
11101100101
10010010101
1111011111110000
1111111101110010
100011010
10111111111
1111110010100111
1010101101
1111111111101111
1111110111011101
1010001100
1111110001111001
1111101011110011
1111100111011101
1111111011100001
10100011
1111111101100001
1111111011101011
1111111010011111
1111111001010110
1111110000010001
1111101000111101
1111001111000011
1111100111111101
1111110011111010
1111101100010000
101001010
110110111010
100000110101
1111110100100101
1111101010000100
11000100
10011111011
10100000011
10001001110
11011011
110010110
1110110011
11111001
1111100011101010
1111100100100110
1111111011010111
11101010
11010011
1111110001110111
1111111101110000
1111100000010111
1111100101100010
1111110010000001
1111101011101100
1111100110100001
1110101111
1111101101111100
1111110100000011
1000101111
110011001111
11101101010
1111111011111000
1111101011111011
100000101110
1111101110101110
1111111010101110
1111100100
1111101011100100
11100101101
10010010110
1111100011
1111110101100100
10111100111
1000111001
10000111000
1111111101101001
1111101111100000
1010100000
1111011100011100
1110111110100100
1111011100110010
1111010010111101
1111100000010010
10011011101
10100000
1111110111100000
1000100101
111001100101
1111111110000110
1010101110
100011101110
110001111110
1111011010010001
1111111010110001
1100000111
1111111001011001
11001101100
1001011010
1111000
1111110010011000
10001011111
1111111010111000
1111111000101101
1000000111
1111110100011011
1111111110111100
1111001101011111
1111010100001001
1111011100001111
1111100000110011
1111101001011111
10010001101
10011000001
1100010011
101001010
11111001101
1111110001010011
100101000
100001101010
110011001000
1111000001111101
1001100010
1101011001
110010000
1010110110
1111110110010110
1111111000111010
1111110011110010
110111011
1111110011101111
10100011
11111100110
1111111000111101
1111011111010001
1111011100111100
1111101011000000
100011111
10010001100
11011001111
10001101111
10000101010
1111111001001110
1111110110110001
1111100011100010
1111100000100111
1111100010100011
11101101010
111000010000
1111011011001101
1111111001000101
1111101101110101
11001101
1111111
1111111011010001
1010
1111111001110011
1111101111000011
1111111110011101
10000100111
10010101101
1111111100110001
1111100111101110
1111110010000000
1111000101
1011101110
11110110110
1000101001
11111101000
1111111010010100
1111111100000110
11001001
1111111101010101
11101101110
11101010110
1111111101111100
1111100011001010
1111101011001101
1010111000
1111111011111001
1000000
111010000
1111111111100111
111000110
1111110110001000
1111111110110101
1111111001111010
1101001100
1111110111111000
110100000
110011000
101000111
1100010000
1111011010
100001011111
11000111111
10100110011
1011000010
1101100
10001111010
100101100011
11111100000
10
1111101010000011
1111101100110010
11000100
11000101011
111101001
100001100111
1111110000111100
100001010
1111101011
1111110110010100
10110000101
10101100011
1111111010100010
1000110001
111101101
1001011110
10111000011
101100111011
100101010111
110101011001
10110100001
101011110000
1111111011
10101100111
100001100101
110011011100
10010011000
10110101011
110000010111
1111110010101000
1111110110110110
1010110011
1100110001
11000001100
111011010
1111101101110011
1111110101000100
1111101011110010
1111110100001111
1111111101000100
1111111101110010
100010101
10101111
1111111110001000
1011001000
100011010010
11000010000
1111100111
100101011110
100111010001
10011000011
11110001110
1111111110101101
111101001
1111111001000001
10101011100
10100100010
1100101
1101100110
10111000
10001101000
110000010
1111111000
101010011
1111111110000101
1111110100101110
111011
1111111010000000
1111110001111011
1111111100100011
11000011
1111111001011000
1000001110
11001011011
1101100100
100010111111
110100010100
1111111110000001
1111101101010010
100101111100
1101001010
1111101100101000
1111110111100100
100110000
1111111110111110
1111001111110010
1100000010
1111111010101100
1111111110000100
1111111111000010
1111111001011101
1111111110011110
110110010
1111101101010000
1111111001010100
110111001
1111101010011010
1111010011011111
1111111110110001
1001111100
111100000
10111111010
1101
10011011000
10111110
1111110010101110
1111100010101010
1111011110011010
1111100000111100
1110001011
1111111101101011
1111111110111001
100001110
1111101001100010
1111110100101101
1111101111111010
1111101010001111
1111101001010101
1111110001001011
1111101000001100
1111111100100110
1111111111001000
1111110000100100
1111001011010111
1110110000100011
1111001001110100
1111001101100101
1111010100011110
1111101100010100
1100001110
1111110001100100
101110101
1111111111110100
1111100011101000
1111100000001101
1111111011011101
110100011001
100001001010
1111111011101000
1111111011001011
1111111111100011
1111111111000111
100100001101
10001101011
1111111001110110
1111010110100111
1111000010110001
1111010100111110
1111001001000101
1110110001111010
1110011110101001
1101101100010110
1101111011010101
1110001010110100
1101100110001000
1101011110111100
1101111111111111
1110011010000100
1110010110110100
1111000001011101
1111101100011011
1111000011010111
1111011011011011
1111010000011011
11001001101
10110111011
111011
1111111110011001
1100011
1111111101001000
1111101101100001
1111011100000110
1111111100000011
1111100000110001
1110100110000011
1111000011101111
1110000001101011
1110101000110111
1110101110101100
1101111001010001
1101011000100100
1101101010101110
1110000100001111
1110000100001100
1110101100010100
1111001011111011
1110111001010101
1110111000100001
1111010010000111
1111011010110011
1111101110000001
1111110010000110
1111111101011110
1111111011011001
1111111110010000
1111111011100000
11101100
1111111110000010
11000111
1111111111100010
1111111111101101
1111100100001110
1111100101011011
1111010100100111
1111001100001101
1111010111111101
1111010101111011
1111010000000000
1111010101111001
1110111111010001
1111011110000101
1111100011110001
1111011100011100
1111011011011000
1111010100000101
1111101110011110
1010110111
11110111100
11100101110
1111111
11000101
1111111010110011
1111111100110100
