11001000
1111111011001011
11110000
10101111
1111111011000100
100010010
1111111100001100
10011011
1111111100010100
1111111010100010
1111111110100010
1111111111110011
1110110110
1010101110
1111110011000101
1111110110101011
1111111010110010
1110000
1111111110100010
1010111
100001001
1111111100001011
10010011
1111111011011101
1111111100000110
1111111111000011
1111111101001101
10100101
1110000
11100100
1111111100000111
1101001
1111111001111011
1111110111110100
1111010111111000
1111100110010111
100000110010
110100110111
110010001010
1111111101100111
1111110110000010
1111101101101101
1111110101011100
1111001000100100
1110110110111111
1111011100110000
100011100001
10011100010
10011110100
10110101010
1111110011010001
1111111001111101
101111
1111111100001110
11111000
10110101
100101111
100001110
1111110100001100
1111111010010011
1111111111101110
110000010
110110010
110011010100
110101010011
1111111001100010
10100011000
100000111100
1111111111001101
1111101001011111
1111111100111000
11000001010
1100000
1111111100110011
1110000
111010101000
101001000001
110101101111
101001110110
101110001101
110010001100
1011110110
101001111
11
1111111011111111
1111111111100000
1111101000010110
1011011111
1111100010101101
100000000100
1010001000
11000010
100100010100
10100011110
10000011110
10110001000
1111010110111111
1111000001111001
1111011100010010
1111100101111110
111101110
10111100010
110110101
11110100100
1000000101
1111101101110110
100001000
1111110011001100
1111110000110100
10000000111
101111000
11110011
1111111100001001
1111111101010010
1111111010101010
1001001
1111110110111000
11010010110
11001011
1101011101
1111011110111000
1111011011010101
1111000000010111
1111001000110011
1111101010011000
1111110010100100
1111100010000110
1111101100111001
1111111101010100
10000100010
1000000001
11100000
1110000101
1111101111111000
1111110100111010
1100011100
1111111001011100
1111110000011110
1111101001111011
1111111001011101
1001111
11001000
1111111000101001
1111100111010011
1111110001111011
1111111110010010
1111101110101000
1111101010011011
1111111001000111
1110011111
1111100100110000
1111010101110101
1111100100011001
1111100110111110
100111111
10001110
1111110101010011
1101010100
1111111100011011
1111100100010011
1111100000110110
1111100011111100
1111101011110001
10011000100
1001101001
1111101110100001
1111010000110001
1111110100100101
1111111111110100
1111101011000111
1111110100010011
1111110011001111
1111101111100001
1111111000010001
1111010110110100
1111101000010110
1111110001011000
1111110
1111010011000011
1111001111111101
1111011111111000
1111100001000101
1111110101010001
1111111001000101
1111111001000010
1111111000101111
1111100111101001
1111011010001001
1111101100000110
1111101010110101
1111111100111110
10000010101
1111111101100000
1111101111100110
10100000101
1111000
1111111001010010
1111010100001010
1111100100111110
1111110011010111
1101000010
1111111100100000
1111100100000000
1111101101011011
1111111011011101
1111101100111101
1111010011011111
1111100011100101
1111011100010001
1111110011000001
1111111110011110
1111111001010001
1111110100101110
1111101110011111
1111100011010011
1111011010101101
1111111001110110
1111101010001111
1111110101110000
10010001010
1001011010
1110001110
100001110
10100111
11000011001
1111000110101100
1101111111
1011101001
1011100011
1011100101
1111101110001100
1101111100
1111110011101000
1111110011000001
1111100110111011
1111110000010000
1111111011010110
1111110110000100
1111110111111011
1111111010000110
1111100011111110
1111100100110001
1111101101101011
1111101100000001
1111100010111001
1111111011101100
1111110100000000
1111101100100000
1111110010001110
1101011010
100100010
1111011010111111
1111011111010011
1111010011010101
11110001111
10111101
1111100000
1111111010110111
1111101000110010
1111110010110111
1111110010100000
1111100010010000
1111110011101100
100010001
10000001111
10000110
1010110111
1111111010100100
1111100110010100
1111101010001001
101111101
1111111110001111
1111110010110010
10010110
1111100011100011
1111110011011011
1111100111111111
1111101101001011
1111111010010011
11011101000
1111011010101011
1111100010010000
1111111110100010
11100011110
10001011011
1111111101110110
101111
1111111011001110
1111111100001010
1111101111000100
1111111011010101
111001011
101100100
100001001
1111100010000111
1111101010001110
1111100101010101
1111101111110010
1111110010011011
1111110010111101
1111110001010001
1111101011010010
111111
111000001
1111110001011010
1000101
1111100110110111
101000110
1111100011110011
1000111010
1111100010001010
1111110100100001
1111101110100001
10010111010
1111111000011100
101001110
1111110011011000
1111100111110000
1111111111001010
10101011110
110100110100
10010010111
1111101000100110
1111101001010010
1111110001
1010111110
1111111000000010
1111111010110111
1111101111010010
1111101010100001
1111011110100101
1111110001001011
1110111010111110
1111011111000000
1111011110111011
1111110110110110
1100101
1111010010010100
1111011000000001
10000001111
1111110110101101
1111101101100110
1111100111101110
1111110000110101
1111100101100010
1111110100010101
11101010111
1000001101110
111100001011
100010110000
1111100001101001
1111111000110110
10000100100
11011000010
11101000011
1110011011
1111110000001100
1111111100001011
1111101011110010
1111010110001010
1110111001111101
1111000111100010
1111001001100110
1111110110100010
1111110101101100
1111100011011000
1111011000110111
1111111111011010
1101101001
100100101
1111100
1111111111011010
1111110111001110
100111
100101001100
101101111010
101001101010
110011100
1111111000111100
101001111
10001011101
100011011111
101001001101
1101111
1101010001
10111000
1111101100101100
1111011001100101
1110010100010000
1110101100010001
1110101100100011
1111011111111010
111101100
1111111011101100
1111011000111001
1000010
100011000010
100100100001
1111111000101111
1111111111101101
1111111011000011
1100000110
100000110001
11000100100
10000110001
100011001
1111100101001000
1111111000000110
10101010100
101000011110
100101010011
10001011100
1010110100
1111111100000010
1111111111111000
1111010100000000
1110110011011011
1110111000111100
1110110100000101
1111100101111101
1000101010
10100000
11100
10010000111
1101010110
1111111010101001
1111111110011101
1111101010011000
1111101011110010
1111111010
11101001101
11111000101
1001011000
1111101111011000
1111011011100011
1111110001000011
11000000100
101001101100
10111101100
10101011001
101010111
1111111001111100
101001011110
1111110001011010
1110111100011111
1110110100101001
1110110010010000
1100011110
1111101110011111
1111100100111111
1111110110001000
101000100
10000001
1111111100000100
1111101000001001
1111111111101001
1111110101001001
11010100
10000101
100001101011
1000011001
1111101011010111
1111100100110001
1111111000100100
10101110001
10111100010
11010100010
11100010100
1101110111
1111111010000100
110000100
1111100111001011
1111010010111111
1110011101110101
1110110000011100
10000100001
1111
1111101101001111
100101000100
1111111011010011
1110001110
111000
1111101101110011
1111101000000000
1111110010010001
10001110
10110001001
10011101100
1111101101110111
1111101100101110
1111100100110000
1111111001100000
1010111101
10110001111
100010001011
1111100100
1111110010100001
1111111101000000
1111101011101011
1111100110111111
1111001111110111
1111000011101100
1111111110111010
100000001
1111010001000101
1111111000101001
100000101000
1111111110110100
1111010010
111000
1111110000010010
1111100100100100
10101
1111100110010101
1111111100100000
1100001000
1111111000000011
1111101100001100
1111100101001101
1111111110011111
11111001010
111101101
10010011011
1111110000101001
1111100001100000
1111110000010010
1111011101100110
1111010100001100
1110111111111011
1110111110010110
100000011011
10010101100
1111110010010100
1111110100010010
1001011000
1111000111
110101110
110111
110101011
1111101101111100
1111011111010010
1111110000111111
1111101010011110
1001001000
1111101111011110
1111011100100100
1111101110010000
1110110010
1100000100
1001001001
101110111
1111110100101110
1010101110
1111011111100001
1111001000000110
1111000011101001
1111000110111101
1111000001011001
1111101001011001
1111110110001101
10111010
1011100
10010101100
10100
1111110101100000
1111111100000111
1001110001
1111101100011010
1111100100001011
1111110011010101
1111101001110101
1111101010111000
1111100111000011
1111011101101110
1111110010101111
1111111001000100
11011100
1111110111000010
1010111
1111111000010011
1111111000011100
1111011000001001
1111011110110010
1111100101010110
1111110010000111
1111100111011111
1111011000001101
1111110011110010
1111111001001010
1010
1111100110011111
111001110
1111110000010111
1111110100100000
1111100110111000
1111101111111110
1111101100101101
111010101
1111111010011101
1111110011000000
1111110110100001
1111100111111110
1111011011001110
1111100101010010
1111100101110101
1111110011011011
1001101100
1111111010101100
1111110011110010
1111011011010110
1111110011011011
10101111001
101001011
1111111110010000
10000110101
11100101
1111111011001101
1111111101110010
1111011001111010
1111011001101011
1111101000110010
1111100010110110
100001001
1111101110110111
1111011110000010
1111101010001011
101101111
1111111000010100
1111100010010101
1111011000010010
1111100000111011
1111110111110001
10001111
1111111011111010
11010010
100110101011
101000
1000010000
1011010000
1111100110100110
111111
1111110110000100
100011100001
110011011
10011100
1111111101100010
110111101
1111010111100001
1111100110001101
1111001000100010
1111111011101100
1111111101101001
1111111000110000
111001011
1000011111
10001101101
1111111011111100
1111101010100111
1111110011010000
1111111101001100
1111110000111110
1111100000
1110000110
1111111110000111
1111110010001100
100110101
10001011010
1111100101001110
1111111111001001
1111011101100010
11011000010
1111111100110110
1111111011010101
11010110
1111101010001101
1111000010000001
1111110110111011
11101101
1111111000010100
1100110100
1111101010011110
10100110110
1111011100
1111111111110010
1111100000110100
1111011001101011
1111110000101111
10110001
1001101001
1101001000
10100110101
1011100
10001000100
11000110010
111101001
1111000010
1010001000
10101111011
1111110110100010
1111111010111101
1111111110001110
1010001
1001110001
11000011010
1111100000000001
110011011
1111111110000000
1111111010100010
1111111000011000
10000110101
11010001
1111111010001111
1111100100110011
1111101010010011
1111110000100011
1111111010011110
1111111111101010
11010101011
10111101101
1111101100111011
11000000
1111111001001000
1111111000111101
10100011100
1111110111000100
1111110010011010
1111110110101010
1111111100000111
100000001
1111111101101100
1111111111011011
111101100
1111111111111000
1111111
1111110100010000
1111011100000110
1111101100000100
1111100011000110
1111100010110111
1111011011011100
1111110100011110
1111000101001111
1111000010011101
1111101010011100
1111100110110011
11111
1111101001011110
1111111010101111
1111011101111010
1111001110101010
1111010100011111
1111100010110100
101100001
1111110100010111
1111111100101111
11000011
1100001
1110110
10011101
10001000
1111110001000100
1111101010011000
1111100101110011
1111011101011001
1111001100011001
1111101000101010
1111010010110101
1111001001111010
1111001111001001
1110101001100010
1110000011111101
1110100010100010
1111001100110100
1111010101101001
1111100010111001
1111110111011110
1111010100
1001110100
1000010100
1111111011110011
1111111100010011
0
11100010
110111
