10110010
100111000
1000101
101010
11110000
10001000
10000011
1111111011110010
1111111111100110
1111111011100010
1111111101101001
1111111100001001
1111111110100001
101010100
110101001
1111111101011101
100100110
1111111011010101
1111111010100111
1100001
1111111111001101
11000101
1111111100011101
1111001
1111111011001111
1111111100000010
1111111100000111
1111111010110000
1111111101011110
1111111110111101
1100101
1111111101101000
100000001
101111001
11000011001
10101111000
1111100010
100010111010
101011010100
110100010100
110110110000
110101000001
101111001110
111010101011
111001010100
110001111001
11010010100
11011011110
1100010010
1111110101101101
11100010
110010001
11000000
11111111
1111110
1111111011100010
1111111110011100
1111111110101111
1111111100101110
11100001000
11101010101
1111111111010011
111111000
110010011001
100111100000
1000001111100
11111110010
11011110110
111110101011
1100111011011
1111010000000
1110000010110
1101011010101
101101001111
111101111001
11001011000
100001011000
11001000101
11101110101
11001100110
10110110111
1001111101
1111111010110101
1111111100011110
1111111100101111
10010
1111101100011110
10111010101
1111111011
11111110011
101111101010
1011010100
111000110100
100011110100
10100111001
10011011000
110100010110
1110111001100
1110000000000
1101111100100
1101101101010
1011110110101
101101001011
1111110110111100
1111111001000010
10100100001
1010110100
1100001
1000000
100011011
11101101011
1111111011101011
1111111110011011
10110101
10010101
10001010
10110110000
1110101
1110111110001101
1111011110101111
1010000010
100001001101
100111010111
110101001000
110010011101
1001101000000
1011100100011
11101101011
1111100110101111
1111111001110000
1111110111001111
1111001001011000
1111110100011011
1010001011
1110001101
10011
110101000100
1000001000011
101100010000
11000010000
11101
111011
1100110000
1111100101010011
1111111000000111
1111011111111011
1111101001001111
1111110011001101
100000100
111000101001
1000100100011
101111001011
11011001101
1000101011000
1000101001001
100100101111
10010000101
1111110100000000
1111111010101010
10000011
100101001
10011011011
10000010
1111111100001100
1111101000010111
10010000000
101110101110
110100001
1111111111110011
1011000011
100100100000
1111110011110111
1111101101011011
1111101010100010
1111110010
1110100111
1111111010100101
1010110011
101011100111
101111000000
11000011111
100110101100
111010000011
1000001011010
1001111000
1111100110001011
1111100111001110
1111111100111011
1111111011001111
1111100111111000
1111101000
11000001010
11001100000
1010101101
11010011111
110000101
1111111011111010
101001000100
101111000101
1111101110000001
1111100001011010
1111001101001111
1111111110000011
10111
1111110011010110
1111111001111110
11100000100
1101001000
11000100011
101000010001
101011011100
11001001110
1111101000110001
1111001111100010
1111100000111000
1111100111010100
1111101011101010
1111000001
101000010110
100001000111
110011000010
110011111010
11100110111
1100101001
100001010111
101110000010
10010
1111110100101000
1111010011110000
1111000110101110
1111100101110111
1111100101010001
1111100101110101
1111110011110001
100000101
110010010
100011011100
111100111000
11111011011
1111110111001110
1111110010110100
1111011101101001
1111100101100011
1111101101110001
11010011110
1110101101
110101110
101101000010
1010010010001
110010011101
1000001101001
11010111011
10111010011
11001110110
1100110
11001111000
1111111110110011
1111111101111011
1111110101111110
1111111100111000
1111011111000000
1111110010000000
1111111000111001
111110111
100011100001
111000011110
100111001001
1111100110000101
1111010110101110
1111101101111011
1111101010111111
1111111011110101
10001101000
1110100110
110010110111
1000111110111
1001001011111
1001000000110
1000010111101
10000111011
10110100011
1111110011100100
1010011010
1
1111100110010001
1111111101101000
10011110111
100110011100
1111111111110110
1111111010011100
1110001110
100001001000
110110101011
1001110010111
1110111001
1111011100101101
1111011011100110
1111100010010011
101100
1111111000100111
11101111001
100111110111
1011000011110
1011011001110
1011110110010
1111111111001110
100011001010
1111101011010110
1111111111101011
101011101001
1100110011
1111100100011101
1111110111011011
1111101010011011
10000001000
111010011
1111111100001111
1111101110010100
1111111010110111
10001110110
100001001111
100100001001
1111011100100101
1111000011101001
1111010100101010
1111110110011000
1111110110100011
111011101
101111110000
101111011001
1010011011000
1100101100101
1011101110001
101001101111
100110100010
10011111
1111111010001110
1111100000110110
1100000000
1111101111000000
1111110100110011
10111111
110110001
1111110111011010
1111101010100010
1111101011000101
1111110010110000
1111111100001110
1111111111111110
1111101101001101
1111111001111001
1111011111111110
1111101001001111
1111111111101000
1111111011001011
101111101
100110111011
10010010
1110100011
11101100010
1111111011011110
10010000100
110000011100
1110001100
1111111010000110
1111110111001100
10111101011
1111111111011110
1111100100110101
1111110101110111
1111111101101000
1111110001100100
1111101101001110
1111101010011100
1111100111111100
110010100
11100100111
10000100010
10111001101
1111111110011010
1111111111111011
1101010011
1101011
100101100000
1011001110
1111110010111100
1111111010000011
11011011110
11111111101
11110000010
11001100001
100100000010
101101101
1111100110100111
10001010011
10101010001
1111100000110110
1111010001000100
1111101100011000
1111101010010010
1111100001111110
1111110000100101
111000101
100101011001
11011010100
1010100111
10
1111111100100000
1111111001001110
1000110100
110011100
1111111000110100
1110000111
1111101111111101
1111110110010010
101101000
10000111010
100111101
100110001100
10101100101
1111111011011111
10101010
1111101100110011
1111110110011000
1111100101111111
1111110010
1111100100000011
1111100011001111
1111100111111111
1111101111001011
1111111111011011
1010000101
1111111110010110
1111111000110100
1111101110010101
1111101010010010
1111101111110011
1111111000111010
10010110111
1110101
1111111001000010
1111100000001110
1111100000110100
1111111000000010
11000000111
11010111111
11101001000
11000000101
1111101001011001
1111111100101100
1111110010100100
11100000
1111110111001000
1111101001010011
1111100100010110
1111100000011011
1111010110110000
1111101111001011
10100000011
10011010010
1111111001100111
1111100110001010
1111100111001101
1111110110001111
1111101000011010
1111101100011000
1111110001011011
1111101001100111
1111011001000001
1111010000000101
11110011
110111
10011101100
10111000110
11100010100
100010011110
1111111011000011
1111111001110011
1111101000101110
1111111110110101
1111100101111101
1111011101111101
1111100111111000
1111110101000000
1101001100
1010110111
10010111000
10001100110
1101110000
1111111110001101
11011101
10001111111
1111111010111011
1111111111101100
1100110101
1011111101
1111111100100001
1111011110001100
1111110100010010
1001000101
10001101010
1111110111010010
1111011110
100010111001
11100101110
1111111100111110
1111101100111100
1111100011000001
1111101010010101
1111111100001111
1011110011
10110001111
111110010010
100100100110
10100101100
1111000111
1111001001
1110001
11110011101
110000000111
100101001001
111000001110
110011110111
111000011111
111111111010
10000001011
101100101101
1100001101111
100111100001
1111100111
1111001101111100
1111011000110000
1111110111100011
11001001011
1111111001000111
1111001001100000
1111111010011010
111111000
1001100001
1111111101111010
1000001011
10101000
1001110000
111000000
11001010100
10111001001
10101001000
11011111101
101011000101
101111001011
101001111111
101000010101
110001001111
111001101101
1100000001010
10001011100010
110111001011
100111111111
1111100000001101
1111010101011011
1111111101100101
11010111011
1111011110001000
111001110
101110001
101010001
1111110000101100
1111110011100110
1111101110001011
1111110110110010
1111111110001111
1101
10000000010
11101001111
110111000
111110010
1111110001111011
1000000001
1111111111101111
11100000010
100111101100
11010110110
110000110
1011100000000
1111111111010111
1
1111110001010111
1111110111001110
1111110000011000
1111111110001010
1110010000
100010110101
10000001
1111111111101010
1111111001101001
1111111110001111
1111111101011110
1111110011011101
10011010011
100010001000
110001101110
10110111010
1111110001100001
1111110011010010
1111110100011110
1111111011001110
1111110110000101
1111111011110011
1011001001
1111101000100010
1111100001110110
100111111
1111110111101110
1110011
11100011101
1111111011010111
1111110101101101
1111111000111110
1000111101
1110110110
1001011011
1011111
1111101101101010
111001
100001000
1111111100000110
11010000110
111010101100
100010110110
1111110001000011
1111101110110000
1111110011110000
1111110101010100
1111110001110010
11001110
1111100111101110
10000111010
1111001011
1111110111001101
1111111101110011
10101111101
11101101
1111011100100101
100001010
1111111101001111
101001100
100100010111
11011101
111001000
11000100010
1111101110011101
1111011111001001
1111111110001111
1100110
10011100111
100000001110
1111110000111101
1111100110011111
100000010
1000101101
1111111010110000
1111101001111101
1111110111000011
1000011
10000010000
1111110100100001
1111111001001111
10000111
1101101000
10111101
1111011011001100
1111111101101100
10011010
1111111100111011
11110111111
11110010
1111100110101000
11000110111
1111110101000101
1111111111001010
10000010011
11001001010
10100110010
11100000010
100111101011
10010111
1111111111010001
10000110001
1011111110
1000000
1111110101011110
1111111000111010
1101000100
1111110111001110
1111110111000100
1111101101001001
11100011010
1111110010010001
1111101011101111
1011010
1111111100100101
10111100
1111111111011110
1111001111000111
1111111011000001
1111110011111011
10001011101
1111111011100001
10010000000
1110010110
11110000000
101001010000
100101010000
11011001110
10110100010
1110010010
100111100110
11010101101
11010100
1000011011
1101011000
111110101
1111111111101111
1111110010010011
11100000101
1111110110110111
1100001001
1111111100011110
100011010
1111111010110001
101
1111110100110001
1111111000110101
10000011011
11011001100
1000110111110
100110101110
1000000111110
110111100100
1001000100001
110110011010
1101011001011
111101001010
11010101010
101111010100
1110010000
10000101110
10000101101
101000000011
101000110001
11110110101
11101110
100100110
10101000
11100101
1111111010111111
101011000
1111111011001111
10010100
101011101
1000011111
1101111000
1010100110
1100010001
11010001100
100011100101
111011110011
101010111011
100111101111
110100011101
1000110011000
1111100110111101
1111100011001100
110011011101
110111110100
101010110111
11010101
1111010001110111
1111011000000111
1111101001011100
1111111110001000
1111111110101100
11111010
1111111100101101
