1111111110111001
1111111111001011
1111111111011011
100010111
101011001
1111111100100011
101011100
1111111111111100
11001
1111111011100110
1111111111010101
1111111100011000
1010110100
10001010011
11000101
1111111111100001
1111111100100011
1111111100000011
101000010
1111111100001110
100101010
1111111100000101
10110001
1111111111010001
101010101
1111111101101010
100101110
1111111100000010
1111111011100101
1111111101101011
1111111111010101
1111011
101001110
10011111101
100010001001
101101111101
111001100100
110011010100
1010010010101
1110111110001
1000001100111
1011100001011
1101000110001
111000000110
11011000101
100000000010
100110000101
10010100001
1000011001
1001111010
10101100110
10010000101
11100101
1111111100110000
1111111110010111
100010001
1001001
1111111110000010
1110010010
1111111000100101
11111101011
101011111001
1000110111011
1000100110000
10000010101
1111011011110100
101001001000
10010011111
1111011001000111
1111101111000110
110111101011
101101101011
1111100101101000
1111011110110001
10011011110
11010011010
11101100001
1000111111
1111111010101101
10001010010
1111101111100010
1111111000000011
10001
1111111011000010
11100010
100000100
1111110001110011
1111110100101101
1011101001
1111000001
100011101010
1111101010
11010100000
100011011
110000111
10001110111
10010011111
1101101010
1111111111011000
1111010000
1011010111
1111110111011111
1100111
10010100100
10101001111
10110010101
1111111011010110
1111010111011110
101000010101
1010111111
11011110001
111011
1111111101110100
1111100101011111
100011
100011101110
101001
1111100010101101
101010111
10101011000
1111101001100101
1111101010001111
11110111
1111111011100010
1111110001011111
1111011111110010
1111011111110000
1111100101
1111101000100100
1111101100100011
10001101101
1111110001100000
1111101101100111
1101010111
1000101111
1111111110100100
100011111
1011110100
100101010110
1101011110
1111111101100110
10011010
1111100100110111
1111101000001011
1111001100110101
1111101111000110
1111100111010111
1111110111101001
10
111110101
1111010001
1001100010
1001100000
110100110
1111111101101001
1111110010110100
1111101000011101
110101
1000101101
11011111
111110011
110001100
1111111010010000
1111111011000110
11011001001
100101100
1111011110111100
1111101010011100
1111111111001010
1111011011001100
110101010001
101001001
10010100
111011
1111111011110011
1111111000100111
1111111000000000
1111111110000111
100111010
1100001110
1011100001
100111000
1101100100
10111110001
10101011101
11010010110
1011111001
111111111
1111111010101000
1111111110011011
1111110110010010
1111101101001010
1111110001011110
1111111011010011
1111011001110110
1111111010001000
11101110
1111010101110100
101011010110
111101
1111110111001101
1111111101110110
101001
1111111101011010
111010001
110000011
1001101100
11
1000100100
10001110100
10000000000
10101110011
100001111010
10111010110
101111111
110101010
1111110110001100
1111111010110011
1010001
1111100101011100
1111011010010011
1111111101101001
1111101101000010
10101111100
11010100000
1111101110010101
1111110111011010
1111101011110000
1111111000010110
10010000010
10000010100
1101000010
10011110101
1101000001
1111111010000010
110100100
1111111111000101
1111111111010001
10111110111
10111101011
101111111001
100010001010
110110110
1111110011101111
1111110000001110
1111111011011111
1111111000010011
1111110110000000
1111101100000110
1111100001000101
1111101001111010
1111100110111101
10100011011
1111111101011001
1110010001
1001110010
1111110011010100
1100101111
10011010110
10001100000
11001100001
1110100111
1000100110
1101100010
10011110100
11001100000
10101110111
1100010101
1111111101100010
1100110010
1111101111100111
1111111010001111
1111100011000110
1111111100111011
10001110110
1111111101101010
1111101100111101
1111010110000011
1111100110001010
100111010111
10101011101
1111101110101110
10100000111
10001001100
1111111000010000
10101110110
1010011000
1111111100
10000101011
110000111
1111110110110110
1111111011000100
100001011
1000000010
1111110101100100
1111100001010010
10000
1111110010001011
1111110110110011
1111110001100110
1111111011010111
1111111110000011
1111010000111111
1111001110000110
1111010101100010
1111010111000000
1011001110
100000
111100100
1000010000
101001000000
1111111010111100
11000010010
111011
1101100000
1111000100
101100
1111111011001010
1111110000101011
1111110101010001
1111110011110001
1111110011110011
1111010101000100
1111110010001101
100100110
11011110011
10110000001
1010110101
1111110101011101
1111110011100101
1111101111100000
1111100101001111
1111111100100011
1111011101010010
1111111101
110010100
10110110
1111100110001011
110001110
1111111011010100
11001110101
101100111
1110001111
111110110
110001
1111111111010000
1111111111101011
1111111001100110
1111011110010100
1111010111101101
1111011001001101
1111110100100001
1111111111101101
111111
1000111
110001
11111110
1111110100111001
1111110001011010
10010001010
1111101101010110
1111111101011101
1001011110
11110011100
1111101111101100
110000100
10101100110
1001000010
11010000000
1111101010101110
1111111000000101
11111011
1111100111100000
1111110001100111
1111111001011101
1111111000111111
1111110001100101
1111110010000110
1111111001010000
1111111100100111
1111111110100100
1111111111111011
1111111011110001
110100
10001
1111111000010010
1111111010111100
1111101101011000
10000110111
1111110011100011
1111011011100100
1111010110111111
10011101
1111110100010110
101010000000
11011101001
10110101010
1111100000101000
10001011
10111101011
1111111001001011
1001110101
10111010111
110100
1111110011101100
1111110111001111
1111111010110010
1001101011
1111101111010101
1111111010101110
100000000
101111011
1111110111100111
11100110
1111110010101111
10010101011
1001111010
1000001010
1111011001000110
1111100001110000
1111111100011000
10100010000
1111100101100111
100010100
10011010
1111111010100000
1001111101
111101011
11100010101
10000011111
100011010000
11111110011
1100111011
1111111010001110
1111111001001010
1111111000101111
1111100111100110
10000001001
10001101110
1111101101101011
1111111011000000
1101011111
1111111111000010
1111101001101110
1010100
1111111110010110
1111011101110001
1111100000100000
1111110010110111
1111111011011001
1111110110000011
1111111010100010
11000100111
1111101100100010
1111101111111100
1011010100
1101010111
10110101011
100010111010
10000101110
1111111000011000
1111101110110101
1111100101010001
1111101001001111
1111111101011100
1100001100
1111111111000100
1111110100001110
1111111010000110
100111110
10011001000
10110100001
1111101110001100
1111100110100000
1111001100101000
10010000
11101100
1111110000110011
1111100111000010
1111100100001000
1110110110110100
1111010111100100
1111010110100001
1111101111010111
1111111010111110
1011110110
10001100001
1111000000
1110101
1111100001011000
1111011111111011
1111110100000111
10001
111110101
10000100100
1101111111
100010
1111110010011000
101111011
1111101110011011
1111100011100111
100100001
1111111101000011
11000100110
1101110101
1111011011000111
1111100111111100
1111111010111010
1111101100011101
1111010010010001
1111001101001110
1110111011111000
1110111011110111
1111111010010101
1111110100110101
1111111100011100
1111010110110010
1111000110101000
1111010101001100
1111101111100100
10010001
10111001111
1010001110
10101010010
1111111101100000
110100
111010
10101001001
1111010001111010
1111101110010100
110100
1111011001010011
1111110011101111
10100110011
11100010101
11101110000
1100101
1110111100010001
1111100001100101
1110111101011010
1110101000110100
1110101001100001
1110101000010110
1110111110000010
1111011001001100
1111001100101111
1111101000100100
1111110110111101
1101110111
10100001110
10011101111
1111111110
1111110101111010
1111111100010111
1111111100111110
110001100
1111101011101010
11010011000
1111011110100011
1111011011000111
1111111110100010
1000010000
100100010
10010100101
1111111101110001
1111110001100001
1111110001001011
1111100011001101
1111011011101011
1110111111101000
1110110110101000
1110100001111111
1111010001100111
1111110100110001
1010010001
1011000011
11100101110
10101000111
1111111111110111
10001010100
1111111001111101
1111101111111010
1111111110100100
1000001001
1111110111100110
1100110001
1111110101000011
1111101111011000
1111101111011100
1111000111111000
1111111110000110
1110011
11001001101
1101100110
1100111011
1111111101010000
1111110001011101
1111100100001110
1111110001000011
1111100011101011
1111110101001010
1111101100000110
1111111001111001
10100111
1101001110
1111111101100101
1111101110110001
1111110010101001
1110101
1111111101101111
1101000
1010010011
1111011110
10000100011
111110111
11001101000
1111110101010101
1111101000110011
1110101111011110
1111111100111001
1111111110111110
1111001011
111101010
1111110101011101
1111110011101101
1111110110011111
110000111
1001011110
1111111000000011
1111100001100100
11001111
1111111010010010
100100010
1111111100111000
1111110111100111
1111110010001100
1111101100101001
1111110000000111
1111111100010101
1111111110001011
1111110110110000
1111111101110010
1111111101010011
11110110110
10011110
1111101
1111011010
1111110001101000
11111000
1111111011100001
1111110110011101
10000011110
1010001011
111110101
100011001000
11001010100
100000010
1111111111000100
1010110
1111011101011000
1111100010001011
1111110000101110
11111001
10001101110
1111111110001001
1111111000101001
1111101111110100
1111100111101101
1000111011
1111110001001101
1111110011011000
10110111
11101
1111111011000110
1111101011110101
1111111010111100
100001011100
11111011111
1111111011001000
1100001101
10001010111
11111000110
101011001101
10110011100
1010000011
1111101011100110
1111100011000111
1111101001101010
1111101011011110
1110101010
1111111111
1111110111000101
1111110111100001
1100001100
1111101000001101
1111101010110001
1111111011110111
1111000111001000
1111011110110111
1111111110101111
1111111110100110
1101000
10100101011
100111010011
1100001010
110001100011
11100111011
101010111101
100001100010
11001111110
11111101100
100001110001
1101100110
1111111000001110
1111101010000101
1111101100110100
1100011000
1100110011
11110101
10000111011
1111111111100000
11100
1000100111
11001100
1001110011000
1110001110
1111110011000011
110001
1111111011011011
10011010
1111111101011101
11001000001
11000000111
1000000000110
101100010101
1010111011101
101110000110
110110111010
110000000001
101011011010
110101110011
100111110111
1001001000101
1100010011111
1000100001110
100100001100
111111100110
111011001000
111000100001
100000011110
101001100000
11100011001
1111110101111101
1010111101
10111001
11000010
1111111110100111
1111111101100010
101010101
11010001
111010
11011100000
1010010100
110110011
111111011
1010110011
1000000000000
111110010111
1000000110100
1001010011101
1011001111101
1111111110111000
1111111010001001
1100011010
110110101000
101011110100
1111110001010110
1111100100110000
1111100100101010
1111110010110101
1101
100000110
1110010
10101111
