101011
1111111011011111
1111111110001010
1111111111110110
1111111101000100
10100101
1111111111011000
10001000
100100010
1111111111010011
1111111110101010
11110001
10101110010
10111111100
1111101110011011
1111111001010000
100111000
1111111101110011
1010111
1111111100001100
1111111011111111
1111111011010010
1111111111011110
1111111011101111
1111111111110100
1111111101010011
1111111111110000
101001010
1111111010110100
1111111111010110
100011010
1111111011011101
1111110110011110
1111110110101111
1111100111000100
1001110011
110001010001
110010101101
101101100100
110010011110
101101101101
100111101100
100100010111
1111111010110100
1111111110001011
100100001001
100110100110
1111100000000000
1111101100100110
101110
1111110011111011
1111111001110011
1111111110111101
1111111011000000
10101101
1111111010101011
1111111010110010
11111011
1111110101110001
1111110111001000
10001011100
11100100100
11010000110
111101000110
1000110011000
1110110100
111111011011
101110101100
10111101101
10111101001
1100100101
1111111001011101
1111110110000010
1111111101101101
1111110010111011
11010110010
100110110111
100001101
1001001000
1111101001110101
1111100010111100
1111011111101111
1100100
11101100
1111111010111011
111101
1111101100110010
1101111101
11100110111
1111111010011000
1111111010100000
1111100100001010
11100011010
11001110110
100001111000
10001101
1111010100010010
1111110010001001
1111111101111011
1111110010010011
1111101101101110
1111100001010101
1111100111100110
111100010
10
10000101
1100100001
1111101101100011
1101010101
101111
11001011000
100010100
1111111110010011
10001111010
1111011100010010
10101101110
1010000010
1001010010
1100101101
11011101111
10001111
1111110101011000
1011110111
1111111100101010
1111110100110110
1111110011001010
1111100111111101
1111110100101011
1111101011111110
1111100101101101
1111110011110000
1111110100011111
11101100101
10111001101
100001010011
100011100111
1111110100110010
1111110100011110
1111110100101110
10111111
1111111101010110
10000011
1111010011100000
11001101101
1111111001001101
1111110111000101
101010
1111110100101010
1111110111000001
10110100
1101000011
11101111001
10001111001
110001011
1111111011101010
1111101100100110
1111100001111111
1111101111011110
1110100
1111111101111011
1001010111
1100010
11111101000
10101001011
1111110110111100
1111010111101101
1111110110110011
100000000
1111111100010110
1111110011110101
11001011010
1111101011100010
10000001
1111101011110001
111110010
10111001001
101101011
111111010
1010001001
10101100111
1110101011
1111111011010100
1111110101110110
1111011000000101
1111100001001000
1111101111101000
1001110000
11101110010
100010101
1101101
110001000
1111111011111011
1111111101000010
1001101101
10111110111
1001011101
1111111101111111
1111110100000111
110111011
1111110110110100
1110101100
10110111
1010010101
1011010101
1000110001
100100001
11001111011
100110101100
11011010100
1001010
1111110000110010
1111011100110100
1111101110110011
1111111011001010
1100011001
1100000001
10001100000
1100011110
11010
1111110110011011
100000100
1001111000
1111111110101101
10000000111
11111111100
1111101000010101
1110100000
1010011010
1111111111010101
1110000111
1011101
100110011
101010101
10010010
111110110
10111110110
10101001
1111100000111111
1111110101100000
1111101101001000
1111111000100111
1111101110001100
1111111011100010
1111110000010111
100011
11011000011
1111110111001100
1001110011
110011001010
100010011011
1111100110100111
1111110110001101
1111110001111101
1111111111010101
1111111000101001
1111100100010101
1111101101100010
1111101110011011
1111110010011001
110010011
1111111000101000
1111110010100111
1000101000
100100001010
11100111111
1111101100001100
1111100011101100
1111101000000111
1111101000111110
1111100011110110
1111011010111011
1111001011101110
1111010100011001
1111101110011110
1111101101110110
1110011
1111111110111011
100110010100
1111100111010111
110101111101
1111101100001011
1111110001010101
1111101011101000
1111100001111000
110100011
1111101101101101
1111111101001000
100101100
10001111
1110000101
1101110010
11011111110
1011000010
1111100001101000
1111000001000101
1111010101111101
1111101001011001
1111110110111111
1111100000001000
1111001010001011
1111010111100101
1111101001000011
1111101000011100
1110110010101111
1111100000010001
110001
1111011000011010
11000100101
1111110100100011
1000011
1111111110111000
1111101101111110
1111100011101101
1111111110100011
1010011011
111101
1111101010001000
1111101111011111
11000111000
10010100001
11101101
1111001111000110
1110111101010000
1111011011111110
111000100
1111111111110011
1111111101101010
1111110010101001
1111111101111100
1111110101001111
1111100000101011
1111010110011000
1111000000011010
1111100010010100
1111000110111001
1101111100
1111110001111111
1111010011100111
10001101000
1111110100111110
1111100111010111
1111110011100110
1110101110
1111101011111000
1111110000010100
10011110
100101110001
1111110111
1111101010011001
1111010000000100
1110111110101111
1111101011111111
1111111111111000
1111111101000111
10010101
1111111000110111
10000100
1111110011000011
11011110011
1111110101100010
1111100000100001
1111010111011101
1110111101101100
1111101101111101
11110
1111111100110001
1100000100
1111100100111110
11001101001
1011000011
11000000001
1011011011
111111
101100101
11100001011
111001
1111111000010101
1111011011000000
1111010001101001
1111101001100011
1111110100001110
1111111111001100
1010
1111111101100010
1111111111000011
1010101100
10011111110
11110111111
1110000110
1111011000010000
1111001101101000
1111011011001100
11111110101
1011111101
1111100011011111
1111011111110010
110000111010
100011100000
11000010000
101001101100
100000
1111101010
111110011
1111111000010001
1111110000110011
1111011011110100
1111011111111110
1111110010011001
1111111111011011
1100000101
111111
101111
11000011011
1000101111
11000111111
11110001000
11000010111
1111110110011001
1110110111111011
1111111000000110
10100111001
1111001100
10000100
1111101000110100
11011010010
10101000001
11100000000
10111010001
110111111
1011010010
1001001110
11111
1111110010111010
1111100000100010
1111010101010110
1111010101011000
1111110011000001
111010000
1001010100
101101001
10000100000
10010110100
10111110010
11110001010
10011110100
1010000000
1111001101101111
1111011000001010
1111100111111111
1111101011111110
1111111000110010
1111100011110100
1000111001
110110100
10000100111
10100000110
1101110010
11100111
1111110100111001
1111111000000101
1111101111101001
1111100101001101
1111010001010000
1111010001100110
1111100110001000
1111111001011101
10110110111
11110001100
11010111110
1101111010
1111101001
10100011101
110100110
111101
1110110001111000
1111100100100011
1111111101110101
1111111111101100
1110011100
1111101111101000
1111101111000110
1111110110110011
1011001
1110010110
110001110
1111111111110100
101100110
1111111000010000
1111101010010101
1111011011010001
1111010010011100
1111010011110101
1111100011111111
10001111110
101001001011
1110101101
10100011000
10000110110
100000000
1011011110
1111110101111010
1111101101101111
1111011101111011
1111010011111000
1111101101000011
110000110
11000010101
101111
1111101100100100
1111100110110100
1111111100011000
110111111
1111111110001011
10010001
111001001
111101011
1111110010011000
1111011111010010
1111100011110000
1111100101010010
1111111101100010
10010011001
11110001010
1111000011
10011010101
10101111011
111010101
100110
1111100111111001
1111111110011111
1111111110111110
1111001011000001
1111110111100001
1111110100000000
11001110101
110100111110
1111111010001001
1111101011001101
1010110110
11100
1101100111
101000000
1111101111110110
1100001011
1111111101110110
1111101100101111
1111101010001010
1111101100100100
1010101110
1110010001
11010111110
10000100010
11110000000
11001000000
1000001001
1111111101110011
1111110111010011
1111111101001111
1110111010010111
1111100100111100
100000110
11001101100
10010110011
11001101111
11011010011
1111111101001000
1111110000001111
1111100110010101
1100000010
11000100
1111110100111000
1111111001010000
1111101011000101
1111011111101000
1111101111110000
10000011011
11000111010
1100101011
1010110000
1001011101
100111011
100100100
10001001
111010001
111111
1111111110
1111000001110011
1011111110
1111111101000111
1000100000
1111000011111101
100011
11011101010
1111110001110101
1111101110100011
1111111100001010
1111111101101001
10010110
111110
100111110
1111111100010000
1111101111011010
110011
10000101111
10011100010
10001110011
1110000
1000111110
10010000110
1110000000
10110000110
1111111101001010
101011001100
101100111101
1011001010
100111000
1111111100101110
1111111101001010
1110110010010000
1111001101
1010000
1111110011010010
1111010101011011
1111101010001110
1111110000110111
1111111011011101
11001110
1111110011111100
1111101110111011
1111110101001101
1001111110
10100001011
100010010010
11101010111
11001110111
11100111000
1010011
11100111
1111111010010101
10001000100
111000001
1100010110
11101001101
1001010
1111111101000100
101000001
10010000011
1011100111
10011000
1111110001001001
1111110100001100
1111100110110001
1111100101101010
1111110101110001
1111101100100000
1111100111100001
1111110100101100
110011
11011111100
10101011100
1110010101
10010100011
1111111011000001
1001011101
1111101110101100
1111101111111010
1111110010101110
1111101010100000
1111110000011101
1111111110011010
11010000001
11110111
1111111111101000
1111111011010001
1111100110110010
1111011101011000
11111001110
100001000000
1111111000010111
1001100
1111110111011101
1101110110
1111101101110110
11000
1111111110000110
1111110101111011
1111101010110011
1111111010111001
1111111111001001
10010000111
1000111010
1111111100101100
100000111
1111110101111011
1111101011011010
1111111101010000
1001110001
1111101011000010
1111110011111001
1111111101010100
10100111
1111111011010101
1100110010
11000111001
1111100001111000
1111100100
10
1011111111
100101000101
1101100101
1111100101111000
10010010
1111111011010011
10001000010
1001010101
100010100
1111111011111010
10000001111
1001011101
1111001
1111110101100101
1100010100
101101101010
111110100110
11100111000
1111101110100110
1111101110001110
10010110
1111111111101010
1111111110011001
1111111100001100
100101110
100011011111
10101111110
100001100110
11101000110
100011110100
101010010100
1111011001011111
1111101110110010
100010100111
10001110110
1110011000
100011110110
100101010001
10100010110
10001001
1111100011
11000111110
100100111000
11001111000
1111000111
1110111001
1111111100111110
1111111111000100
11001
11001110
1101010
1011100
100101110
1111111010110110
1111101111000011
1111110001101001
1111100101111101
1111010011011110
1110111110110001
1111011100101011
1111101001011010
1111100000001111
1110101111101010
1110000001011010
1110100000011010
1110110110110101
1110111101111100
1111101010111101
1111110111011001
101010011
1111111101010011
1111101110010011
1111100101100111
110010
1111111111001011
11111000
101010000
