1111111101001000
1111111011001111
1111111100011110
1111111110010110
100010111
1111111111011111
100010011
1111111011001000
1111111010101101
1101011
100001110
1111111110111110
1111110011100001
1111101011010011
1111111111101000
101011
1111111110011001
1111111100111001
101101
1111111100000000
1111111100000111
1001111
10001000
1111111100110100
1111
1111111101111110
100110101
10100101
10010101
1111111100100000
11110101
1111111100111101
10110011
1111111101111010
1111011111000011
1111010101111000
1111010011111001
1110111001010110
1110111101111010
10101111010
1010100000
101101
1110111011111000
1111111100101100
1010110
1101101011
1111010001011111
1111101101110101
1111100001011000
1111011000101011
1111101111100010
1111110000101110
1111111101110010
10100100
1111111100011000
1111111100011000
100011100
1111111111010011
1111111101101100
10011101
10000001100
1111001110111001
1111001100000010
1111010111001000
1111001011100000
1111000011101110
1111001010101110
1111011100001101
1111011100111011
1110110110101100
1101111110101100
1101110101101111
1110011111001100
1110011010011100
1110101111010001
1110101110111101
1110110011000000
1110110100100001
1111000111110100
11000100
1100101010
11100100111
1101100
1111111111001111
110100
101010110
10110001
1111111010110110
1111111010000101
100000000001
101011111100
1000111101101
110100100010
1111111010110001
1111011101011010
1111101011101000
100110001
101111010
1111011010110111
1111010111100001
1111001100000110
1110010110100111
1101111010101000
1110000010011000
1110110110000000
1111001111101001
1110111011101000
1111100110110010
11110011000
10100110110
10111010011
1111111111110001
1111111110111101
11001
11011011001
101011111001
1111111011110111
11011001
1111111100101000
11011101101
100000001010
1111110100011101
101101000
1001101111
1111110111010000
1111111010100101
1111100110100010
1111101011010110
1111001011001110
1110111110010000
1110111011010000
1111001011100110
1111010000111110
100001
101001001101
1101110111
100000000111
1111100111001011
101001011101
11000001001
1111111100000110
1111111011001101
111
1111110111000110
111000001
101011100000
111001111111
100110000011
1101111100
10101100
1111110011101010
1111011111001101
1111100011110101
1111101101000110
1111101000011111
1111110010111101
1111101011101101
1111100111111111
1111111111001100
110000000
1111100100101101
1111000110111000
1111101011001111
1111111111010011
111010000
1111110000100011
101101110
1111110000000101
1111111111000101
1111111110111100
10100
100100010101
1111111000101110
101111001000
101110010101
101000101
100011010
10100011
1111111100100100
1111101110000000
1111101001100101
1111111011100000
1111111001111100
1111110110000010
1111101010011110
1111101011111110
1111110111011110
1000111
1111111111101000
1111111100111011
1111100111100110
1111110011011010
1111111000010101
100001101000
1111110001100001
1000110100
110010011
110001101000
1111111110000101
11101001111
11011110101
10111101001
11111010010
1100110001
1101000011
1000111001
1111111100011011
111100100
10110011110
111100
1111111010110011
1111101010011111
1111100101011111
1111101100000111
1111101011101011
1111110111111011
1111111100010000
1010100001
1111101111110110
100001110110
1111110111001101
10110010010
1111111010001001
100000011001
10010111011
101110010101
1111111001
111010010
11100111011
111001101
10110001110
1111111010011011
10100011111
10010011101
10101000100
10001101011
11001111111
10011000110
1010101110
1111111110111111
110001111
1111111000011011
1111111000011010
101111
1011110
1111110100001001
1111100111010101
10100111111
1111111010000100
1111000011010110
1111100011010011
1101000010
10010100010
110000110101
1111111101011100
1101110
110001011101
10000100110
11001110111
1111111110000100
111111010
1000100110
1010001000
1101011111
11001101000
100111010100
101001010000
1111100001
1111111110110010
1111111101101100
1111111000111010
1001001101
1111110111011001
1111101100111111
110010101
111101010
11011111100
1111101000101101
1111100001010101
10100000001
11010000011
11100000100
11100010001
110100101110
1111110110010100
1111110101110111
10011101111
1010001001
1111111101110000
110001111
1010000011
10101101110
10000011000
111100011000
100110011011
100111011
1111111101110111
1111110110100100
1111111111111010
1000001001
1001001110
101111100
1101111011
1110101110
1111101000010011
1111100100111100
1111111111110100
11010111111
111000110
1111110111011100
110010000
100111010001
11101000100
1111111001001110
1100100111
1111111011011101
1111110111100100
1010101001
10001111001
11000001001
11000011110
11111000110
1101010
1111110101111101
1111101101010001
1111111101110100
10011011010
1111111111100001
1111111111100001
1111101110110010
1111111000000100
1111101111100011
1111110000111110
1111101001110010
100001011011
1111110010001110
111001100
1101101000
1111110101010001
111100010
10001000
1100111
1101011100
1100000010
110101001
11011111110
10110111001
1100110001
1111111001110011
1111101110011000
1111101101011001
1111011101010100
1111110010001000
1000101011
1001111111
1101010
1111101011110011
1111110101110001
1111101011110110
1111111100111011
1111100101110011
1111101100
101001000111
1011010110
1111110100111011
10110101
1000010010
10101110
1111101001110110
1111110000101110
1110101
1111100000000111
1111101110110000
11000110
1111101
1111111110110010
1111110000110001
1111101111111000
1111111000100111
1111100100001100
1111111100011110
10000110
1111111010010011
1111101111000110
110100110
1010110100
1111111011000000
110101110
1011010000
11100010001
1111000100
1111110110011110
10001001
1111111010100101
100111101001
1111110101101100
1111100000101010
1111010111101110
1111011101111010
1111001011010001
1111101111000000
1111101010010101
1111110011100001
1111100101110111
1111011100001001
1111100011111011
1111101010101100
1111111110000110
1001010
100000
1111111101100010
111000100
10111000100
10100111001
10001111110
10011011110
11000100100
1111111101101101
10100101011
1111100111110101
1111111010000000
10100101000
1011101110
101010100
1111110001101110
1111111001100000
1111111001001011
1111111110000011
111111110
1111111011000010
100001011
1111101110111100
1111110111111101
1111110010100001
1111110011011100
110000101
1111111001011110
1111111111001000
100010
1010110011
110110110100
10011010111
1111000101
1101011011
11010110111
1111101010110111
1111111010000111
10010010111
1111110111
100001100101
110000101100
10001110111
1111101111001000
1111111010110100
1111111001110100
1100011100
1111111001101011
1100000100
1111111010001011
1111011111110110
1111101000100011
1111110001001001
1111111011001110
1111111001111101
1111110001110011
1111101001101011
1111111011100010
10110011011
100100110101
100011111111
10110011010
100101110100
1101000101
1111011100110001
1111101111100010
101100001010
101011011
10111011011
1111111111011110
1111111101111001
1011110010
1111111001010001
10111110001
111101111
1111110011111010
1111110011101110
1111100010101010
1111010111100101
1111110010101011
1111100011110111
1111101101111001
1111111001100111
1111101111100100
1111111100100101
10010101
11010111001
11001001011
11000100100
11001101010
100000000010
10010110011
1110100001
100001101011
11111000010
110001001
1001100100
10110101100
1111101111110001
1111111011110011
111011100
1110111100
10101110
1111110011001101
1111101100001010
1111100101001110
1111100101001011
1111101101110000
1111101000101011
1111101111000000
1111110110000001
10100101
1110110100
1010101000
10001011101
11101010010
11111101011
10000000010
1110010000
10011011
11101111
11111100000
1111100010001111
11000110
100101101111
10010110011
1111100011110110
1111011111011001
1111110010101111
1111110110001001
1111111111001101
1111101111001100
1111110110111101
1111011110101110
1111000110110010
1111010111011100
1111010001000111
1111101101001000
1111110110100100
100001100
10010010111
100010010
111101000
1111110110110100
10100000100
1111111000000010
1111110001101000
1111110010011000
1111111100111110
1111101011100100
11011010
10110010
100110111
1100011011
1111100101111111
1111100101110101
1111101010100010
1111111100101011
1111111100101000
1111101000100011
1111111100001011
1111100001111110
1111000001001100
1111000101100000
1111010101000111
1111110101010110
1111110010010011
1111111111011011
110100101
10000001010
1111111000010110
1111110011001110
1111110110110000
1111111010110110
100010010
1111110010100111
1111010011000110
1111111011001010
1111110011110001
1111111010010001
1111101110010000
111101000001
1111111001111000
1111111000001100
1111101010111001
1100011
1111111110100011
1111100101110000
1111110101001011
1111001111011001
1111010101110100
1111100010110111
1111101101100010
11011
1010110111
1111111100000110
1111110111111101
1111111110010001
1111100011111110
1111010111110101
1111000111000001
1111011101100011
1111101001010110
1111100110010000
1111011100011011
10010100011
11110110110
1000101
1111111110001111
101011000110
1111100011011001
1111101100100011
10001000
1010101110
1111110100100111
1111111010111010
1111111100001110
1111100010110000
1111100010100111
1111101100111000
1111111000000100
1001001101
1001010011
1111111111001110
1111111101111010
1111110010110000
1111101110101011
1111100011101111
1111100000111110
1111010010011001
1111011010011101
1111101010101000
10000111011
1111100111110110
100000110001
100100100
10010
1111111100000000
11100010010
11110101001
100111001111
11001100010
1011100011
1111101011100001
1111111111000011
1110011101
1110001010
1111111101010101
1100101
1111110101
1001110011
1111111000110000
1111111110100101
1011001011
1111101100010011
1111010101011010
1111010100011110
1110101001110001
1111000111010110
1100100100
10011111010
1111111100101000
10010001
101000010
1111111101000001
1111100101000000
1010001110110
111011011101
11010001100
101011010011
1011111101
1111100111011010
1111111001011010
1011010010
10010010100
10101110001
11010111110
101010100100
1111111011
11100010
1100010110
1111011011
1111111110000011
1111100100010111
1111100110101001
1111010100110001
1111011101111001
11110101010
1111010000000100
100101000
1111111111111100
1111010
1111111100101111
1111100110010000
100110000011
100110110111
11100010011
10101000010
100101101000
1111111101
11100001011
1111000001
111011000011
100011000010
1110010011
1000101100
1111011011
1011101000
1111110000001000
1111111100101101
1111110110110100
1111111011111000
1111100100111100
1111101110000011
1000100011
110100010001
1111111001110001
1000001000
1111111010110111
1111111100001111
10010010
11001000
1111101010101011
1111100011011010
100011
1111110110001110
11011100011
1010000011
1111111100110000
10001000100
10000011111
1111110000101100
1111100011010111
1111100101011100
1111111111001000
1111111010100111
1111001110101111
1111100110010001
110111
1111110100110111
1111000101110110
1111111010010110
1100101100
1111101010001110
10000111111
1111111101110111
1111111110000100
101001100
1111111111100000
10110101
1011111
11100100110
101110001010
1111101001100010
1111111100101101
1101001010
10000001010
11001101000
1111111011101010
1111100111000011
11100001001
1111111100011011
1111011000010000
1111100111111010
1111111101100001
1001010100
1111101110111100
1111100011010101
1111100110010100
1101101100
11100010011
1111111100101101
10000101
10011000
1000110
