1110
1111111110111100
1111111101010101
1111111110010111
1111111100010101
1000
1111111011101101
1111111111101000
1111111011110001
1111111110000101
1111111011110111
1111111111010111
1111101110111101
1111100111001000
1111110111100001
1111111110000111
100011000
11100111
10001000
101001011
10011100
1111111101011111
10001
10100010
1111111100000111
1111111110011101
1111111101010010
1111111101000011
100111111
1111111011110001
1111111111011001
10110100
1111101110101000
1111101000100011
1111001000001110
1110111011101001
1111000010110100
1110101011000110
1110001011011100
1110111100010010
1111101001101010
1111010010111110
1110111100000000
1110110110010111
1111000111110010
1111100001010101
1111111011101101
1011000001
1111111001101010
1011110011
1111110001010001
1111101010101100
1111111100110010
1111111101100110
100001001
10100101
10001101
10010000
1001110011
1111111101011110
101000101
1111110110111110
1111001000000001
1110111010011011
1110001011101110
1111101111000000
1111110011010101
1111101100011110
1111100101111010
1111110111110010
1111111110111110
1000011101
10001101101
1001010000
1111111100110101
10011101100
1100111100
1000011111010
11010101111
1111111011
1000000011000
1101010010
100011110
100011
1111111110111110
1111111100101111
111101101
101100010
1111110100111100
101000110000
100000110
1111101000110110
1111011110010000
1111110110010011
1111101010011010
1111010100110100
1110110111100110
1111001111000011
1111111111100001
1111101110100010
1010100001
10111010010
100111010
10100110111
100101101010
101101001000
11110010110
1111111010011111
100
100111111011
10101001000
11001001
1111111111011000
1000001
1011000110
0
1111111010101001
10101110110
1111110000000101
1111101101111000
1111100000000011
1010001000
1111010001110000
1111011010000110
1111101100101110
1111110101011101
1111100000010100
1111100101010110
1111010
1100100101
1111111011110000
1111100101010110
110000001
1111110001011001
111110
1111011001110011
1111011011101010
1010010
1111111101001111
1111100111100001
1111111100001011
10100110
11010011001
1111100000100001
1111110011110000
10101000011
1111011000110110
111011010
11011000000
1111101101110111
1111110010110111
1111100000100001
1111100011111100
1111101000000001
1111011100111010
1111111101011101
1111111011010110
1111111110111001
1111100010001111
1111100000010101
1111011101010011
1111010111001001
1111111001011100
1111110010110110
1111110101011101
1111111110110010
1111100011111001
1111110010111111
1111001
1111110000000100
1111111010100000
10010011001
1111111111101000
1000100011
1111110111101111
100100
1111110010101110
1111110001100010
1111110010011110
1111100011010000
1111100111010111
10100011
10111100010
1110001100
111101000
1111111100011011
1111011101101011
1111100010110111
1111100111100110
100111111
101001010
1111100001100110
1111101000110011
1111011001010100
10001100000
1111110110000000
100001111
1001111001
11001101111
1100011000
11100101
1001001011
10000111
1111111101100000
1111101000100000
1111110010110011
1111110111010100
1111110010001010
1111110111001110
1001001010
1011100010
111100100
1000011010
1110111110
1111101001110011
1111110001000100
10100001101
1111110110100001
1111101100100001
1111111100101011
1111111010111010
1111110001111101
11001011111
1111101100011110
1011110000
11111011001
100010000000
1111110011111011
1111111010110000
1010001000
1111111111111011
1111111011110110
1111111101111010
1111111100001001
1001011
1111111101111111
1110111101
11100100011
10010010011
11110011
1111110101110010
1111111101000011
1111101110101111
1111101101010111
10000111
1111110111110001
1111101101011000
1111111111001000
1111110001001011
11000111101
1011010
1111001110001011
1011100101
10110011110
1111110101000110
1111111110100001
10010110
1111110010100011
1111101111101001
1111111101111001
1111101101101101
1111101100000001
1111110011110011
11101101101
101011000010
100010101001
10111010000
1011011111
1111110101010111
1111111010110010
1111110011100100
1111110000010000
1111001
1111110110110011
101011111
1111111101110010
10110000101
1111110110100011
1111110011110111
100001000101
1010001001
1011000011
1111111100001100
10011011000
1101
10100000110
1111111011110100
1111111010000000
1111100110011011
1111101111101000
1111111000101101
11010101111
11010010101
11101011001
111011101
1011010001
1111111110011110
1111110101001011
1111100101100100
1111110000001010
1111011011010110
1111110100000110
1111111101000111
11000000
1111011011000001
1101000110
1111110010011010
1001111001
11011111001
1111111111101010
1001110010
100010001011
11001
1111110100011110
1111101101101011
10100110001
1111101111011001
10000
100001101001
110110101111
101000011111
11011101001
100111010001
11110100011
10111100001
10000110101
100111010
101000000
1111110101111001
1111111101101100
1111111011111101
1111111011011101
1111100000010011
1111100011110101
1111010110100100
10011100
11010101000
101001010
101001010110
1111111001111101
1111110000110101
1111011011110011
1111101111000101
1001011001
1111110101001011
1111111110011010
10101100000
101000110110
11101010101
100000010000
10101110000
11101011100
11101011111
10011111111
11111000111
111000011
1111110111110101
1111110111010111
1000100101
1111100100011011
1111110010111100
1111100101110101
1111110101101000
11101010101
1111100011001101
1111100110011101
101110111111
1111111010010111
1100010
1111111100011000
1110110
10110000100
1111101000001010
1111100110010111
10000010001
10010010011
111011111
101110110
10011011001
11001001110
100111000010
11110100010
10011101000
1111111101010111
1111111001111101
10100100011
1111101000100010
1111101000001010
1111100100101010
1111101110111010
1111110111001011
1111010010100101
1111110100010010
11111001
11000111111
101010110
1111111000001101
10110101010
1111110101100110
101101110
1111101000110011
101101001
11001010111
10101
1011011
100
1010111101
11011110111
101111010110
10100101110
10111001101
10000111
111000110
1111110010010011
1010100001
1001111000
1111110011100110
1000100
1111110001100101
1111111000111111
1000011111
1111110000011010
1111111101011110
1111111011110001
1111110111001111
1111111011011100
10010000010
1111101111001100
1111010010001010
1111111000100100
10001011010
11011
1111111100101010
1111101110111010
1111110011010111
11001110010
100101001101
11110101001
11010000001
1111111110100011
10101100010
1111100101010101
10000001111
1100101110
1111101001111110
110001111
1111011111010001
1111110101000010
11010000011
1111101100001000
1111110100010100
1111101010100101
1111111010001011
1111110011000010
1011001010
110110000
1111101111111010
1111101011100111
1100001000
1111110110
1111110000000010
1111100001111110
1101110111
100100010111
110001101001
11000010000
10000010111
1111111111101101
11010001011
1010011001
1101000011
11010001001
10010011011
1111011110110100
1111000100011000
1111111101101011
110000
1001110
101010010010
1111111001000010
1111111000110011
1111110110111101
110010010
1111100000100001
11001101
1111110111011100
11010100100
10100101001
1111101000010011
1111101010111110
11011101010
101011101011
11111111010
10000000101
10010101011
111000011
11110010001
11101000100
10111011101
11101101110
100100011101
11101011011
1000011111
1111111011010001
1111100001010000
1111111010110011
101001011100
10110100
101000
1001011010
1111001100001101
1111001110011010
1111011101010010
1111010001110011
1111011111000000
1111101101000100
1111011100100100
1111110000100000
11110101100
10110010111
100001000000
1110011010
11111111
1011011011
1111110000101110
1111111111110001
1111111000011000
1111111001101011
10011101010
1111001100011110
11010111100
11100100
1111101110010001
1010
10000000111
10110000011
1111111110
1111111100110011
1111111010011010
1111011110011111
1110111000010111
1111001100100110
1111000110010000
1111101000000000
1111010100111000
1111110111111000
11110111010
1101001001
1111111011011010
1111011110110100
1111010010010000
1111010011010111
1111011111001010
1111110100010000
1111011101100111
1111100010101110
10110101010
1111100011001110
1111100100100101
10111110
11110010
1111110011010111
100001011100
1111110011000110
1111111101111011
1111011110100011
1111101001100101
1110100100110000
1110101001100110
1111011000000011
1111001111101001
1111101100010100
101010000
1000100100
1001110110
1111101000111000
1111100011111101
1111001001010110
1111000001101001
1110111110111100
1111001110110100
1111011011110001
1111001000011010
1111000110110101
1111100010100110
1111010010100001
1111110110001110
1111100110111000
1111111010111011
1111101000011110
110011011
1111100000111110
110010110
1111011101010010
1111001010010100
1110110101001111
1111011010101011
1111101111011001
1111011011100000
1111101111110110
1111111101001100
10111110
1111110011101010
1111100100000010
1111101000010001
1111001001010110
1111010001010100
1111011011011000
1111001100011001
1111010011111110
1111000000110111
1111000111100101
1111111000110001
1111011110111100
1010011101
1111111111001101
100101
10000
1111001100101101
1111101111101101
1111011001011110
1110110101001011
1111100010101011
110001100
1111111010111110
1111101110110110
1111110101010011
1111101101011001
1111101101110010
1111100011010101
100100001
1111111101001100
11111
1111101111101000
1111111010100101
101001110
10111100
1111100100000101
1111101001101111
1111011000000000
1111100011101111
1111010010100101
101111000
1011001
1111111111110010
1111111101100110
1111010110001111
1111011111001010
1110101011101000
1111010001110111
100100101
1001011111
1111111010010001
1111111111100110
1111110011110110
1111100101000100
1111101001100100
1111101001011000
1111111101001011
1111101100000010
1111101100001011
1111110001110101
1111110000100101
1111111001000100
1111101000101001
1111100111100001
1111110000001101
1111010011111010
1111010110001011
1111000010111011
1111111010010010
11011100
1100111
1111111100100100
1111111010011110
1111101110000011
1111001111100111
1111100110010111
1111101001101010
1111111011110001
1111110111010000
1111101011011000
1111111000001110
1111101110000100
1111110100111101
1011000000
11100100
1111011110100100
1111011110111110
1111110011111011
1111101111100110
1111101010111101
1111100100110010
1000001001
1111101100011101
1111011000001000
1111110001101011
101101111101
100011001100
11001111
1111111011110111
1111111101110001
1111100110000010
1101001100
1111001101111100
1111011000011010
1111110111
1111110110110101
1111011111110001
1111101001100001
1111110010001111
1100000011
100001000
1111111011001110
1110010100
100001001
101010
1111110010110000
1111101011000001
1111011110001010
110100000
1111110000011011
1111100010000100
1111110010011110
1111101100010100
10011111000
1111111111101110
1000100
1111111110101100
111101
100000111
1011010111
1111010100100111
1111101111011111
11110011110
10101100010
100100100100
100111101000
11110101101
1100000011
1111011011011111
1111110010101001
100010011101
10110001110
1111111100011011
1111101101000101
1111100100011110
1111110011001011
1111100010000110
1111011111011011
1111110111100011
1111111110000110
1101111111
1101011000
11011110
11101000
1111111111110000
1111111011001101
101000000
1111111110111000
11110000001
100001101000
1111101010111000
1111111000011111
1101110000
11001110011
11111101010
1111110110000111
1111110110001110
1000100010011
111110001010
100100010100
1111010000101
1011001001000
10101111101
1111100110101101
1111111000011110
1000110011
10110000111
101001101101
1111111100100100
100110100
0
1111111011111000
