1111111101101011
100011110
1111111100100110
1111111110010101
1111111111110111
10100001
1111111111000011
1111111111001000
11011101
1100001
101010100
1111111100000010
100011
0
1100010
1111111110011000
1111111011111001
1111111101010011
101011101
1111010
110111
1111111101100011
1010010
1111111100010111
1111111111011110
1111111110100111
11110001
1000
1110110
1111111110100011
11001010
1111111110111110
1111111010101010
1111110110000101
1111111010011101
1111111011000111
1111110101111110
1111111001010100
100100011
1010000110
1100110111
101100111
100100101010
11111100011
1111111101001110
1111011001101111
10110011011
100011001010
100010000101
1111011011
1111110101010100
1111110001010101
1111111011111111
1100010
1111111011101111
11100
101001101
1111111111011111
1111110110010101
1111101001001111
1111110000101000
10110000011
1111110100001100
1111100100110111
1111001101001000
1110110011001110
1111100001110100
1111110111001001
1111000101001000
1111010110001111
1111100111011001
11011011111
111101001011
1010100000
11001101100
1111111001011001
10000010111
1111111010110000
10101110010
1011000111
1111011001010010
1111011000011110
1111111101111111
1111111100010101
1111111111011111
100101010
1100001011
100001001
1111000111
11000010000
11111001000
11001011001
1111111001111100
1111000111110101
1111000111000111
1110110101001001
1111100100000010
1111100100001111
1111101111010111
1111110100111111
1111101011010101
1111110001101001
1111110010100010
1111101001000110
1111110000010000
1111110010001010
1111100000001001
1111101100010100
1111111011101001
1111101011011110
1111101001101111
100011101
1111111100011110
110111100
11111000
1010100001
1101101111
1000100001
110110001
1111101100000011
110111101
1111011110001101
1111100001000010
1111101101111000
1111111111000010
1111110001000010
110111
1111111100001100
1111110001000001
1111101010001110
1111111111011100
1111111011000011
1111110111110110
1111111000001000
1111101000100000
1111101101111010
1111100111100111
11001110010
1111100111011101
1111100111010101
10010111
100110
10101101010
1111110100110100
1111111111101001
1100101001
10101011010
1111111001111100
1111111000111101
1111101111100011
1111100010001001
1000100001
110101001
1111111110001000
1111111101100011
1011010
10000101000
1111111001001010
1111100111111000
1111110001101110
1100111
1111110000111010
1111111110010110
1111111100101001
1111101001101101
100011001010
1111110111100110
1111100110100001
1111111011111101
1000010000
1111111101110110
1111100111100001
100110101110
10011110110
1111101111100010
1111111111010000
1001001100
1111101110111001
1111110001100101
10111110101
110110101
1011100000
1010010
1000011011
1000001111
1111111100000110
1111100110001010
1111110011110100
1111111
1111110001110101
1111101101111011
1111110110011111
1010000010
1111100111
1000001010
1111111011101010
101101001
1111110000110001
1111111100011010
1111111010010001
1111111101100101
1111111100000010
1111110100110000
10110001000
1111111110100100
1111111010100111
1111111011111110
1111110100000010
101100011
1111110111100011
1110001
100101010
1100101
1111110011111101
1111110010111100
1111110110100010
1111111001011110
1111101001010010
1111111111000110
1111100011000010
1111101110110011
11001101101
1000001011
1111110001100110
1111100110000001
1111011001111110
101010110
1011111010
1100101001
1011010000
10110000100
1111110000010011
1111111010110110
1111111111000110
1111110111001010
1111111110010001
1101011011
1110001111
1010101010
110110001
1111110001010010
1111100110101110
1111110011110110
1111110111100110
1111100100010011
1111101111000111
1111111100100101
1111110001110111
1111110101000111
11001110110
1010101
100101110
1111110001011100
1101000111
10100101101
100010011011
1111111000101100
1001000111
11010000100
101110011
1100011100
1111111101010100
1111111101111111
1111110110011100
1111110101111111
1010010011
1000011010
1111111011010110
1111101011001110
1111100001000001
1111001101010110
1111011101100001
1111110001100101
101000010
1111110000011110
1111111101010111
100110100
111011010011
100111001000
1111011101101001
1111110000001101
10101001100
1111111110100100
1111110010011011
11001101110
1111111010101001
1111111111110100
101011010
1100011011
1111111101100100
1111110110001000
1111011111000010
110010
101010000
11100010101
1101010110
1111100101001100
1111011111011000
1111100010101000
1111101101101010
1111010000
1111110110
1101010
100111010100
100110111011
111001101
11111000110
1111101101001010
11000000010
10001001010
10010101110
1000010011
100010101001
1111111010100100
1000011010
1111111111010000
1111010010
1111111011000110
1111111011000111
1100010
1111110100
100101010000
110111000100
100000001000
1111111011000011
1111110011101000
1001011001
10100101
10010000001
10001011111
101111110
10100011101
101001001011
10110001010
1011110011010
1111110111010001
1111111101011000
1001001010
1111111000101010
11001110111
110100100
10100000
1011010010
1110110111
10010111000
1100100011
10010100001
11100101110
11001110111
110010010010
111001111010
101001101101
1111010
100111001
1111111101010111
101110101
10011011011
10011110110
11001011
1100001000
1111111001011010
1111111111100011
100110111110
10010011111
10000011
1111111111110100
1110111110100000
11001111010
1111111001101010
10111101001
10010111001
100000011
1011001011
10010011101
11000011001
100011011111
100011011000
101101111111
100100110100
100101011101
10100101000
110
1111110011010110
11001000
1000011000
10111000000
1011101100
1111111011010010
1111010111110010
11101000
1111100111101100
11111001
11010101110
10011010001
1111111101110011
1111110110001111
1111111110000010
1111110011011100
1010000100
1111110110011100
1011011000
10110111
110000011
10001000010
101000111011
110110100010
101011100001
110000011011
101100111001
1111111111100110
1111111010100101
1111111111000100
1111110001001110
10000110110
11011110100
1111111010000000
1111101010000111
1011100111
1111110111011101
1111010100100101
1110011000
1101100010
11010001010
1111000001000010
1111001100100011
1110110011101001
1111001100111010
1111000001100101
1111101110001011
1111110000110001
1111110101001011
11111000101
111001010000
1000000011001
110101101100
11101100001
100011010010
1111111100110111
1001
1111110010001110
1111101100010111
101010000
1111111111101010
1111110100100011
1111111011100111
110100011
1111100111100011
1111110001101101
1111100101101111
1111111010110111
110010000
1111000010010111
1111010011011001
1111000110100101
1111001011010110
1110101010011101
1111000110010011
1110111011000001
1111000111000101
1111110000111010
1110001000
100000110110
110010100000
100010111001
1010110011
1111110101100010
1111101101001000
1111100000110000
1111011100000110
1111111110110010
1111110110110000
1011111011
1000100011
1111110111110010
1111000101001111
1111101000101000
11010101
11001001101
1111011011110100
1111011101110001
1111010001101101
1111011000110001
1111100000010000
1111001101001011
1110110010001110
1110100110010111
1110010101101110
1110100101100000
1111011101010110
1111101110001101
11001011
1111111001011000
1111110110011010
1111101000101010
1111100010111101
1111110010000000
1111011100001100
1110010010
1001011
110011001
11010111010
1111100100100000
1111101101101010
1111100000100110
10111111100
11111000000
1111101010110101
101100
1111110101111100
1111110101101111
111001101
1111101100000000
1111011110101010
1111001100011111
1111000001010011
1111000000001100
1110110011110011
1111000010010010
1111011010111001
1111011000110000
1111100010000100
1111110001010011
1111110100101111
100110010
1111111011010110
110111010
1111110010011000
1111101110000000
110010
10101
1111100001000010
1110101100
11101110010
1111100000100000
1111111110001001
10111010101
10110111
11000000110
11000000100
11100101
111110010
1111111011101010
1111111010010010
1111011110011110
1111010100110110
1111000101001101
1111100010110011
1111100110011011
1111110100100011
1111110101111111
100010010
110100010
101011010
1111111110100011
10001110
10111000111
111010100
10110110110
1111100011111011
101010101
1001100
1010001110
1111110100110011
111111101
10000010001
1111111110001101
1000010001
1111111111001100
1100001010
1011010111
10110000100
111010001
1111111010101010
1110101
101100000
1111111100011010
1111101111110011
1111110011101111
1111110101110111
1111111100101000
1111110001001010
1111110000101000
1111001101
1000100101
1111110010111000
1111111111111111
1111111000101011
11110011101
1011110010
1011111101
11111110
1000110010
10010111001
1111111110110101
1111100010
10111011101
10011010101
1100111100
1110000100
10010101110
10110011111
1111001010
10101101
110011000
1111111001111001
1111101011001100
1111110001101001
1111101001010000
1111111101101111
1001110101
11110110
1111101101100110
1111110011111110
1111111011010111
1111100101100110
1111111001011010
1111011100
10000001111
1111101001011010
1100100001
100011010000
11011011100
1001111010
1000010100
111111100
1111111101010111
1111111010000100
11111011
1111111001101100
1111111110001101
1111111011000110
100001100
1111110111000100
1111110100110101
1111110011111100
10001000101
10101011101
101010110
1111101111111100
1111110111000000
1111011000000000
1111111010000101
1111101111100100
1111111010011100
1111111011100101
1111111101110100
100101000111
110000101100
110011100100
1101110100
101000
101101001
101100000
1111110101001111
1010101000
1111110100001010
1111111100011101
1001101
1010101001
1101100100
1101101010
1111111001010000
1111101111010001
1111111000101000
1111110100001011
1111110100000010
1111011100000101
1111101111001111
1111010001010001
1111111010111001
111100010
1111001
1111111011000001
1111111110101010
111101110
100000110110
1111110011000011
1111110110110110
1111110110011101
10111011010
111100111
1111111110110010
10110000001
10110000
10111
11111101
1111110010001111
1111110011011001
11110111
1111101110111010
1111011000111110
1111011010101111
1111100011111100
1111110111100101
1111101011101001
1111111101101011
1111110100100000
1111000000001101
1111111101110010
1111111111110000
1011010
100000101
11101111001
1111111011101001
1111101110010110
10111000110
1111111110001001
1101100
11110010
1111100110111001
10010100
1111111010001000
111111000
110001111
1111110111111111
1111101001100100
1111011001111001
1111000111011001
1111001010010010
1111100110101001
1111101100001100
1100100100
10011100001
11010000100
1111110101101000
1111100101110100
1111111011010011
1111111010110001
10000
100111100
1111111100111100
1111111101001101
110110110011
10001001000
111010010
1111110001001011
1111111110001001
1111110111110011
1001000111
1111111110000001
1111100111010110
1111011101101001
1111111001001110
1111101000011010
1111010001011000
1111100011110101
1111100110100000
1111101100010111
1111101001110100
10001110110
1111101101010111
1111111001011001
1001100101
1101000011
1111111101000000
1100111
1000000
10100
1111111111110011
11110101
1111100011001101
1111010011111110
1011010100
1000010101
1111111001101100
1111100000110010
1111011001101111
1111110100110001
1111011011110101
1110110011100111
1111001011000111
1111110001110111
1111011101101001
1111101100100000
1101101000
1110100001
1111011110001110
1111011010100000
1111011001011110
1111111111001111
101000111
100011100
1111111101001001
10100011
