1111111011000010
1111111011010100
11110101
1111111110100111
1010100
11011
100000011
1111111111101111
1111111010111111
10000010
110000
1111111111111110
10110001
1111111111100000
1001101
1111111111001100
11001110
1111111011001010
1111111101010100
1111111100101110
101001011
1111111111100011
10001111
10011000
11010001
1111111100101001
1111111111111001
1111111010110101
1111111110110000
10010
1111111100100010
1111111100000100
1111111011101011
1111110101000100
1111110110110011
1111110100100110
1111110011101001
1111110001100000
1111100100010111
1111100011000011
1111001111000101
1110101101110011
1111001011111011
1110011101101111
1110100101000011
1110100010100101
1110110100111111
1111100000111111
1111110110011101
1111111111011101
1111111100110100
1111110011100011
1111111111111101
1000100
1111111011010111
1111111101111000
100001100
1111111011101001
1111111001101101
10111100101
1111111101011110
1111101110001111
1111111110010110
1111100110010110
11111000100
100110110110
11001111110
1111111011100100
1111111110011011
110011101
11110
1111111000000111
1111110011011010
1111110011100100
1111110011111110
1111011010011000
1111011110100001
1111111000010101
1111100111100100
1111110000011111
1101111101
10111100101
100000
11001010
1111111111110110
101001
1111111001111011
10011010100
110
1011100010
101110010100
101111110010
11001001
1111110101001101
1111101010010110
11111000
111111110
1111111111001111
1111101011111111
1111101001110111
1111011011101101
1111110101110100
1111110010010010
1111001110111111
1111001010010001
1111100000000101
1001000
1111110000100000
1111000001110001
1111100110100000
1111100111010001
100011111
1111111010101101
1011010010
100110011
1111100101001001
110111001
1111111101101111
1000001100
1111110101100110
1110010011
1111111101011010
1111101000000001
1111111100011010
10001010
1110101010
1011000
1111100010010111
1111100000101010
1111011111101110
1111010100010000
1111100100010010
1111011000000011
1111010011001000
1111000011010110
1111100101000011
1111101110101011
10010001111
1111011101100010
10110010
100100000
1101001
10000010110
10100000111
100101011101
10000101011
10010000001
1110101100
1111110110000111
1111111001011011
1111101100111111
1111110000100101
1111111111110001
1111111101001010
1111
1111111010101101
1111111110011110
1111110111110011
1111101111000101
1111111101110101
1111111010111101
1111101010100011
1111100000000100
1111010100111011
1111101101000000
11111011010
1111111011100000
11000011100
100000101
1100000010
1111011111001010
10101111011
1111111000000101
10011100111
11110001
1111110111000111
1110000
1111111011100010
1111111011110001
1111110100001011
1111111001101111
1111111110001011
1111110101110101
111111110
101110111
1111111110001000
1111110011001101
1111010110000011
1101110111
1111110101101111
1111111011100101
110011000
1111101010000001
1111101110101100
111010001
1001000110111
1111111111100100
11100000010
1111100111011000
110110001
110011110101
111100111
1100010101
1111110111100101
1111111010011010
1111110010000001
1111101101111011
1111010110110000
1111101100010000
1111111101000001
1111110100110001
111010101
1111111010001100
1111101101101111
1111101000111010
1111011100110101
1111110110111111
1111101101101101
1111110100111011
10010110011
10001
1111011101101010
1111101110011010
101100100011
1111110001001101
1111110010011010
1111010001010010
1111111111110011
100111100011
1111110100111101
1111111011000010
1111110111011110
1111111101001001
1111101011101110
1111100111011010
1111001010010110
1111110010011100
1000010111
10100110
10111000011
10001000011
111011111
101010110
110001110
1111110010110101
1111101101100101
10101110100
101011001
1111110111000111
1111110100111011
1111011110001001
1111111011111100
1111111101101110
1111101001011111
1111111001110100
101001011
10110110101
1111111010010101
11010101
1111111110000010
1101001
1111100111110011
1111010011101010
1111000000010110
1111101001001100
11000011101
1001001001001
1011000000000
1100000111111
1001101000001
1000110100001
1001100110010
111111100000
101100100001
101001110100
100011010111
1111000000001101
1111111100010101
1111001110100110
1111011111010101
1000011000
1111111011011110
1010110
100100111
10011111
1111101100000101
10000111110
1111111101110100
1111101100011001
1111010111000111
1111101100101101
1111101011010010
1001010010
110100010000
1001100111001
1000010100010
111111100001
1001001010100
1000101100011
1011111011011
1010000001011
110001111100
1000111001111
1001010001001
1111101010001011
10000110110
1111001010011100
1111100111101001
10011000100
110011011111
1111101011000110
101110011110
1111001
1010001
1011101010
10101
1111111110100110
1111101111110001
1111100111001001
11011111
11010101010
11011100100
101000011010
10111001101
10010010000
10101100
1111111101000011
11010101101
100010011010
100011010101
100100100111
100011011100
1111100100101000
110010110001
1111111100101001
1111100111111101
11011110011
1110000100
11001001111
1110101111
1111110110000100
1111110101011011
100010
1111111101011110
1111111010100000
111100
1111110110010101
1001001110
100101011001
100010101100
111001100100
101110011100
110000001100
11101011001
1111111110000110
1111111000101010
1111111101111010
1110010100
10110011111
1111101100010101
1110111110110011
100011010001
1111110111101100
1111101000011010
1111111111111110
1111010101
100101000100
10010101001
10100010
1111110000110000
111011000
1100010
10000110111
1111101111011110
1111111101000000
10001110011
10001001011
100100010101
1000001001001
111100000011
110100011100
100000111101
10101100100
111000011
1111111100011101
10100000000
100010011010
110011001
1111011
1011010100
10010011011
1111100101101010
1111100111101011
1011101010
1111011001110010
110101011111
1111110101111110
1111111011001111
100010001
1111101110
1111101101111101
1111100101101111
1111100000100010
111010101
10110001110
101101011110
101001110010
101111111011
101010011000
100010010000
1011001011
10001111111
1111110011110100
1111111110110001
100000
1111011010101100
1111110101101100
1111111001101101
101100010010
1111100111111000
1111110101010010
1111110001000000
100101011
111001100100
100010011101
1100110100
1111111111011100
1111101010
1111110001111101
1111110011101000
1111110101111110
110110010
1111111011101111
11000100100
1000000110111
1001011100000
100011010101
1100001100
1111110010000000
1111111110100111
1011000100
1111110011101010
1010110000
1111100110001001
1111110010010001
1111110110000000
10011000101
100100010110
1111000100
1111110111001010
11001111000
10100100111
10111111110
10001111010
10100101011
1111110111100011
1111111100100111
1010010000
1111001011
11010100101
1111111101011110
1000000000
1000001101111
1000100011000
100100111011
110010010
1111110110011000
1111101100010101
1111000101
1111110011011110
111101100
1111101010011001
1011001000
1111110000101110
100100011110
100000000011
1101110
1100010000
1000101111010
1111111011001000
11100000000
11111000110
1111111000100011
1000110
1100011100
1110100011
10000010101
1101111101
1111111111000011
10110111011
1000110011100
1000001000101
100101100111
1111111010110100
1111101110001100
1111110011010010
1111101000101000
1111111000011101
1111111111000100
1111110010010010
1111110000101000
1111111010001101
101000101000
11001001011
111
100101101110
100011001000
1111100110110101
1111111011101111
1100100111
110000101
1111110011000010
1000001000
1100011100
100011110011
11001111000
111101010010
1100101100101
1100000110011
110011110100
11110011
1111110000010010
10100100
1111110000100111
1111100000001110
1111101101100000
1111110001100001
1111110111010010
1010010111
101110
1001111111
1111110110100110
1111111111101100
11110010010
1111110011011011
1111010100100001
1111111011100001
10110000100
1111111100111011
1111111100100100
1111111101100001
1111111100100100
10001100100
110111111
1000011001
111100101111
1000010010111
11101101111
1111111010111100
1111111001010101
1111110111111011
1111111110110110
1111110100000001
1111111001100101
100011100
1111100011011110
1111111111110100
1111111101010001
1101101101
1111111010000111
100001000
100000010000
1111111111010000
1111110010000011
1111101000000011
1111111011010000
10001011001
11001000110
1111110011001111
1111101111110110
1111111011010000
1111101110010001
1111101111101100
1000011110
10110100000
1111111010010001
1111110011001110
1111111001011101
1111111010111010
1111101100000100
1000000110
111011011
1111101011110100
1111111010000000
11101111101
11000010011
10010110111
1111111110100011
1111111100010011
110001001001
1001100101110
1111111101010001
1111100111100010
1111110011011001
1111111010010101
1111101011011110
1111101000100111
1111111001001100
1111100110110001
1111100101111001
1111110100101100
1111110101111100
1111110011011011
1111101100010000
1111101111011111
1111110100001000
1111111011100101
11011101
1111101110101011
1111110010101111
101001100
1111110011101100
1111111010111010
1001010100
1110000000
1111101001111000
10001000
1011001110
1010000101001
111100
1111111000000010
11010010
10001000010
100100011
110010000
1111110111001101
1010110
101111111
1000100101
1111111001011111
1111101010000000
1111101110111011
1111100000101110
1111100111001000
1111101001110010
1111110000000101
1111111111001000
1111010110
1111111011101111
1111100010100110
11111111001
101110011001
1111110100110001
1111100111011110
1111111110111001
100101000
1111101000111110
1111100100101000
1111100110010011
1111111101100010
1111111000111001
101100001
101111
1110010000
11001101
10111011001
1101111
1111110110010001
1111011110001101
1111110010111000
1111101010100110
1111100001101000
1111101101010000
1111101000011001
1111111001110011
1111110001011011
1111111011010111
1111011101
101100101100
100111001100
1111110111010011
1100011
1111111100010001
1111111111011100
101000011001
110000101
1111100000100111
1111010101000101
10
1111111011101000
10101100101
1111000
1110100000
101111101
1111111101011101
1111110011001101
1111111100000000
1111110000010001
1111110101100110
1111100010101101
1111011001000101
1111101001100110
1111011100101000
1111001111111000
1111100000011111
1111111101011100
100011111100
101000100000
10011011011
1111111011001011
11101111
100110000
1111111110010110
1111101000111011
1100110111
1111111001101010
1111110110000011
1111111100001011
1111010001001011
110111001
10000000001
1111101110010011
1111011110111000
1111010010001001
1111110100010011
1111110110001001
1111110010000111
1111000111000110
1111001000011100
1111010111001110
1111110100110011
1111110100010010
1111010011110011
1110111110101010
1111000111000001
1111110100111011
1111111111010011
1111111111101100
110001
1111111101101011
1111111011000011
1111111010111000
1111111001000101
1101100100
10001001110
10011010
1111111011111001
1000101001
1101011101
1111101011110001
1111110000110111
1111101111101011
1111011011110000
1110110111110111
1111000000101111
1111011010111111
1111011100110100
1111001000000011
1111010101001110
1111001010011001
1111000011111001
1111100101111110
100100010
1111111110101111
1111111100100011
1111111011101001
10001111
101000001
101001001
1111111101101101
1111111011010111
1111111100101110
1111111010111011
1111110010110001
1111110001011001
1111110011010101
1111100111010011
111101100
1101011100
1111111011001111
1111111011000001
10010001000
10010010110
1111101111100111
1111101101110000
1111101011010000
1111010100110110
1111110110010110
11001110
101000000
1111111111110010
1111111100110001
1111111010100100
1111111100001011
