1111111101101101
1111111011111100
1111111101011110
11101111
101011100
1111111101110110
1111111110111110
100111010
1110100
100001111
1111111100110101
1111111110001110
1111111110001110
1111111000000110
10110111
11001111
101001001
10001010
1111111110011100
111110
1111111100110011
1111111100100011
100111100
101010101
101000111
1111111011001010
1111111111100101
1111111111010011
1111111100110111
1111111101000010
1111111110011100
1111111010110010
11111000
1000111001
10110101000
1000111001
110111
1001001101
1001100111
1111111111011100
1111111100011101
1111101111000011
11111010111
1111111111011000
1111011100000011
1111101010011001
110100111010
101001111110
100110101011
11111101000
101100001
1110100110
10000111
110100
1111111111011001
1011100
1111111101100001
1111111111101100
10001010100
10001001111
1100100010
1111111010100011
1111111001000111
101000111
1000001
11100001100
11010011110
100000110011
11110110100
110100011111
110111000101
110011101010
11110010010
1111111001010011
1001010010
1111000110
1111111111001100
111001001010
1101011111
1000100011
1011111
1111011111111100
100010
1111111101000001
1111111111011111
10011000
101000100010
110110101100
1001010010
1111110111111010
1010110000
1001110101
1111110101010111
1111110000110011
1111101011000101
1111111000101100
1111111010001000
110111001
10011001111
10100100011
11000100000
1111101101101100
1111110101010111
1111110110000001
1111110000101010
1111101100011001
11011000010
10110001100
11101010110
1111111001100100
1111100011000001
1111111111100100
10111
1111111110101001
10111101010
1111110111111001
1111111100010011
1111110000001110
1111011010101110
1111011110000000
1111001101100010
1111100001101110
1111111000111111
1111110100001001
1111110011100011
101011000
1101110
1111111100000101
1111111010100010
1111111111101000
1111100000101100
1111111000011100
10111001001
1111111000001000
11100100110
1101000111
1111110111101101
1111101101001000
1111110011100111
1111110001100101
1111111100010100
11010000
1000100111111
1111100111001011
1111100010110001
1111000000011010
1111101100000011
110100101
1111010011000111
1111011000110000
1111110011111001
1111011101101000
1111110000011000
1111110111101111
10111011
11001111100
1111111010010101
1111101100001100
1111100001011000
1111101110010110
1111110110101111
10010010111
10101010011
1000100111
10010011000
1111101100000111
1111100001110000
1111101111111000
1111111101110111
111001100
1111101011110000
1111011011000000
1111011010110001
1111010000000000
1111101010001111
1111100011000001
1111010000101001
1110111110011001
1111100110111110
1111110110101101
1111110010000000
1111101101101100
1111111110101111
101111000
1111110000111010
1111100001110110
1111101100111000
1111100101100111
1111101110000110
1111110011001100
1111110101001100
1111101111011101
1111111010001111
10110010010
1111011100111000
11101001001
1111111011000101
101111001
1111111100111111
1111100110100111
1111100001001111
1111101111010101
1111111101010101
1111110000011001
1111100011111000
1111011010001101
1111011001000101
1111101111011011
1111111011101100
111010
10110001001
1111110010111001
1111101110100110
1111111101010011
1111111000111001
1111101100101100
1111101110100101
1111111011101011
1111101111001001
1111101110111001
1111100001110100
10000100
1111111001111110
10101000010
1111011111100101
101111001101
1111100011011101
1111000001000101
1111001110111100
1111100101001101
1111111101101101
11101110
1111111010101100
1111011111110101
1111111000110101
1111011100011100
1111101101100110
10010101100
11001111011
11010010010
1111101110001011
1111111100011011
1111010011111101
1111110011001100
1111110101000001
1111100100100001
1111111101111000
11011101
1111000111100001
1111100000011011
100011001
1111010111111011
1000001111
100001011000
1111101000100011
1110111111000111
1111100110100100
1111100101010010
1000010000
1101001100
1111111011111001
1111101001001100
1111011110011010
1111011000000001
1111101001000110
1011111001
110101100111
111000100011
10010100111
1111110100010101
1111100100001010
1111111110001101
1111101100011111
1111100101010001
1111101110111001
10010110
1111110110100000
1111011100010001
1010101011
10000011110
111101100
100100100011
1111100110000101
1111000111111111
1111011011010101
1111011110110000
1010
11001011
1111100101110101
1111100011001111
1111101010011010
1111110010011001
1111111000001010
101100111010
1000100101011
1001110111000
1010001001
1111110111001110
1111101100001100
1111101110010000
1111101001000101
1111000111010101
1111100111010010
100100100
1111100001010000
1111101101100011
10111010000
10110111011
1100111101
101011110
10000001110
1111011101100000
1111110010110101
101000
1111111010110000
10111000
1111101110110011
1111110111010010
1111110100000101
1111101111010101
10000101101
100101100010
1000010101001
111011111001
10111110
1111100001100010
1111001110100011
1111011101111010
1111011010111110
1111011100100110
1111111000111110
101010
1111010101110101
1111110110000110
1110100000
1111111100001100
11010011
1111011111111011
1111110110001111
1111110101011110
1111110011100110
1111110100100000
1111101010100101
1111110100010001
1111110011000110
1111111001101010
1111101000010101
1111111011101101
11100111110
11101011000
101001010001
100100111101
111111101
1111100110100100
1111100001111101
1111010111100101
11110000
100011111
10110110111
1110100
1111111000110010
1111001111110011
1111010101100111
1111101100111000
1100000011
1111010110100011
1111111011000100
10
1111100110001100
1111111001101101
1111001110111100
1111101010110010
1111111010000101
10001010
1111111111100101
1011100101
10010010001
10000001011
10001010110
11011001010
10000111001
1111101001110110
1111011010111001
1111111111000110
100000010001
111111011
10111101111
10111011000
1111100010110101
1111101100000100
11100110100
10000000101
1111100110111000
1101010100
100001110101
1111111101111101
1111111011110001
1111101101010010
1111001011110110
1111100000011010
1101100010
1011001011
1100110111
1011100
1111111100010011
1111111101000101
1111111111111010
1111111100010010
110111010
1111011000011010
1111011101100001
1111111110100000
1111001100
110111
10010111010
110111111
1111110000011110
1100101000
101100100011
110100101
1111101010011010
1111111001110010
101110101011
1111101010100101
1111011001111001
1111100011000110
1111011011111110
1101000011
11011001011
11000101010
10101101111
11011101101
10001001
1110001110
1000111001
1111101000011010
1111110111101011
1111011011111101
1111010010011100
1111110000000101
1111111100110101
1111111111101101
10000001010
10100010000
10101010
1111111010111010
101110110111
100001110100
10011100111
11110101100
101010011011
1111100101000010
1111010100010100
1111101000111011
1111011010001100
1111111111101011
10110000
11100000110
1111111100
1001011110
1111101010101011
1111111110111011
11001000
1111100011000110
1111011110100010
1111001110111000
1111100101011101
1111011010111101
1111110000111011
1111100110010111
1111101011010111
1111100011000010
1111111010100100
1111110111111011
100101100010
1111101110011000
1111111110000011
1100100000
10111001011
1111001111111100
1111100100010001
1111010101011100
1111110011111010
1111110000100010
1111111001100111
1100011101
1010011111
1111111010110111
1111101110010100
1011000011
1111100111
1111011110111101
1111000010011010
1111010010011011
1111100011111011
1111111011111101
1111110101011011
100010
1111111111011111
1111011100001110
1111101110011000
1011111011
1111110111111100
1111100100101100
1111100110110100
1111101011111100
1111100001110001
1111111111110010
1111100111000011
1111000110010101
1111101110011110
1111101001010100
1111110100110010
10101111001
1111110110000000
1111110111000100
1111110111111010
1110110111
1111000
1111101100001001
1111011111011100
1111110101000110
10110011010
1011011101
10011010100
1111111111110101
10111001011
1111111000011100
11001110101
10110101010
1111100010001110
101100100110
11110100111
1111100111100010
1111110001001001
1111110010100010
1111110100100001
1111100111001010
1111101111001110
1110001
1111110101101101
1110011001
1111110001000010
100110111
100111
100110011
1111101010110100
111111
1111111100001111
10000001001
10001100010
11011001
11100001111
1111011010
1100111000
100001010011
1100001011
11011010010
1111111011100101
10110000101
1111111010110111
1111011010011100
1111100100101011
1111000101110110
1001001010
1111101011100010
10000100000
1111110110111010
1001001101
111101
1111110001010001
10011111111
10000101001
1111110101000111
10010010100
1110001110
1001001110
11010010
100000100110
1111110101
1100011100
100010100
10111001111
100001101100
11100111010
11100100011
100100001011
1111100110010100
10011111110
1111101000100010
1111011110111011
1111110001100011
1111100111111100
1111110100011101
100101
1100101001
1111110010000001
1111110101110001
1111111011000001
1111111000001100
1111111010111001
1111111000011101
10111100
10001
1111110010010100
1111111000000110
11010010001
1111100000
101111011
10101100000
101001110
1111111111010001
1000100110
1011010000
1001100110
1111111110100111
1010100101
1111001111
11001010111
10100100
1010011001
1111110000001101
1111101110000110
111100000
1111111101011111
10110
110111100
1101101111
11010001
1001111
1111111110001011
10101101011
1010000011
1111111011000011
1110111
100110010
1111111110
1101100100
1111100010101101
1111011000011111
1111111101001110
11001110
1100101
1111110101011101
101001011
10111100
1111011010110010
10110010001
1111111101101010
1000110011
1111111000100111
1111101110100101
1111111000101100
11000010
1111110111110001
0
10110101110
1111111111001110
1111100100011010
111100001
11011011
10001000100
1110100001
1111111011000111
1111110001101110
1111100111110011
1101
1111011001110110
1111100110000100
1111011011011010
101111111110
1111111011000110
10001000
111010
100110100
1111111001100111
1111100100111011
1111110110010010
1111110111010011
1111101111011001
1111100100010101
1111110101010000
1111110110101100
1111110110111100
1111110000111001
1111011000101100
1111100100011100
1111010010101010
1111010101001011
1111101011111100
1111111000101011
1001011110
1111111100111000
1111111110011101
1111011011110010
1111010101010111
1111100110100000
10111101010
100001011010
1111111011110010
10110111
100101110
1111111100001011
1111111100100001
1111110100101101
1111101111111001
1111100101001001
1110111101010100
1111101100111010
1111110100001010
1111011010010010
1111001101101011
1110101110010111
1110100101110000
1110110001011111
1110000011001000
1101100001010100
1110010100011011
1111000001111101
1111001010111110
1111101010010011
1111110010111001
1111010001011110
10110010011
1111110110010001
101001101
100000010
11101100
1010011
11010110
1111111111010011
1111110101111001
1110111100110010
1111011111101110
1111000000000011
1110100110010011
111111
1111010010111110
1111100010100001
1111100000000111
1101111101000000
1101100101000010
1101110110010110
1110010100101101
1110101111110000
1111010111110110
1110101100001010
1110111110101001
1110110100001000
1111001011010100
1111001010010111
1111011110110100
1111110100111010
11111101
1111111101101011
101010101
1111111110100110
10111101
1111111100111111
1111111101100100
1111111101000011
1011100
1111110010011000
1111101100010011
1111100111010101
1111100001011000
1111010110100111
1111001001000011
1111010010111011
1111001010101010
1110111000111100
1111010110000111
1111100100001000
1111001110011011
1111010101001001
1111101100100101
1101010100
10001100101
1110011101
1111110011
100100010
10011000
1111111010110100
101010000
