1111111011110100
11
1111111010101001
101000010
11110110
100010101
1111111111111101
1111111100000001
1111111011011010
101000100
11111
101010010
111001100
11000
1111111000101111
111010
1111111110010010
1111111110101110
11001100
1111011
1111111111011101
1111111100111110
1111111110111100
1111111101111101
101100
1100101
1111111110111110
100101
10010
1111111011110111
100100101
1111111111101010
1111111000011101
1111111001011001
1111110100001010
1111111111000000
1111111110001101
1111111101010010
1111101010001000
1111011000101001
1111111100111100
10101010111
10100101101
1111010100010001
1111010010000110
1111011111011010
11011100000
100100001111
110111110011
110111001011
101111011
11111
111000
1111111100010110
1111111111111000
1111111100110111
1111111100000011
11100011
1010111101
1111110000111000
1111110110111010
110010100
1101011101
1111111011011000
1111101110100101
1111000101100110
1111011110010111
1111110101101100
1111101001100010
1111100001000110
1111101101001010
1100110111
10110111001
101000100010
100101110110
110000011101
11011111001
100001001100
11100111001
1111111111
1111111100101011
1111011111111011
100000
1111111100000110
1111111011010100
1101001
1111100100001010
1111110011011110
1111111111001010
10011101100
1111110011010110
1111110011001010
1111101001000000
1111000000111000
1110110010000011
1111010001111000
1111001010110110
1111001110001011
1111111011000111
1111111100100010
110110101
1111100011
1000100101
1101100111
1111101111111010
1111111110001111
101010100010
101110001001
10000111001
1111100100110111
1111110101100110
1111110
1111111100100111
1111111010001000
1111011100100001
1111010101001101
1111111000000001
1101111110
1111100100000110
1111100010101100
1110110110001000
1110111010001000
1110111100001101
1110111111111001
1111010010100111
1111100000100101
1111011110111010
1111011000000101
1111101101001011
1010110
1111110100001111
1111111011101001
1111111011010110
100001010
1111110100110111
100100110010
11011101011
11011010001
1111111001010001
10000010101
10011100
100000
1111111010110111
1111101101010011
1111011111100000
1111101010000110
1111001001011010
1111101101000011
1111011111101110
1111000101010111
1111001111110101
1111110000000111
1111111110000110
1111110010100001
1111111100111100
1111101111011100
1111101011110010
1110001010
1111111010111000
1111101010010110
1111110011111011
11011100
1000001
10000000111
11011111101
10001110010
10001001010
100010110011
1111111011000100
1111101111011001
1110100100
100000110
1111001100100011
1111111000001001
1111000101110001
1111001000101110
1111010101100100
1111010100010111
1111100101111100
1101101100
10010011110
1111111011010100
1010111001
1111110111001111
1111110101010111
1111110111100101
1111110110111011
1111110010101010
1100000100
11010100110
101111011
111010000
10110100000
10000010001
101011010011
1100001101
1100000
1110111100001101
10011010001
1000111
1111011001011111
11011010
1111001100110000
1111101001001000
1111100100111001
1111110000111001
1010100001
1110000101
1111111010010001
10011010111
1111111111011001
1111110000000110
1111110001101100
1111111110000010
1111110101011100
1111110011001111
1011101011
1000111000
10000100111
11000001010
11000100000
10101110011
100011010011
111110
1111101001010010
1111010000100101
1111111101010000
1111011001101000
1111011011010101
1111011111101111
1111110100100110
1101110010
1111010110001000
1111100011111100
1111101010110001
10100110101
11111011101
11011010001
101011111
1111110100011000
1111100100000100
1111101011110110
1111111101011010
101110111
111000011
11011001100
100010111100
100010111001
1000100010000
1010000111010
101010110000
1111111110101011
1111101001100110
1111001101100001
1010101001
1111010001110011
1111000100001001
1110110100010110
1111011100011101
1111101010001001
1111100001100010
1111010110010100
1111110101100001
10110101011
101110001011
11010111111
1010
1111110010011011
1111101001110000
1111001110100100
1111101011010011
1111100110100111
1111101011010110
1110010
1101011000
1101110111
110100001111
111101101110
100110000101
1000100011
1111100100111110
1111011111101111
1111100000110011
1111101000110000
1111010010010011
1110010101100110
1111010001001010
1111010010011001
1111110000010110
1111100110100101
1111110111101000
1110110010
101110101101
11110111000
1111111110100001
1111100110101100
1111010101110101
1111000100111011
1111001010100001
1111001101110011
1111000010010001
1111010000100010
1111100011010001
1011101
10111000
111100000
100011111001
1111100010000110
1111101101101100
1111111001100100
1111111000001000
1111011010100011
1110010100111100
1110101001001111
1111101000101111
1111111101001010
1111110100111110
1111101100110111
1111110001111011
111011110
101010111011
11001100111
1110111
1111110001100111
1111101110110110
1111100110111100
1111001100010110
1110111111101010
1110110011100010
1110101101010011
1110101111100100
1110101111001101
1110110111011010
1111100011101001
1111110000100000
1111010100011110
1111111000001011
1111100100000000
1111100111110101
1111100110110010
1110011100110110
1111011110111101
1111110110100101
1111100100010101
1111011110000001
1111100000001010
1111111100000111
100010011001
101010100011
100101111101
1111111000101100
1111111110101101
100001
1111110111110011
1111110011101111
1111101000010000
1111100110000011
1111011011001010
1110110101110100
1110010100001000
1110011110010110
1111000101100010
1111000100010110
1111010110101011
1111101100000011
1111100110011010
1111000110001010
1111011010011101
1111000010000001
1111110011111101
1111110110000101
1111111001011000
1111101010110001
1111110110001001
1000100010
101010011
100001011101
10110000010
1111111101100000
10010101100
1111111110100101
1111110000101011
1111110101111011
1111100010000000
1000100100
1111110001111110
1111100010101010
1110010000001111
1110101011001101
1111001100101110
1110110010000000
1111100000001110
1100001001
1111101101011101
1111101000000010
1111010010110010
1111011011110111
10010011111
1111100111011100
1111111111010011
1101001
1010101
1011110
1111110000111101
10011101010
11010111011
1111110110101110
10100000
1000100100
1111110100110000
1111101111010110
1111100101100011
1001100100
11011001
1010000
1111101010100110
1111101010011001
1111011011101011
1110110111100110
1111111010101110
110100101
1111100110011100
1111101111101011
1111111010000111
1010010110
1111110000011110
1111111011011100
100101111
1111110011011100
100010010
1111111011100000
1111110010010011
101
101000100
1101111110
111001101
10111000011
1111111010101001
1111101010110101
1111110011100001
1111111110111000
11111110000
1110001110
101111011
1111100100111100
1111001100101010
1110111010011001
1111011101011110
1111101110101101
1111010000110111
1111010000011011
1111111101001110
1111111100000011
1111110011001011
1111110011000000
1100000001
1111101101010110
1111110010001010
1111101110100011
1111110100000111
1111111111100111
1111111010111011
1110000000
100001111010
10000101110
1111110010101110
1111111001010000
10011011
11010111
1111110100011010
10001101010
111010001
1111100100011101
1110101111011011
1110101000001010
1111010011000010
101000110
1111010101011100
1111010110001100
11011001111
1111111100011111
10100011
1111111010101010
1111111101010100
1111111000100100
111010
1111111111001010
1111101111001101
1111100001001101
1111110110100001
10100110001
100101011011
1100101
1111101001001011
1111111001011101
1111111010100001
11000110010
1100000000
101101001
100010111100
1111111111011111
1110110110110001
1110110111101010
1111001111100111
1111111001011111
1111011100101100
1111011111100001
100000010001
1111111110111000
1001100110
110001
1111110111010101
1111111010001100
1011111011
1111110101111110
1111101110011000
1111101111101100
1111110110000100
11000101111
11000101110
1000001010
1111110101001101
1111110001000100
1111101101111100
1111110111000010
1000001110
1111111010011010
1111110100010000
1111101100110100
1111000110000000
1111011111100100
1111100100010101
1111101111111100
1111011001001000
100001000
1110111100
1111110111101111
1111111000101111
1111111010100000
1111101010011111
111001011
1000010110
1111111001100101
1001000000
1111111001001011
1111101001001110
1000100100
1010101101
111111001
1111111110011111
1111111110110111
1111101000110000
10011111111
100100000
1111111001000011
1111011110000011
1111100101010011
1111001000110111
1111101011001111
1111101001111010
1111111010100001
1111100110100100
1110100110
1111111110110010
1111100111001101
1111110110110001
10010101
1111110110110011
1011100101
101101010
1111111101110100
1111110111000011
1111100001011001
1111101101000001
1111111010000000
1010001110
101011011
1111111001100110
1111110101110001
101101
1111101010110111
1111101011010110
1111100011100101
1111110010011010
1111110110010010
1110000110
1111101111101000
10001001
1111110111010110
1111011000000001
1110110110000000
1111111110011111
1111010011
111100011
1111100111011101
1111111011100110
110111001
1100000110
10100111001
10000110111
100101111
1111101011100011
10111101
1111111101111000
1111111111011101
111100001
1111111101111001
1111101110100101
1111111100001101
1100000
1111101010001001
1111111001000100
1111100111010010
1111110111110110
1111111010110100
1111110100110001
1111111111011101
1111110110011100
1110111011100000
10110101100
1101011001
1111111000100001
1111110100101000
1111110011010010
1111111011111111
1111111010110001
1111100100
10010
110101
100011101
10000100
100000010
10110100010
110000100
1000000100
1111111111110010
1111101001100011
1111100100011000
1111010100001011
1110000111
1111111000011011
1111110101000011
1110001000
1111110001111100
1111111110111000
10000101
1111111100111100
11001011
1111110001101111
1111110011010100
1111111000011010
101100111
111110000
1111110001011010
10000001001
1111110111101011
1111101100100010
1111101101001111
1111111001100100
11101000
11000
1110010101
110111
1111111011100110
1111101001000110
1111110101000001
1111101011011010
10001100101
1111010100011111
1111010001011000
1111101010010111
10010
10011001
1111111011111111
1111001010000111
1111010111100010
1111101100000101
1111111110010111
1111100000010100
1011001011
1111111110100011
101110100
1000001000
1111111001111000
1111110011100011
10100111
10000000
1110000100
10001001010
1111111011100000
1111101101100000
1111011100110111
1111000111110010
11110001
10000100010
101011111110
11111001011
10100101000
1111101111001011
11011
1111111100100111
1111111110010001
10110101110
1111110101100110
1111011100001100
1111100110101111
1111100101000110
1111110111100000
1100011
1111111101001000
111001111
110010110
1111110100100010
110100
1111101000101110
1111100010110010
1111100101111011
1111111010001111
1111111110111001
1111110110111011
1111110000000010
1111111001100010
1010000010
10000010000
1111111100
1111101111100011
1111100111000111
1111111100111010
1111111011010100
10000110
1111111101001011
11101101000
110000111110
1111111111010000
1111111100001101
1111101001011001
1111110100000000
1111101110111101
1111010101010101
1111100011110001
1111100101100111
1111011011101010
1111101011101111
1111011100110111
1111101100001000
10111101000
110111001
100001101
1111110110010000
1111100110100110
1111001011111110
1111100001110010
10111110110
1111110101010110
1111111100111010
1111111100100001
1111111011111111
1111111100000111
1110100
1111111101100100
1111110111011000
1111101011101101
1101001011
1001000000
1111111110000010
10010
1111011001011110
1111101011001111
1111110110100101
1111001111111111
1111011110000010
11111011111
10101110011
101001010
1111110101101011
1111100000010100
1111111101010010
1111110111000010
1111101100001110
1111111100000110
1111111101110010
1000110
1010
11111110
