1111111011000000
1111111011011100
110101
10111001
1111111100010111
1111111011010001
11101010
1111111111111011
1110101
1111111101110011
10101010
101001011
1111111101011100
101101110
10100011
100111010
1111111101011001
1111111111001000
100100111
1111111101001010
1111111111110101
10001
1111111101010100
10110010
1111111110111000
10011101
101000101
1111111111010100
1111111101000101
1111111010101110
1111111011010010
1111111011001100
10001000
100011
110011001
1111111111001001
111110110
10001000111
11110010011
100110000101
100111000000
11101000101
1111001001101101
1111010010101100
1111101111001000
101010011000
100101101101
1111000100
11110011
1111110111011111
10010100110
1111001010
1111111111010000
101001110
11011
1111111111101000
11001001
100001000
101001000
100011010100
100100110101
1
10010000001
10111010000
1111100101111111
1111011110101100
1111110011101011
1111111001101000
1111010001111101
1110100110110111
1110101000110010
1110101000111110
1110101110101111
1110111011100000
1111011100000011
1111110001100101
1111110011100100
1111010110100011
101001100
1111111000000111
1111011111110111
1111101000011001
1111111100101100
100111011
1010100
11101001
1111110001001111
11100011101
100101010110
1111110100001101
1111110011001010
1111011110010101
1111000111000101
1110011100100111
1110110111100110
1111110011010111
1111110111011101
1111011001011010
1111010100101100
1111001110110100
1111100001100100
10011101110
100000100111
11010110001
1111110111000001
1111001011011100
1111001011111001
1111101001000000
1111100111110101
1111111111101001
101100111111
1111111100011000
1111111100100110
1111111010001101
1111110100101001
11100010011
1111101011100011
1111010110111111
1111000100111011
1111011010110001
1110111001100101
1110101001011111
1110011101110000
1111010100100101
1111110001110101
1111101111111001
1111100101100001
1111101111101011
1111100011110000
1111101110100001
1111101111010111
1111101101010001
1111001011011010
1111001000010001
1111011111000010
1111111000010101
1111110111100111
1111110101010000
100110000010
10111010111
1001100
1111111011110110
1111110111100011
1111110110111101
1111011110001010
1111110000101010
1110111001010010
1110111101010010
1111000111110001
1110110000110110
1111010000101111
1111111000011000
1111101101000100
1111101111100101
1111101110011110
1111010010101001
1111101011110101
1111100111000000
1111010100001001
1111001100000110
1111001101001000
1111011101111101
1111110001010011
100110101
1111111110111111
1111100101000010
11100100110
1100111111
1111111011100001
1111111001110010
101011000101
100100000011
100001111100
1111011111111101
1111110000010110
1111101001110100
1111110010000111
1111101100101101
11110101
10011001000
1111110010000000
1111100010011000
1111101010100110
1111010111010010
1111010001001100
1111100001111000
1111100111010111
1110110010
1111111001111011
110001100
11101001001
10110101001
111101100
1111111101101011
1001000110
100011010001
101100110
1110011010
101111100100
101100001010
1111101110000101
1111111100110011
10000001
111011
1111111101001110
1111110001111101
1011100100
1100111010
1111111001101101
1111101100011100
1111100000110000
1111011100010101
1111100011011101
1111011101110010
1111110011111110
1111110110101000
1000110000
10100110011
100001111000
10001000110
1111111100010010
1110101010
110101000
101011100001
100010111111
100100010111
111011001
1011111111
1111101111101111
1111111110001011
1111110111010010
1111011101110101
1111110111000100
1111110101111000
1111101110111111
1111111101100010
1111111110001110
1111110110011010
1111110001111110
1111110111001100
111001000
1111111011001110
110000000
100000000010
11001000101
1100111000
1111110110100101
10011111111
110001100
1001
1111110100100000
101100001000
1111111111001001
11010001001
1100
1111100100100011
1111110110111100
1111110000100000
1111110110100110
1111010100111110
1111100100111011
1111110011111010
111011001
11011111001
1100011100
100000011
1111110101101101
1111111000101100
1111111001100110
1000000111
101000001001
11111001111
11110110110
101000011001
11110110011
100110000111
101110110011
101001001010
1111111011100101
110001101
1111110101000100
1111001000101011
10110011111
10000011
1111110111100111
1010011110
1100110100
110010111
111010110
100000011000
101000000101
10010010000
1101111111
1111111100100101
1111110000100000
1111110110010010
100100001
1111110100000110
1111101
10001100001
11110101010
100110011101
101101111100
101101100110
1000001001001
10110101100
1111000010
1111100100100101
1111011111011101
10001100011
11000010011
10101100100
1100101100
110011010
11111001101
1010100011
1011001100
10001101000
11000010101
11011100101
1110000111
110000111
1111111101111001
1111101101011100
1111100001001101
1111010101000100
1111010000101101
1111101010111101
1111111000101001
10001110011
11111011000
111101000
1110011101
101000111101
1100000111
1111101100011001
1111100110011001
1111101100001000
1010001000
11010101100
1111111100011000
1111111111001011
1111111011110000
1010110000
1000010000
10011101111
11100010000
10111110000
10001110110
10111111110
11100000
1111101011000101
1111010100000100
1111001111001010
1111000011100110
1111000110010010
1111011111101100
1111110010000000
110110110
1111110010111110
1111110011011101
1111110101000111
111001111011
1111011000010000
1111111011101010
1010010100
100011110100
1010111101
1000000000
1100001011
1111110001010001
1011110111
1111111110100000
1100100
1010011010
10010001010
1000100101
11110011
1111100111001101
1111000100001101
1111010010101000
1111011000101110
1111011101101001
1111100000001011
1111011010100011
1111110101100000
1111110010010010
101001
1111111000110101
1110001110
110110110
1111011011111011
11100010010
1111110111101100
100111011001
1111110101001001
1111110111111110
10000100000
1111111100001001
100001100
1111110101111011
1101000
1001100111
110110011
1111111101010011
1111111010100110
1111011011011001
1111100000100001
1111100001111000
1111010111100110
1111010111110111
1111000110001001
1111100000100101
1111111110011110
10000000100
101110001110
101010001110
1111101101001110
1111010010001010
1111101100010111
100100000
1111001111
1000111100
1111010101110101
10100000111
11100110
1100101
10100
1111101000100011
1111100110100000
1111111110000001
1000011000
1110001110
1111101101111001
1111011101101011
1111110110100011
1111110110011010
1111011110000111
1111100101110101
1111011100110111
1111011100010111
1111111001011010
1111111111101011
101101110100
101000100000
1111100110100101
1111010000001110
1111101011000011
1111110010010011
1111110100100111
1111100011010011
1111100110110111
110011000
11100001011
11000010000
1110110
1111100101100000
1111011000001101
1111010101111110
1111100110010001
1111110101111011
1111010111110010
1111011010000011
1111110010101011
1111011111010110
1111101001001000
1111101110101111
1111110001100110
1111111111111101
1111111111101000
1111110000000011
10111001001
10101100111
1111110000000110
1110111111000011
1111101101100101
1111111110101000
10010100
1111100101001110
1010110010
1111101001100011
10010110011
10010010101
1101010000
1111110001100100
1111101011101110
1111011101010101
1111000010011001
1111010100000111
1111101101000101
1111110100110110
1010100111
1111101000111101
1111111000000011
1011100010
1101011
1111001011
1111110111010100
1111101001111000
1110100010
10101011111
1111011001000111
1111001110111110
10100010100
10010100011
1111100100011100
10010111100
1111101010110110
1111100101100010
1111110011100011
10001101000
11111101111
1110001
1111011010100011
1111010001000000
1111110001111011
110001
1011100001
10001101
1111111001101011
1111111010000011
1111111001111001
1111111000000010
1011000
10101110110
10000001000
10010110100
100010111100
1111101110000110
1111011101110111
1111011000000000
1111110000100001
1111111000010110
1111111010000110
10100001001
1111111101000000
1010111110
111110000
10111110010
1110100000
111011
1111100110011101
1111101011001110
1111100101000000
1111111010101000
1111101011
1111110110000100
1111110001101111
1111101100111101
100110010
110110001
11100110
11010110101
1010110001
10111100110
11100000001
1111001011000111
1111010100101100
1111101110100111
1111110001000011
1111111100011000
1111111100100100
1111011011011111
1111110001101000
1001011010
1111111111000000
1111110100001110
1111101111000110
1111101001010001
1111101000010010
1111110000000101
111111
1010011011
101010000
1111101110101011
1111110110000010
1111101110101010
1101011
110110000
1101
10111010101
110001001
11110001110
110
1110111110100111
1111010101011010
1111110111110011
1111111100110101
1111111010010110
1111100101101110
1111011111001100
10011010
1111111110111001
1111001
1111101011101100
1111000
1111111010010111
1111111010000000
1111110110101101
100010
1111111011000000
1111110001000000
1111100111101010
1111011000100100
1111011011101101
101001001
1000011010
1111111011110101
10110000111
11110000001
1111111011010100
1111110100110010
1111011001111010
1111110100000011
101010001011
1101101101
1111111010011101
1111110001110110
1111001010101011
1101010001
1111110100111000
1100100001
100001010
1111101111101101
11011111
1101010101
1111110111000100
1111101100101011
1111111000001011
1111111100011110
11111
1111111101000001
10101100
100010100100
11001110011
101100010
1000101011
11100100110
1111101110010010
1111111111100000
1111100101011110
1000100001
11010010111
10001001111
1111111011000001
1111111110011010
100001101010
101100111110
1100110000
1101111011
1001101010
1111111100101010
101111101
1101000000
100101100111
10010100100
1111111111001111
1111111111010110
11111001000
10100101110
11100010001
10110011111
110100001
1111111100001110
1111110111100011
111101100
1111011101100001
1111110000001110
111110100
1111111100000100
1111110000011011
1111111011001110
1111111101010111
101101
1111101101101101
1100000111
1111011011001011
1111010110100110
1111011101010011
1010111110
10011110001
100010101010
100001100111
1111111110101111
1011110110
1001101100
10011001001
1111111110010111
1111111101010101
1010001100
1010010011
1111111010010011
111000100
11010110011
1111111100101110
1111110000010100
10011000101
1111011010101100
1111100001011100
1010000
1111111110000100
100111101
10000100101
11100111001
1111101100001111
1111100011100001
1111111000110001
1111111010001111
1111100010110011
11101
1111111100111011
10000100101
1111111010111100
1111110111110001
1111011111011100
1111101011000010
1111110111101101
100101001
1111111001110111
1111011011001101
1111110101110110
1111111000001100
1111111010010101
1111001
11011101100
11100100
1000100100
1111111101111010
1111111101010011
1111111110111010
101001100
10011110011
1111101010011001
1111100101011101
1111001110110000
1111010000000000
1110111101101101
1111000101100000
1111000000011000
1111100000000000
1111111101010100
1111110011000011
1110111110010100
1111001011000110
1111100110111010
1111011110111101
1111010110100101
1111110100001101
1001
1111101011100110
111010100
1111111000000011
1111101000000010
10100100001
100011001
1111111101100100
10
1111111110011010
101001011
1111111111101110
1000100101
11011101110
1111111001010000
11000000000
11111011001
100111100111
100001000011
1010101111
1111111010011101
101100101110
100011011011
1111010100110000
1111011001000100
1111101110001010
111111011
1111110111001111
1111101110110011
1111100110110100
1111111010
1111111100010011
1010011
1111010
100011
1111000
