1111111101111000
1001101
100001110
1100101
10111011
1111111101001111
1111111110011001
1111111111000011
1111111110000111
1111111011010110
1111111111011111
11001010
1111111111111011
1111110111111110
1111111011000110
11011010
11110001
1111111101010000
1111111100100010
100110100
1111111111101000
1111111111111011
11100000
1000001
1111111100011001
101110
1111111011101100
10000010
11000001
1111111100011010
1010111
1111111101010011
1111111111001000
1111111100111101
1111101011010111
1111101011100111
1111100000011100
1111011011011000
1111110110010111
1101011101
11101000101
10010011
1111100101011001
1111111010001011
1111111101101111
1101100001
100001110111
1000100011101
110100011101
10110101000
110110110
11111000
100000
101000100
1111111011011001
1111111011001100
1111111011101101
100010011
1001110010
10110111
1111100100111100
1111101001100101
1111100001101010
1111011011110101
1111101000011000
101010011
11110110000
101110011
1000000000
100001010001
1001000010111
111011111001
101001101000
10000111000
1111111000001101
110101111
1111110010001111
1000000110110
100110101110
1011110001
100111001101
1111110111000111
111011
1101101
1111111101011110
11101100
1110000001
11100101111
1111100000111100
100010010011
100000100000
1111110100111100
1111110011011010
11111011000
1111111011101111
1111100000100010
1111000110100001
1111001110010111
1111110001101100
1111100000011010
1111111111110011
1111100110100101
1111010000011101
1111101001000101
1010110100
110101010
100001001010
1110011111
10000101000
1111100010011001
1111111001000101
11010011
1111111101000111
1111111010011000
10000
1111100111100011
1111110011011110
111000111
1110101100
1111111100100100
1111100101111000
1100010001
1111011010
1000101010
1111110010101101
1111110001010110
1111001101101011
1111011000001000
1111011111100010
1111011111000100
1111100000000001
1111111111011000
1000011011
100101011
10010001000
11100111
1111101010000011
1111010010011111
1111011111101010
111110
11100001
1111111110001100
101111100110
1111101110100011
10100000110
1111110100
1111111100110111
11101011001
111000110
1111100011011111
10101001100
1111111000011111
1111110000101111
1111100001000001
1111011011111100
1111111101100100
1111001111101011
1111010001000001
1111011000101101
1111011111011011
1111110011010101
1111111011100010
110111
101100011
101011000011
1111010001001011
1111110010010010
1111111111111010
1000010
1111110001010100
1111110011100110
1111100101010110
1111110001111011
1111011111001011
1111101100101011
1111110110011111
1111011100011010
1111100101110001
11101110
1111101111001111
1111010111100111
1111001110011010
1111110011100111
1111110100101111
1111100111001010
1111100110001000
1111011111110111
1111011011101000
1111101010010111
1111110000000101
10001010101
1111110000111100
10101000110
10001
1111100011110001
1001101010
1111111111111011
1000001101
1111110000001110
1111010111010001
1111000111110010
1111111010110010
1111100110011010
1111110010101011
1111100101111101
1111110011111011
1111101011101001
1111111010011010
1111011010000110
1111011011110100
1111110101101100
1111111011110110
1111111100110100
10110001001
1111111100100001
1111101001110000
1100
1111100111111100
1111011
1111110100001110
1111110110101111
1111100010010001
1111110010001000
1010000111
10101101101
11110010111
11100100011
1111101000110110
1111100110010000
1111110110011111
110111000
1111110101001111
1111110001110000
1111110101101110
1111111010111001
1111011111010010
1111011100111000
1111010100001000
10101111
1011001111
11000000
1000100000
1111100100000010
1111011100111010
1111100010011101
1111110010100110
1111011010110011
1111011111111011
1111000111100111
1111000000000011
1111110010100110
1111110011100001
10011001100
1111111101010100
11111111101
11100100
1111110001100011
1111101000110001
1111100001110100
1111111010001001
1111111101100110
1111110011010110
1111011010111101
1111010110011011
1111010011110001
1111101101101110
111011000
100011001010
10111001101
1111110011001111
1111100101101110
1111101110110101
1111100100000000
1111111111101000
1111001011010011
1111010001000010
1111110010010011
1111001111010100
1010001000
10010111011
10010001000
1111110111101011
110100111001
1111101001011000
1111100011100000
1111111010001101
1111100
1011101000
1111111110011110
1111110100101011
1111010101010111
1111010010011101
1111011010000011
1111111011100001
10111010100
110101101111
101100111
111001100
1111101011010110
1111010110101100
1111011101110000
1111100101110000
1111111100111101
1111011000000101
1110111100010011
1111111100011000
1100011110
10100011111
1111001101
1011100011
11001010111
1111111111111101
1100001000
1111101110000110
1111101011001101
10110111
1111101111010011
1111110111011101
1111010101001001
1111101010100001
110000000
10111010110
111010110100
1000000001100
10101101001
1111110111101011
1111100010111110
1111101100111100
1111100000000010
1111111101011001
1000011000
1111100111011100
1110101010101110
1111001111111000
1111100000111010
101100100
10110011
1100010101
100111100011
110011
1100111110
1111101100000011
1111001101010001
1111110011111001
10101101
1111010110011111
1111000111100111
1010010100
101100011111
101001011100
100111010110
110000000000
10100111001
1111101111111110
1111110110010010
1111111101111101
1111110100100011
1000000110
1101010110
1111100011001011
1111101010000001
1111110001000011
1111011001000110
101000100
1111110111110001
1111111
101001001001
1101000001
10111100000
11000101110
1111111011000101
1111010010000100
1111001010111010
1111010100110100
1111111100001110
100100101001
11111100111
101001000010
11011110110
11101100000
10010100111
1111100100111110
111001100
1011110001
10100110011
101011100
1111100101101011
11100110110
1000110101
1111101111101001
1111011011101001
1111110011001100
1111111100010010
1111101100110101
1001001100
11110011100
100101100111
11000110100
1111110100100100
1111000110011011
1111100010001111
1111101011110001
10100001010
11010001111
10001000110
11001000111
11001000000
11001010011
1100000011
1111110110101110
1110111011
10010111
1011101000
1111111011110011
1100100100
10100100001
11000011110
11011100
1111101100000110
100000111100
101111001
1111101100100011
1111101001100010
1111101110000000
1111011000111110
1111001100010101
1111010000101100
1111001000111011
1111001000110100
1111111101110000
10101101100
101111001110
10111100110
11111110110
11100001010
1011101110
1111111101110010
1111110101100101
1111111100010011
1111110101100000
1001001101
1111111011011000
10011010110
10001000010
10001110110
1111100100001001
1111010010111001
1111100100011111
111100110
10010011101
1111011100000011
1111010010100100
1110111011010000
1110111000100101
1111010011011100
1111110100011111
1111100011011001
110111110
10111000100
101001011111
1001010011
11110111100
10001101110
100001101
11011100
1111111110001000
1111110100011000
1111100010110100
1111101101100000
1111110100010010
1111111101100110
10000001
111
1111001000001001
1111001110101110
1111111101010110
1111111101111010
1111011011
10100001
1111100010001000
1110111000111011
1110110000011011
1111011101110011
1111101110000010
1111110011010011
10010100001
100101100001
10110101010
1011100
11000101010
11001100101
1111111001110100
1111110000101101
1111110110101100
1111110100111001
1111110011100101
1101000
1010000000
1111111011010001
1111110111100010
1110110111
1111111010111010
1111110010111111
1000001
1111100010010001
1111110010110001
1111110010001110
1111111110101110
1111011101100010
1111010000011010
1111010011101011
1111100111001001
1111110010000011
1000
1111111000000000
1000101101
11111011010
110001111111
11010011100
10100001000
1111111110001011
1111111111111011
11011010110
1110011111
1111111000100011
1111110001011011
1111110110011000
1111101100010110
1001010
1111110010100110
10001000111
11001011110
1111110100001110
10110010001
1101111010
10111011010
100110001
1111101101010111
1111110010100000
100011001
1111100110101000
1111101100101100
1111011101011000
1011001110
100010100001
111000001100
110000111001
11111110010
1010001100
1111111100000101
1001110101
1111101101001001
1101100
1111111000000001
1111110110000110
1111111000000001
11000101011
1111011011000110
1111110011111001
10000011000
101011101
1111110101110001
111101010
1111101001001011
1111100101101001
1111100101011111
1111100111101010
1111110010100010
1111101010110010
1111101101011001
1111011110111010
1111111101110100
11110111101
11010100111
110010111011
1001000000
1111110
101011
100100101
1111101111000010
1111111101001100
1111101011010010
1111100010101100
1111100111110110
10000111101
1111110001001001
1111111110100011
1111100100010000
111001010
1111101010111011
1111011101110001
1111110100000001
1111111001001100
1111101100100001
1111111001001000
1111101111110111
1111100110011001
1111110000100010
1111100111101111
1111101110000111
1111111000001101
1111111110101011
1101111011
1111110100101101
1111110101000011
1111100010100110
1111111011100100
1111111100110101
1111101011010010
1111101000000001
1111010100100110
1111011101111110
1111110111010100
1111100100010001
11010001010
101010111
1111111111101011
11011
1111011010101011
1111101101101100
11101101010
1111100100010110
1111100001110100
1111101100011111
1111011111010100
1111100100101101
11010000
1111101110101010
1111101001101011
1111100010101110
1111110110010101
1111101011010101
1111110001010001
1111100001100011
1111111011110000
1100001000
11000001010
10011010100
1111101011001011
1111011111101000
1111011011000100
1111010111111100
100000111101
1101000
11
1111111010110000
1111100000011111
0
10
1001110101
1111111110010001
1111101101001000
1111010000110011
1111110101110000
1111111010011010
1000101011
1100000000
1111110011100111
1111010100110101
1111010100100010
1111110100001100
1111110110110000
1111111011001111
1111101111101111
1111111111010011
11011110010
1111111110101001
1111110101110111
1111110100110001
1111111100110101
101110100001
1111111100010100
1001000
1111111110010100
1111100110101010
1100010101
110101011
1111101110011101
1111011110101000
1111011000100011
1111100110010010
1111111001111110
10000110000
1000001001
1111110001111101
1111111100001110
100000
1111010010111010
1111100000101000
1111111000101111
10011000111
101101111
10100100
11111001010
10001000111
1101110010
100001010
100010101100
11100101010
100100010
1111111111111111
1111111110000011
1111110111001101
101001000100
1001010110
1111111001001111
1111000001011010
1111000010101101
1111100011001100
1111110101100110
11011111101
1111111100111011
1111101100101011
1111111100000100
1111110010000011
1111011010011101
1111001011111001
1111001111010101
1111100100101000
1111011101001011
1111110101110110
1111101111001001
1111101001010110
1111110111010100
1111110110111110
1111111001
10001100100
1111111101111100
100111001
1111111101110000
1111111111100110
1111111111000011
1111010111011001
1111100011011110
1110110111110011
1110101010100100
1111011000110001
1111010000110100
1111101101110010
1111101101000001
1110111101011100
1110101011001100
1101110001011010
1110101010001101
1110100000000001
1111000000001010
1110111011001111
1111011110001110
1111011110110101
1110111111111010
1111010010100001
1111011111101010
1111110001110101
1111111110101001
1111111110011111
1111111110110010
100001111
1011101
1111111111110010
1111111011110011
100100110
110111100
1111100000001010
1111011011100111
1111011101110011
1111010110110100
1111111000111010
1111100000011111
1111011010101010
1111010110010010
1111000111100110
1111010011110101
1111111010010001
1111101001101011
1111100011100101
1111010001100110
1111101010110111
100110001
10011010011
10111111010
100010001
1111111011001001
10010
1111111100010001
