1111111110010101
1111111110001110
1111111101010111
1111111101100011
10
110101
100111001
1111111101001010
1111111110101011
1111111101101011
10101101
1111111101100100
1111101100100100
1111101010111011
110000000
100000110
100111101
1111111110011000
1011000
100010
1111111011110000
1001100
100001001
11110
11010101
1111111110001000
11000000
1111111100011100
11110010
1110111
1111111101011000
1111010
11000000
1111111110111110
1111101111101001
1111010010010010
1110111010011001
1110101110111010
1110010100101001
1111100110000000
1111101100000001
1111101101110000
1110111101000111
1111111001011001
11001010111
10101100101
1110110111110101
1111110101111011
101100011
110000010
1111111011010111
1111101010011111
1111111111001111
1111111111101100
1111111011010110
1111111010110101
11000001
101000010
1100010
11101010011
10011011001
1111010000000011
1111110001011110
1110110110011010
1111111011000100
1101
1111110110001010
1111011100110110
1111011110100010
1110101010110100
1110001100110101
1110011001110010
1110001111001000
1110001011011100
1101111111101111
1110001101001100
1110111011110010
1111010000010110
1111010011101100
10000001100
10100001000
11000011010
1111111100100000
100000111
100101
11100011
10111010110
1111111110101010
11011000110
10101110
1111111101001001
1000000110
11001110111
1111111110000000
1111110100011101
1111101100110011
1111101011110110
1111010101010100
1110110110111101
1110110010111110
1110001011000001
1110000111010000
1101101111010101
1110010000110110
1110010101011011
1110111001100110
1110110110101011
1111111111100101
1111001111
100111111100
11101110010
1000010
10111010
1111111101111110
101001110100
11010111
1010011010
1111111100111111
100001010
100110
1111111100101000
1111110101001110
1111111111111111
10001100000
110010010
10010000
1111101000110101
1111011011100111
1110101111110110
1110001111100101
1110000100111111
1101110111000010
1101101100111101
1110111101010100
1011011011
1101111000
10011010011
11100101111
1111001111
1000110011
1111111011000000
1111111110100100
1111111111110000
1111110101010001
1111111111011011
10110111100
1111111111001011
1101110000
111101
1111111110110110
1001110000
11110011
101001
110100111
1111111100010001
1111110111100101
1111100101011011
1111100000010010
1111011011011011
1111101111000110
1111001111111101
1111010111110010
1111011101000110
1111010000100001
1011101111
101110001011
1111101110101011
1111101001000010
1111111010111111
11010111101
1111101011000111
100011111010
1111111000111100
101100000010
1110111101
110100110
1111111011110101
1111111101111010
10000110011
1100011101
1000101010
1100111011
11000010110
11100100010
11111100010
1011110000
1111110100110000
1111101100010010
1111011111000000
1011101011
1111110010001101
1111000011001111
1111001000000010
1111100110101110
1111110010
1000001010
1111111110010110
100100111110
10000001111
101010100
1111100001
100010011
100100101111
1111110110011101
1111101101101101
1111110100111111
1111110101110100
1111110110111010
1101010010
10011010000
10100010010
100100001100
11011000000
1011011001
1111101101100111
1111101101101001
1111101111111111
1111110001111110
1111110011011101
1111100111110111
1111010111111001
1111011111100100
1111101000011111
111111101
1111101110101111
1111111000100010
1111111100100000
1111101000111101
111000000
1111100111000101
110101110
1111100100000110
1111110011001100
1111110101011110
1111110111011100
1111101100101100
1111111111101111
10101011101
110000100101
101011111100
101111000101
11000101110
1111111111010100
1111100011110100
1111101011011110
1111100101100011
1111100100011100
1111111110001100
1111010100011110
1111011000000100
1111001110011111
1011011010
10011001001
100111111010
1111100001010110
1111111100011000
1110000
1111110000001100
1111111000110110
1111110110101011
1111101110110111
1111111001101011
11101000
1111111011111100
11100001111
111000110010
1000110000001
1000000110110
10111010010
101100101
1111110110110000
1111011101100110
1111101100000111
1111011100111111
111110011
1111101010100010
1111101010001010
1111100110101001
1111100111100100
11111000000
10101110110
110001101
10111001000
1110110011
1111010101000101
1111110100110110
110110
111111010
1111111010110011
1111101100011011
1000001000
11100010110
10010100011
101110010111
110011110101
11111011101
10000011000
1111111010101001
1111110000000010
1111100111101110
1111100110111101
1111111010110110
1111100111110010
1111110101110100
1111001001001001
1010101111
1111110111010100
10110010100
10001011010
11000011111
1111110100101100
1101111011
1111111001111100
1111110011101101
1111110100110101
11101000001
1101010011
101110010
1110111101
1101101000
101001
10011010111
10111100011
100110100101
1001000101
1100000100
10000010
1111101111101000
1111111110010101
1111111101101101
1111111011000110
1111111011001100
1111111000000010
1111010001111110
1110110101010110
11000111101
111100011
111010000
10111010111
1111110111
10011111000
10010001001
1010110000
11100111100
10100101101
1111100011
10010100
1111100110011010
1111100011000011
1111101100000010
11000101010
11000110001
1110100101
1011100101
1111111101100000
1111111110101110
11100111
1011111010
1111111001001110
1111110111110111
1111001001111101
1111110001010001
1111101000110101
11100001001
11011010
1111111000000101
101011000000
11000000101
1110011110
10010000110
100100011001
1101111011
100011110
110110111
1111111000001000
1111011010111110
1111010101011001
1111110101010100
11110000100
11000110001
10110110110
1010101101
1111111111001010
10111001
1111111011111010
1111111101010100
100111111
1111110100010100
1111111101001100
1111101100101011
11111110001
1111111001011000
1111100100010101
10010110
1000001100110
10100000111
1110111
10101001011
11101011100
1001110011
1111110100100110
1111111011011101
1111110111000100
1111001110010011
1111001100001001
1111101011110110
1000000010
10110000001
1001101011
1111110010000100
10010010
1111111100001110
1111110111011000
110000010
1111111010000110
10000010111
10001111011
1111101111100000
100001111000
1111111011110011
1111101000010101
1111111011110100
1111100001010000
1111101001101010
1111111110000101
11000100111
11010010101
1001011001
100111001
1111110011101111
1111110011001010
1111101010010100
1111100101110110
1111101001101011
1111111001111111
100010011110
10001111001
10111101101
1001110010
1111110101000000
10001010001
1000000110
11110001010
1110010111
1100110101
1111111100100110
101011010011
1111101110101001
10111110100
100000000100
1111100000001101
1111001110010110
1111110011101011
100101000
10101110111
10000100010
101000000
1111111111010100
1111111000010001
1111110011010000
1111110011001111
1111101110000110
1001000
10110000011
10000110010
10111000001
1111101100
1111111110000110
11010001110
1111011010
11000000011
1111110001000100
1111101110011100
1111101101001100
1110100111
11111111
1111111101111010
100001010111
1111100000100101
1111101110011011
1111101111111010
1111110100000100
1111111010101111
1011111001
11000001101
111100110
1111110001000111
1111101110011110
1111111001000111
1111111111010110
10000100001
10110110101
1000100010
10000100001
1111111100101101
1101001101
1111111100101100
101101110
1101011011
1111111000100000
1111110001001010
1111111100101111
1111001100
11001111101
11101001101
1111001011
1111110111000010
1111110011101001
1111110111011110
1111110100001000
1111100111110010
1111100000010110
1111100100000010
1111110101111110
1111111010110110
1111110111101000
1111110011110000
1111110111101001
100101111
1001101110
1111110100
1111000001
1111111101010111
1101001011
1111111100111101
101111
1111110101110101
1111111101110111
1111100100010001
1111101010110000
100100010
1111110110010010
1111101001001110
101000110010
100100100100
1111100111001011
1111000101
11110111
1111111001011111
1111110100001001
1111101010101010
1111101010000001
1111100111000111
1111010111100100
1111100101100001
1111110011100001
1111111011101101
1111110101101100
1111110001
1111111111010010
1111100000001001
1111111111010101
1011001110
1101011101
1111111010100111
1111011011001111
1111101001010101
1111111101100110
1110000010
1001101110
1111111100100110
11001110001
1111111101010000
1111010111110011
1111010000011100
1111110010110001
1111011101110110
10001010100
1111110010010111
1111110010011111
1111100100010010
1111010000000000
1111010101100010
1010101001
1110000101
1111110110011000
1111111111011100
1111111010100101
1111101101001110
1111111110100011
1000111000
100100110
1111101001110111
1111110101101101
1111111010101001
1111111010101100
1011010110
1111111111011100
110000100
11110101
1111101100011101
1111010101001101
1111101100010101
1111101011100111
1111110011010011
1111110111010101
1111110101110111
1111110111000111
1111101110011101
1111101001010001
1111101111110101
1111101100101010
1111101110110011
1111101110010001
1011100101
1111110100010100
1111110100000000
1111111101001100
1111111001000000
1111101001100101
1111011010000101
1111011000110001
1111110001111101
1111011110010111
1111110100110100
110100001
1001101100
1101110010
110011111
1111100011001010
1111101101001011
1111011010010111
1111100011010000
1111110110000101
1111110001011001
1111110110010011
1111110010000101
1111110000010010
1111111101011111
1111100110100001
1111110011111111
1111101010001010
1111111000000011
1111110001101010
1111110110001110
1111101110101010
1111101101001001
1111101010110001
1111111010100110
1111011001100010
1111110110101011
1111110011000110
1111100100100011
1110001111
1111111111101100
10001010
1111100001001110
1111001110000101
1111111010100001
11110011
1111101101001010
1111110010110100
1111101000111110
1111101100010000
1111101101011101
1111110010000111
1111101111010011
1111110101101010
1111100100011100
1111110000010110
1111011001100101
1111110000110001
1111110100100111
1111011111011000
1111011011110110
1111100001111110
11000000
11001000
100111110001
111001
1111100101100001
11100000
101111
1111111111111000
11000001001
110000011110
100010000
10101000011
111000101110
1111110101110011
1111101101111001
1111101011001010
1111110001111010
1111100010100000
1111100111111011
1111101000010111
1111101101000100
1111111101001010
1111101111111010
1111111001001001
1111010111000100
1111010010101010
1111100101111101
1001011001
10001111001
1110100001
1111101010001100
1111110011100001
1111111110010111
11100011
1111111011000011
1111111110011010
1001110000
1111111011100100
100011111001
100110001101
10011010011
110001110011
100101101100
11100111111
10011100110
1110100010
10101101011
1111111011011000
1011010000
1001010101
1111110101000111
1111011100010111
1111010100111011
1111101111101111
1111101100111101
110110010
1111111001100001
1111100010011110
1110101000
10011100001
1111111100100100
1111111011111110
1111111111101110
1111111110101010
1111111111001110
1111101111
1111001110101001
1111001111
110001100111
101000110000
100100111110
111000110000
110010101001
11000111011
10100010
100100100010
110101100110
110110110010
10001010011
1111110111101110
1111101101000100
1111110001001001
1111111011110000
1111111000100000
1111100010001110
1001001011
1111110110010100
1110011010
1111111010111110
100011
1111111100101000
1111111111111110
1111111011101001
1111111111101111
10010110111
11110000011
1111110010111001
1111111010100111
11011111
100010010001
101000000111
111010100
11000010
111110011010
1100011011010
100011011010
110010001011
11111100010
101100
1111101100111001
1111110011011010
100111110
1111111000100000
10110110010
1111111011001000
1111111110100111
1111111111000110
10111011
