10101
10100
11000
10100101
10100
100001011
1111111111011101
1111111010101001
10100000
11110001
11111001
1111111110110111
1111111011000011
1111110001001010
1111111011100010
1111111100001110
111000
10111010
1111111010100010
11011100
1010100
1111111101010011
1001111
1110011
10100000
10010010
1111111101101100
101
11101001
1
1111111111110110
1111111011010000
101101010
10110011
10001100
1110010101
10000010101
1011001000
1001001100
1101010000
110100100
1111110110111010
1111011001110010
1111110101010000
110100000000
111111011001
1111111001111011
1111110110110110
1111101001111110
1111110011111101
10110101110
10000000110
1111111110111010
101000110
1111111011011001
1111111110110010
100000001
11110010
111000011
11001000010
11001100100
1001110001
11001100010
110011001
11101101000
10001011001
1111111001010101
1110001111
110010111111
1111111011010100
1111101101100011
1111100100111101
100000010
101101011010
100101100100
1111110001111100
1111101001111010
1111011110000111
1111110110110000
1111101010010000
1111101101001010
10000101100
110100
100010110
101000001
10001000
1111100000011001
11001001110
10111100011
101010000
1011010101
1111110101010001
100001010010
11100111011
100001111101
10101111110
11010010101
100001100110
11101100011
11001001110
101000110
100001011101
10100110011
1110000001
1100101000
1111111111000010
1111011010011101
1111011010101101
100010111
111100010
101111011011
100110111
1100
1011100110
1111100000010101
10111101110
1111100100100010
1111101010111001
1111110000
11111100100
1111111101100111
10101111100
11100101011
110010111110
11101110001
100011100
1000010010
101010110101
101000010110
11100111111
100110111001
10011111011
1100
1111101100
110100100
1110111100111100
1111101001111011
1111110101011100
1111111011010111
100010011101
100000
1111111110101100
1111010111001010
10110001110
1111101111110111
1111110100011000
1111
1000101100
100001011
11000001100
10100010111
101111010110
101010100101
101011010001
110000010100
110111001011
101101110100
110101111010
110100101101
10110011010
1111111101110010
100001000010
1100011001
1111011011000000
1111101011010111
1111110101100100
110001110110
111100101
1111111111010100
1111111010101011
1111111111
1100001110
1111110111011101
1111110001010100
1111100000011011
1111100101111110
1111110001000010
1111101101000011
1110000101
11111100110
100111001111
100010100100
11111000111
101000001001
100101010110
100100001100
11101000000
10011101001
1010111001
11111010101
100111001111
1111111101110111
1110000
1010011001
1000101101
1111110100111011
1111111100010001
10011111000
1111111010110000
1111110001010010
1111100111101011
1111100010111010
1111100000010010
1111100100100100
1111110011101000
1111110000000010
10100000000
1111000111
1001010011
1111111110011001
1111111010010111
1001001010
11000110100
11110110101
101010001000
10110110010
10000100100
10110001000
10001100000
10101110110
1011011111
101011110011
1111111010010011
101010001
100001010101
10110101110
100000111
1111111010100001
1111111111100001
1111110011010001
1111111000001010
1111110000011000
100110011
1101001001
11110100
10001101101
10000110
1111100010101001
1111011110110100
1111110000011110
11000111011
10101001101
10110110110
100010100100
1100011100
101100110
101001001110
101110110101
1000101100
1111110101110110
100010110010
110010011101
1111000111
1111101011111001
11001100000
1001011100
1111110000101100
1111100111011111
1111111000000111
1111110011010110
101101100
1010100
111000011
10101000
1111110110011111
1111100010010000
1111001011011100
1111100100110000
1111110111010101
110100111
101110101
11111100111
10101111100
1100111101
10111111101
100111011001
100000010111
101100101000
10001001
1011011110
1101110001
1111100100110011
11010111100
1111110001000101
1110110110001011
1111101100010111
1111111111101011
1111110001010110
1111101100000111
1111111110000010
10000010101
11111111
1111110011111001
1111010110101111
1111010111010000
1111010010110001
1111101110010001
1111101100111011
11000110
101001110
10101111101
100010000000
1111111000110001
10101000001
1111111010001000
110101001111
11101001
1111101010010100
1111111110011011
10110010001
1111010100111011
1111100000100010
1111110000000010
1111011000000010
1010011100
1111100011000100
1111101011110111
1111111101111110
111000000
1100011110
1111110111010111
1111110100100110
1111101101001000
1111100000101101
1111011111001011
1111111100100100
110100111
1111111100100100
1111111101011101
1100010000
10011010
1111111111011100
1111011111011110
11010100111
1111111110000010
1111111010001010
1111111000110000
101001111
1111010101011000
1111110000010000
1111110111000101
1111111001001010
1111101000110001
1111111001101000
1111110110101101
10001011110
1111000000
10110010011
1111111101010110
1110000011
100010011111
110100111
1111111011001101
1111111001011001
1111111101010100
110111111
1111110011011100
1111100011011000
1111101001010100
1111111100011101
1110110101010100
1111100101000101
10010010010
1101000000
10001011000
101110001
11
1100001001
10100000000
1111101110111000
1111010110010010
1111111010001110
1111110001111000
10000010
110010111
10000010110
1001110110
101010000000
110000010000
1010111100
1111110111110111
1111110101101111
1011100
1101000111
1111110000100010
1111010001110101
1111101010100101
1111111001011110
1111000100100001
1111000010110101
1111101000101110
1111110110101010
111001100
1111100100100010
1111101010110001
111110101
10101101000
1111111011101100
100010001
1111111101000001
1111111011110011
1111111001001111
1111111110001110
11101001000
100010010111
101111010010
1011100001
1111110000010001
1111100011010100
1111111101110111
100011100
1111100011111001
1111100100100001
1111110100110000
1111010101101000
1111101110101100
1111000000010010
1110110111111001
1111100111101000
11111101000
1100001110
111010111
1111101111001101
1111101011100011
11111010101
1111111110100110
100110111
1111111101001011
111110111
1111111101011000
1010011000
11011101000
100111111101
10101111110
1111101100000011
1111100011010110
1111011011010110
1111101110100111
1111100101001100
1111011000100111
1111101000101111
1111101110001110
1111101110000110
1111111010010011
1111011100101010
1111100100010010
1111100100100000
111100
1111110111100110
11011110100
1111111010111100
1111110111000101
10001000
1111111100001100
111001
1111110110110011
1111110010010001
100111
11011011001
101001110011
101001110111
1110100
1111001011101100
1111011110011011
1111100100100001
1110
1111011010111101
1111101010011101
1111100010001100
1111110001000100
1111110111011111
1111110110111011
1111111001111111
1101100
1111111001101111
11101100
101000111
1110010010
1111011110101100
1111101010111111
111010000
111110100
1111001
1111110111101001
1111111001010000
10001100111
11011010000
1000000011
110100110
1111101101001110
1111000011101101
1111010110000000
1111101110010000
1111111110101110
1111010101011101
1111011111110011
1111100100000111
1111100001111000
1111100101100011
1111011100111111
1111110100110101
1111000011000101
1111111100110001
11111000011
11011101101
100111111
1111010100111001
1111100011111010
10000101011
1001101001
100111011
1100011100
1110000010
10011011101
11001011111
10100000011
1001010010
1111101111101110
1111000110110111
1111000101101010
1111100100001110
1111110011010011
1111101000111100
1111111011000000
101000000
1111101010100111
1111100111110100
1101001000
10010110110
1111101110001000
1100000001
1111011100010010
1111101110110000
100101000010
1111100111001101
1111101010010101
1100000100
1111110010111111
1110001010
10110101100
10000100000
11101010100
101101100000
1001011110
11001001000
1111101101010001
1111001100111011
1111000101110000
1111011001000001
10100001
11001111010
111000111
1111111011110011
1111111011001101
1111101100001011
11100001000
111010100111
10010111101
101111000100
1111100100111011
10000110
11101110001
1111101101010001
1101110011
110011011100
100100011111
111110011
101000000
1101010001
1100010111
11010001000
1001010001
111010111
1111111010111100
1111010101000000
1111010111111100
1111100101001110
1001011
1111111110000111
1111110001110110
1111111101100011
110010001
110101001
10101010010
11110111110
100110011
101011100001
1111111000111011
1111101011101110
11110111011
100011111010
1100001010
1111110111011101
1111010100000101
10100001010
1111101100110010
1111111100111000
1110110
110110101
1111111010110011
1001101010
1111111011100101
1111101011111101
1111011110001001
1111101101100000
1111111100111110
1111101101011000
1111101110001010
1111111001010011
100111
1010010100
10011011111
11110000
11101010
1000010001010
110001111
1111101010000101
1111101110111101
101100111101
1111111011100010
1111101101000011
1111101011100011
1110
100010111
10101111
1111111000101101
1011000
100100110
11101101010
11010100110
1111100110
1111111000010101
1111111010010111
1111110110100010
1111110001110100
1111110110000000
1111110101111100
1110001011
10001111001
111101001
1111101101011100
101101100
10001011011
1001011000
1000111
100010011
111110101000
111111110100
110011000011
11100001101
1111111001011011
10001111111
100101000111
110100010
1100100100
100010000010
11011001010
100011011111
100101110000
1011001011
1111110111110001
1111111011010001
1111110011010100
1111111100101101
10011011100
1100001010
100000001110
1111111111010001
1001101100
10111000000
1110110010
1111111110100110
1111111111001110
1111111110011101
1111100101101011
1111111101000010
10110100110
1010101100
1101011011
1111101011011101
1111001
1111111001010001
1111110101011010
1000110110
11011011111
1000110001
1011000111
1011110000
1110001101
11100101010
111010100
100100011
10100111000
11110010001
11100001000
1111010101111000
1111110110010100
1111100101110001
1111110001100000
1111111101101001
1111111111001011
1111111111001000
1111111011111100
1111101111101100
1011100100
1101011101
1111110011000010
1111111001010000
1110001101
1101100001
1100101011
11001110
111111111
1111111110101111
1111110001111100
1111111110000101
100001110110
11011011111
10111011001
11101101111
10010011100
11000001011
110110100111
11100011111
10011000001
10100001110
1001111000
1110101
1111111011101000
1111111100110101
111100
10111110000
1111101100000001
1111101010100110
1111101111111010
10101011110
100110110
1111111110001011
10011101110
100000111011
1101001000
1111110111110001
1111011000010011
1111111101110110
1111111100011100
1111101111110010
11100010010
10110000101
11010010100
11001110101
10101101010
1111011111110110
1001000010
1111111000001010
1111111100111111
1111111100111000
1111111101110001
1111
100110
1111111100001001
1101011100
1010011010
10000001
1111100
1001011
1111110001111011
11001110010
11111010
11001111101
10100000110
110000110110
1111111000011010
1111110101111000
100111010
1011000111
11111000
1111110010010000
1111110010100111
10000010
1111110101000001
1111111011101010
1111111010100010
1111111011101001
1111111010101010
