11000010
1111111101000111
1111111100100111
10111010
1111111011010101
1111111010110100
1111111101110001
11011001
10100000
10101
1100001
1111111111100100
1011000000
10111001110
11101000000
110011101
1111111110001101
11
1111111101101100
100000001
100010011
1111111100111011
1111111011011101
1111111100111001
1111111011000011
11111110
1111111101110010
1111111011011011
10101011
1111111100010101
1111110
100000000
10010110001
10000001010
11100111110
110011010
10100010011
110011000000
111101000111
101000010000
10101010000
11001010100
1111101100110000
111000111011
110101111010
100010111111
1110001010
11011101011
10010010000
1111101000111001
1001000111
101110101
1111111111011011
1111111011001110
1111111010101111
1111111011011000
101011
101000001
1000001100
11100101101
11101110100
1101101
1111100101000110
1111111010111100
1111101010010011
1111110100110010
1111011000101111
1111100110111101
1111101010000110
1111010011001011
1111010001111101
1111010101000111
1111101010110011
1111011000000110
1100101000
110100000
110011111
1111111011000000
11000101101
100010100111
10101110110
10100010010
100100101
100110
11111001
1111111011100010
10001110000
101100100011
11101001010
10010011
1111100110000000
10001100011
10011001001
1111110100110110
1111011111110111
1111011111010101
1111111000000111
111110110
1111111000000111
101001000
10101011101
1111111101111111
1111101111000010
1111111101010111
11011011110
1010001101
1111110000110110
1111110100110100
11100011111
1111111101100001
100000010010
1111111110101000
1111111010101001
1111110100101001
11100011000
110101100110
1111101011001011
1111100001010100
1111101001001011
1111101010001011
1111101100110101
1111110010110010
100110
1111111010001010
1111100101010100
1111100110011011
10010101011
1000010110010
111001000101
110001001111
110110110001
1001110010
1111101100111001
1111111001011101
1111111001101011
1111110010011110
1111100011111010
1111101100000111
11110111100
10110010000
1111111100000110
1111111100001100
1111111110111010
101110000
1111110111100010
1111100101110101
101000
10011001
1111100100011011
1111101011000010
1111101010111101
111010100
1111111011010101
10101000
100100110
11001011101
1000000010110
110001001000
11101111101
1100001
1111101010100110
10011101011
100101101
1111111011110110
111011000
1111101110000101
100101011001
1111111001001001
1111111111010001
11101001
11110010111
1111100101111101
1111100101010001
1000
1111110001111010
101001
1111001101
1111110110010011
1111111110111101
1011000100
10101111000
11001010101
10101000110
10101100010
100101001100
1010011000
1111110110000000
1111101001010010
1101001
100000101011
100010100001
1111110100110000
111100101
11111100100
10010011
100011000000
1111111011111001
1111111100111000
111011010
1111110000101001
1111110001101011
1111110110111111
1111100011101010
1111101111111110
11111100
11111110
1111111111100110
1011101000
100100010001
10110001011
1001010110
10000001110
110000000
1111110110011100
1111111100001010
1111101100100011
11110100
1100111000
10011011101
10011001
11100011
10110100110
1111011000100100
100111100001
101000100000
11001000
1011011100
1111111001110111
1111100011011110
1111010000010010
1111101100111111
1111101110101000
1111110000000001
1111110000010110
1111111101110010
1110100110
101111010111
110000101101
11010110100
10011000010
10110110100
1111111101110110
1111110001100001
1111111100
1001001000
1111100001011101
1111011010
1110111111
11010111
1111110101110011
1111101011100001
10010010000
10100000011
1110001000
110001111
1110111110
1111111111111010
1111111011111011
1111110011110100
1111101011001110
1111110011100111
1111111001001100
1100011000
10111100010
101010110010
100100011011
101010010110
101000011001
1101010101
1111101000010111
1111101000110100
10110010111
1110011101
1111011
110010101
111110
100100010010
1000011001
111001011
1011011011
1101000110
1111001011011010
11011100
11000000001
1111110000110010
1111111001011011
1111101100100011
1111111001100111
1111111000101111
1111111101100100
1001000010
1101000111
10010101110
111010111110
1010001010001
111101101110
1111111011100001
1111010110111111
1111101010100011
1000110001
101101100
1101111110
1111111011101010
10011010000
11001010110
1111100001100111
1110010000
10111111110
1111101001110000
101000100000
1111011000110010
1111111111011110
1111101111100001
1111100100110001
1111111000000110
1111100010010001
1111101011101011
1111111001100011
1111101110101000
1111111101001000
11010001
110000010010
1000100111010
110111000011
1111110010011011
1111011101111011
1111110011011110
1111101100001111
1111110000011100
1111111101001111
1011110101
11101010011
1001110101100
10001000000
11000001011
1111110101101000
1111110010001111
1110000111
1111010001111000
1111111010001111
1111101110101101
1111110000101110
10100
1111111111111001
1111101100101001
110001111
1111101000010000
1111110001111000
101101000
100011111010
1001000100000
11000000001
1111100000001011
1111101000110101
1111101110110110
1111100101100011
1111110101001001
1111111101011000
1111110100000000
1010100011
11101111111
11101100001
100001101110
111010
100110110
1100000000
1111111010111100
101100
1111100101010000
1111110110111101
1111111100101001
1111101000010000
1111110000111100
1111101011110100
1111011001000101
1111101010010101
10011010110
101100111110
1001101111100
10010001100
1111110111001110
1111101011010101
1111100010000010
1111111011000011
1111111000101111
110100001
1111110100011000
1111110111010100
11010001001
11001110110
101100010111
111000110
1011011100
1111110101001000
11101101
1111010001110101
1111101000101010
1111101100100001
1111111000010100
1111101100001110
1111110010100110
1111100111000100
1111110100111100
1010011100
11111110111
110001001110
1000001011101
10110101000
1111110011011000
1111011111111110
1111011101001111
1111100111010110
1111111001000011
1011110
1111100111010011
1111111001100011
1111110111011000
1111111001111001
100000110001
11001011011
1111110100110010
1011111011
1111111010010010
1111010010100110
10111001100
1000010101
1111110101010110
1111111010100101
1111110010011000
1111100111101010
1111111011000110
10000000011
101011000010
111000000001
101111101000
10100111
1111010011110001
1111011101001101
1111100110011000
1111110010110010
1111111111101001
1111111111010111
1111101001000110
1111111011110111
100101000001
10111111110
1000110110
1111101101101001
1111100100001101
11110100001
1111111111001010
1111100100101100
1111111010111100
1111110101010110
1111100100000111
1111110100100001
1111100110101101
1100010
111001100
10110100100
101001010000
110011000010
11000001001
1111101000110000
1111011010001000
1111010110111111
1111101000000001
1111111011000011
1111110001010110
1011011
1100101010
1111111111111010
111010011
10100000001
11101010101
100000101101
1111111111111001
10100010001
1111101000101000
1111110110000000
1111110011111100
1111111011111111
1111101000111010
1111111100100101
1111110111001001
1000000101
10101101101
100001001000
1000100001000
101110101011
1111111011000000
1111011000110010
1111001010001100
1111010110100000
1111011100101000
111000
1111101101100001
1111101010101010
11010000110
1111111011111101
1111111100100000
1010101000
1001
101001100011
10010011011
11100001
1111101101111011
100000110
1111111111101110
1111101011001010
1111100011101110
1111101110110000
10011001111
100110011101
110011001010
1000111010000
1000101001011
11110010101
1111101011110011
1111001011110101
1110111001101110
1111010101111011
1111100001001101
1111101000001000
1111110010000111
1111110000000011
110001
1111110110001000
1111101110110111
1111111111100011
1111101000111110
1111101101111010
1111111011110001
1011010110
10001110101
1111111110110101
1111111001110011
1111110110010101
1111100100100100
1111011111001111
1111101110000110
11010010001
110001000111
111101011101
1010000110111
10010111111
1111101100001010
1111010011110010
1111001111110000
1111011111000000
1111101010000100
1111110011001110
1111111100010111
1111111111101101
111000110
1110011011
1111111001100111
10001010010
110110001011
1001111
10010
1111110101000110
1111100001111101
1111110100010111
111101100
101011
1111111010011100
1111111101010100
10001101010
101101010110
111011000110
111110010000
100001000101
110100011
1111110000011001
1111101000011111
1111010111000011
1111010100101111
1111101010001111
1100
1011100111
10100001000
100001101101
100001110011
110110
1001001110
101100011010
1111110110110011
1111111100001000
1111100101001001
1111110101101010
10101110011
101011111
1111011111001010
1110000000
1010000100
1111111101010111
100111100101
111110100010
101100101111
1101001100
1111111001000000
1111110101000011
1111111001000111
1111101001001111
1111100001101100
1111101010111110
1100010011
10100111101
1000100
1011
1101101110
1111110101011011
1101000
101011111110
1101110011
1111111111100100
10111110
1111111000111011
1111110100011000
1111111100010001
1111111001011010
1111111011100000
1111110111101010
1111111011101010
100001010
10010001011
10111011000
10001010111
1111101000
1111100001
1100111110
1111101011101011
1111110001001111
1111110110100101
1111110011010010
1111111001011110
1001101001
1111111010011011
10000000000
1111101111101010
1101101110
10011111110
1111100011
1111111100101111
10010101
101001101
1111110000100000
1111110111010111
1000110100
1111111000100101
1111110011111001
1111110000110000
1111111100110001
10000101111
101001011101
10010011010
11111101011
10101010011
101101110
1111111001110000
1111111110000111
1111111101110111
1111101111001111
1111110111010010
1111110110111111
10000100
1000000101
1101100011
1101001000
1000111000
1111111011101010
1111111011011010
1111111101001111
1111110001010010
1001110100
1001111000
1111101111001111
1110001001
1111110111011100
1111111011101100
1111111101111001
101100110
10100001100
11101011010
11001100000
11111001111
11100110
1111111111011111
100101101
1111111101010100
1111110111011001
10101101
1011111110
11101010001
1111111000011100
100101001010
1111101110000001
1111010111
1111111011100110
1111111101010001
1111111111110111
1111110001000011
1111100110000100
1111110111001001
10000000
1111111111100000
101111011010
11011011011
100001100001
10011001011
10011001111
1101101011
11001111001
110011010
1111101101111011
1111110000001110
1111110011001110
1111111111000100
100111010
11001
1111110101011110
1111111101000100
11011101
11100101001
1101100
10100011010
1111111110001011
1100101
10101100
1111111110101000
1111111001000001
1111010101101100
1111101010001001
1111001101101001
1000010
1111110000000100
1111100001000001
1111111101001000
1111111101110010
1000010001
1111110110111011
1111100101110010
1111101100100001
1111010110100000
1111001100110000
1111110101001110
111001010
1011110
1111101000001000
1011001
1111111111100010
1111101010101000
100011000
1111111010101100
1100111
11010010
1111111011011101
1111111100100110
100000
1000100001
100001101001
1111110011111101
1111111000000001
1111110111001100
1111101100001100
10111011011
1001111111
1111111010100110
1111101001001000
1111110101011000
1110111010011000
1110101011001011
1111100001100000
1111111011
1111111110100110
1111010100000110
1111010001111101
1111011101101011
1111110000100001
11001100
101001110
100111001
1000011
