11010101
1111111111110011
100111000
100110000
1000110
1111111011101000
1111111101100001
1111111100001111
101000100
1111111010101011
1111111011000100
1011110
1111101110011101
1111101110011011
111100001
101000000
1100111
100001011
1101001
1111111110010110
1111111101100011
11111100
101
1111111101101110
11001010
1111111110001011
1111111101011111
1001111
11100000
11101111
1111111010101111
101001001
1111111000101111
1111110010101001
1111011010101110
1111001101011111
1111010010110110
1111001011001101
1111000111100111
1111000001110010
1110110101010101
1111100101000000
10111110010
1001100110
1111110101010010
1111010100101110
1111000110100011
1111001000100000
1111000010111111
1111010000010111
1111011101011100
1111010100000010
100001010
1111111110001010
1111111010111001
11011011
101011011
100110111
1111110001100111
1111100000101101
1111011010011011
1111000011110010
1110010100011001
1111000101000101
1110100000011011
1111010010010110
1110111011001000
1110110001010100
1101110011001000
1101001101011100
1101101010110011
1110000011000111
1110111001110010
1111101001010011
1111100110011111
1111011111111111
11100
1110000011011111
1110101111100111
1111000110100100
1111001011011010
1111101000111001
11100100
1111111111001011
11100111
1111111110001101
11000001010
1111011100000111
1111011111101101
1111001100001001
1110111011101111
1010100110
1111100110100100
1111011010100000
1111000001011000
1111011000000100
1110110111110010
1110110111010000
1110110011010110
1110111001110110
1110110100110010
1111100101110110
1101011001
1111110111010011
1111110101100110
1111101101101100
1111011101001101
1111001111010101
1111001000000000
1111111000011001
1111111101010111
1111111111110000
1111111100011000
110111011
100000011000
10111011101
1100011001
1111110011001000
1111110100010100
1111100010000001
110000
1111100001110111
1111110101001110
1111111010110000
1111101101111101
1111101100101101
1111110101100010
1111111010000001
1111110110001100
1111111100011100
1100111100
1111110110101010
1111101001000110
1111110001101001
1111110011111011
1111111100001101
1111101111100000
101010101
11111010111
1111100001001010
10010010
1111100
100101000
1111101010000001
100110001
111100
1001100010
1010111111
1111101101000000
1111111000101010
1111011111000101
1111111000010100
101001111
1111100101100111
1111101101000001
1111110000101101
1111111010001110
1111111000001110
1111100010111000
1111011000101100
1111101100100000
1111111000000010
100100010
10011000
10100101110
10111111000
11010001111
1111101111010101
1111111011000010
1011100001
1111110100101001
1111101001001011
1111101111110010
100010000001
1111111110101010
1000110011
101001101
1111111110111101
10000100
10100100
1111110011000000
110101101
1111111011100111
1111110111110001
1111110000100110
1111101100001000
1111110110001000
1111101111011000
1111101010011101
1111110010000100
100010110
10110011011
110111001110
111100101011
111101011011
101101010110
1111110110101001
100011011010
1111110010100111
1111110000110000
1111111111001110
110110100
1111111111101010
10001100011
111111
1111110110110000
1111111000101011
1111101010100000
111011110
110101011
1111111000110100
1111110101000101
100001
1111101101100101
1111111110011100
1111111110100001
1111111010100100
1111111101001001
111101
1111111101101100
10110101100
1110110011000
101101110110
1000001000100
1111011010111010
1111100100110100
1111110101000111
1010000111
11101110100
1101101
10100000
1111111001010110
10000011011
1111111110101010
1111101111100010
1111110000010001
1111111100011011
100011000
1111110110101111
1111110100100011
1010101110
100110100
11111001001
10010100001
101111010
1111000001
1111111111011010
1111010110111110
110111100
1101000001111
100100100011
101000001110
1111110100000101
1011001000
1111110111011101
1111111011100010
1101010000
1100
11010111
1101010110
10111101000
1111111011001011
1111111011110110
1111111000110000
1111111000001111
1111111100011000
1111101101111001
1111101101111011
1111101010
11001100111
10000010101
101101001
1111111001001011
1101010110
1111101111001111
1111111010011001
10101110100
101011111001
100001111100
1000001110
1111111111111110
11010110001
1111110111001111
1111110000110111
111010000
1111101101001101
1111111011001010
1110
110011
1111101010001101
1111111001011001
1111110101100111
1111111110000110
1111101011110001
1111101111010101
1111110110011100
10000111011
1110001001
101110000
110010
1111110101000111
1110110111
10101100
1011101101
1111111011110010
10110000001
100000010
101110101011
1010111011
1111001111001000
100110110
1100100011
10100001011
1111111100110101
111100011
1111110100011110
110111001
1111110010100001
10010100
111101111
10111110
1111110010011100
1111110001101101
10010010010
10101010110
11000000001
1010101100
1111101010000011
1111110110000100
1111101101110000
1101011010
1111111100010111
1111111111100001
101100111010
110000100010
101110101011
1001001000
1111101101100010
1111110110011000
110001110001
1111110011100111
10111100101
11110110000
10100011010
111100010
1100111110
11111011010
10010001001
11111110110
10111000000
101000111000
10101110110
11011001011
10000100101
11000010
1001011010
10011011
10011100110
10000010011
1111111110000110
1111100101110000
1001010000
100110001010
101010000110
10101001110
1111100000001111
1111011001101110
101010011010
100010000
1110001111
11001010000
110010101011
101110000100
100110111010
100101010110
111101000100
101000010100
101101110100
101001100001
10001011110
1111111111101111
1110000101
101010000
1111101111011100
111010110
10101100110
10110110001
1111110001011000
1111101010011100
1100000001
11111110100
10001000000
1111110010101010
1111111111001001
1111111100001011
1111111011111010
1111100111101111
10000011
1100011111
10001010011
100000010101
11100100100
11111011011
11110010000
101001101110
101011111100
101011111011
11001100000
11001011010
10111111100
1111111111001111
1000100000
1111101110000100
0
1001001110
11100000010
100000111110
10101110001
10000101010
1111011111100110
1111101110011100
11100100011
1000010101
1111110011100000
1111001111101101
1111011111000000
1111101111011110
100001010
11100110100
10111000010
11000000101
110001100000
110000001110
101100011010
101111101100
110110111000
101000011100
111011110110
10110111100
1111110110010101
1111110010001001
1111111011010111
101101010011
11110001000
101000101101
1111110101010100
10110011110
1111101011001001
1111110001101110
11001110011
1000010101
1111110001010000
1111100110000010
1111010011010101
1111011011001100
1111101101111110
1111110001011111
1111111001001110
1111111101000101
111000100
100011001111
101100111000
111001100000
110101100100
101010010101
11110011101
110001101
1111101110011111
1111101110001110
1010001000
10000010010
1111111100000101
10011011011
1111101010101111
1111101101011011
11001101
11111111
100101000010
1111101001000110
1111010111010101
1111001110110011
1111100101011010
1111100101100100
1111101011010001
1111010100111001
1111011101101000
1111010001100100
1111100100010001
1111111101000011
10010000101
101111010010
101110110111
10001
1111101000001111
1111011001000001
1111101111110000
1111101001000111
1111111101100001
1100010011
1110001010
110110110
1111100100011001
1111101010001101
11011000
11000000100
11101000000
1111110110001110
1111011101100000
1111001100101110
1111001110111011
1111101001111110
1111101100010011
1111000110100101
1111000010111011
1111010000000101
1111010000010101
1111000111000010
11011101
10101111100
1111110001011010
1111001111110000
1111000100000011
1111000111010010
1111001011101111
1111101000010111
100001000
1111111101111110
100000100011
1111110110000100
1111101011111100
10000
10011000000
11000000000
10101010100
100111100010
10100100110
1111100111010001
1111100111101010
1111101001000110
1111010111110010
1111010000100101
1111010100010000
1111001010100001
1110110011100011
1111000000001010
1111100010111011
1111101010000101
1111110100010011
1111110000111101
1111100011011101
1111010111001010
1111010011011010
1111011010001101
1111110000001001
1111101001010111
1111111010111100
11010001001
1001110100
11101
100110010101
1111111100011001
10011100110
10100000010
1111110100
10000100101
1111100000011110
1111111010000111
1111100010010111
1111100011001001
1111100011011100
1111010100011010
1111011101100001
1111011000100101
1111101000001010
1111101110101111
1011001010
1001011001
101110010
1111100000010000
1111011111000011
1111011001010011
1111101101001000
1111110010101111
1111110001001101
101000001011
1111110000
1111111010111011
100000101000
1100100010
101000011010
110100011001
10001001111
110011100
1111111111001111
10011101111
111111001
1111111001000100
1
1111110100001100
1111110010101011
1111100010001011
1111011001101011
1111110100100100
1111111101110000
1111111100001101
1111110001101100
1111101110101100
1111101011110001
1111101010100111
1111111001001001
1111111001111000
1111111100101011
1111111100000011
1000010111
1111011100011011
1111111100111111
1110100001
110011111
100001010111
11101011
1010000000
1000111101
11100110110
10001010101
11010000010
1011110010
1111111101111010
1111101110110110
1111101101010011
1111110100111101
1111111010011100
1111110111110101
1111011101000001
1111100110111110
1111100110110100
1111111001101010
1111101110111100
1111100100100110
1111110001001010
1111101110110000
1111110000110001
10001110100
1000110001
10110111
10001
1111111110001000
1111111011011110
101010011
1111101010101101
1111100001110000
1111110010111101
10110110100
10001110100
1110000101
1111111011011011
1111101011101000
1111111100000000
1101100001
1101100
1111111100111010
1111111100011101
1111101110111011
1111101111101011
1111110010000000
11110
111011001
1010010000
10110011100
11111111010
10010101101
100001111100
1111111100101100
11110100
1100001
101111000101
1111101100
1111100000010110
1111101011110000
11101011011
1001011111
1111111101101100
1111110001101000
1111101100000010
1111011110010000
1111100100000011
1111111000101110
101001010
110111
110001001
1110001010
1111010
1111111011100010
1111100001011001
11000011
1111110110001000
1000001010
1111111001011101
1111100010111100
1111011111001100
1111111111111111
101000
1111111101111101
1001111100
1111010011011000
1111011111111101
11001011000
11011001100
110100101000
101110001010
110110111111
100000010111
1111111100101111
10000000001
100010110101
100001111101
11010101001
100101001011
1001100001001
1010101000010
1000010000011
1111110111000000
1111100100010101
1111101000001001
100010110
110011011011
1111101010101000
1111101111010000
1111111101001000
11110010
1111111110111111
1111111110011100
1111101010100100
100011101
1111111101010101
1111100001010110
1111110010010001
1111110010100001
1111111101101111
110001101101
110100100010
111010101101
110110111101
100100000010
100111011101
110011100011
1000010010110
110001001010
11010111010
11011110111
1111100011111001
1111010101010100
1111100011001000
1111101010100101
1111111001011000
1111111110111001
100011000
1111111110100010
100110111
11000101
1111111100100100
1111111110101111
111110010
111101100
10110100
10000111011
11100110000
1111111011111101
1111110001010001
1111010100000110
1111100001101111
1111111001111101
111110011000
1111111100011000
1110101011100111
1110100111000111
1110110001011111
1111010011110110
1111101000111010
10110010101
1000100
1111111100011001
1110111
1111111011111101
11101
