1011111
1111111110011100
1011100
1111111111010010
1111111111001110
1100101
1111111100111001
1010
1111111011111111
1111111100000101
100000100
10001011
100111
1111111011111111
1111111010011111
1111111100001111
1111111111010001
1111111111000100
1000000
110
1100010
1111111111101001
1111111011010001
1111111101010010
1111111101010001
101001001
11101110
10101101
1111111011011101
1111111111000101
1111111111111111
1111111101110011
111
11111110
1111111010001011
1111110110011111
1111111000001100
1111110001000100
1111100100100000
11010010010
10111010111
11101101111
1111111011000000
1111110101000001
1010001100
100101100
1111101001101011
1111100110001010
1111100110011011
1111101010001000
1111111010010000
1111111110110100
11001111
10101110
1111111011000010
1111111011011010
1000111
1111111011011011
10111011
10111100010
11101011001
1111101110101110
1111101011010111
1111110010111100
1111011101110010
1111000110000010
1110100111011101
1111011000010001
1111010100111100
1111100001111101
1111101110111111
1111100001111110
1111000001011001
1111000111010001
1110100100111011
1110110111011000
1101101111111111
1110010110000001
1110101111010100
1111000010101100
1111100011000110
1111111100011011
100110111
1011111
1111111111110101
11011
1111111100111110
10011111101
10000010011
1111111110111011
1111110111101001
1110111111010100
1111001100010000
1111100010101011
1111101011010000
1111101100001000
1111110011010010
1111110010010110
1001101010
1111101100010001
1011010111
100100100000
1111111110101000
1111100101110001
1010100010
11000001010
10101110
1011101
1111011110001010
1111110110100111
10011
110101
10000000
1111111111101010
1011101101
11011110010
1111100101010111
1111001100101010
1110101111110000
1111011011001111
1111011110110110
1111010011101110
1110111111010010
1111110100000111
1111100110110010
1111111100001001
1111101001110000
1111111001100101
1111111001000011
1111111111110000
1111111001101010
101010100
1111110001000111
1111101100011011
1100111001
1111111100110110
1111110110101010
1111011110101111
101
1110111010
1010110
1111111100101110
1111101011111101
11000100101
1111101100011001
1111001011101100
1111001100111101
1111011000101011
1111100000011000
1111001111010011
1111000101110110
1111110001000111
1111111000001000
1111110101110101
1111101000000011
1111101101001110
1111111101111010
1111101111
1101001001
10000110111
1111111011110010
1111100110000100
11110010101
1111111001110001
11010000000
1111111000011011
10101001100
1111110100010001
1111111011110110
1111110101100001
100001101011
101000011100
11111101010
1111011011111101
1111101010011001
1111101001100010
1111011101101101
1111000010100110
1111011101110011
1111100100001101
1111100011011010
1111101100001010
1111100001111010
1111010100010100
1111100000001011
1111111000010010
11001110011
10111000011
1011111111
10011011111
110011000101
10110010001
1111100110110110
10101110011
11000101111
1111101111101110
1111111100111001
1111110110111000
10011111001
100000001100
10110010110
1111101110111001
1000001111
11011011101
1111110111110111
1111010111111101
1111100001010110
1111011111111000
1111100110100110
1111010001011000
1111010100011111
1111011101001101
1111101011010000
11011011
11110101111
11101011110
1111111010011110
11111011
1001100111
10111001110
1111110101011010
100101001000
1111111010010111
10011100101
100000100010
100100100011
11100011011
100001111101
1111110010010000
10001000
10000101111
10001111001
1111101111011100
1111111010111111
1111110111011011
1111100010000011
1111101010010111
1111001110010011
1111001111111110
1111011011010001
1111111010000000
1100010
11101111110
1111111100100000
111001111
1101001011
1111101100111011
10000100110
1000011001
11111010011
1111111111100000
10011101111
1101001101
1000001011001
1111101010100010
11001100100
1111111000100000
1111111000111000
11101000001
1111111110100101
1111100101110110
1111111001001111
1111111110011100
1111101110110110
1111101001101011
1111011000111111
1111000101100100
1111010011000101
1111101011101001
11011110
11100000101
10010001111
1110010011
101010111
1110111100
10010111000
100000111111
1111111010100111
1111100010100010
100110100100
1101000001
1000100000111
100011110011
11111100010
1111100100110100
10110110000
11100110101
1000110110
1111111110010110
1111111000011100
1111111011100110
1101111010
110001
1111101110100110
1111011100111101
1111100111101010
1111100111011000
1111110010011011
111001011
10011111101
100100110101
100001101001
11010000001
11100111001
10100111010
1111110001001101
1111101010111010
11000100101
10011101110
110101111110
101011000011
10101010101
1111111110101100
1111111001110110
1111111011101100
100001011110
1111111010110101
1111110101010001
1111111110010111
10000001011
100001010
1100110001
1111101110101111
1111011100110010
1111000101000000
1111011100110111
1111110110000111
10101110111
10011000101
1110001101
100011101101
11100100010
1111011001
1111000100101100
101101101
100000100001
10011011110
111011101000
11010100
11000001110
10100001000
1111111111101011
1110101
1111111110110010
1011011110
11000100111
100101110010
100111100101
11100001100
1110100110
1111100010000000
1111010110001101
1111100001000001
1111101011101010
1111111101101010
10110001011
10000001010
1111110110011111
101000000001
100001101100
11101000001
1111101111000001
1111110100101111
1000100101
1111111001010100
10111100010
10111000110
1110111111
11010010110
11111111110
10011101000
10011011011
1111110110110111
10010110011
100110010101
101000011000
1110010001
1111101111011110
1111010011110111
1111000000100000
1111010001110001
1111100001100001
1111111100100110
1010
10000001000
10011001101
1100000000
11010011011
100110010110
1111111000001001
1111010110100110
1111110100011000
1111110101111010
10111111101
1001110000000
111100010
1111010011011111
10000011000
111000001
10001110011
11100100
1011011001
1001011000
1111111010001001
1111111110100001
1111101011110111
1110111101101011
1110101100011000
1110111000100110
1111010000011001
1111100101010001
1111110111011110
111101011
110110101
10101
110000111000
10001111111
10010
1111111110101010
1111111110010011
10100101001
1111101
1110100100
1111100100011110
1111101011110101
1111111111101000
10010011010
1110101001
111101111
1001111110
1010010110
1111111000100011
1111101100100100
1111010110100100
1111001100000110
1111101011110001
1111011101000010
1111100011001101
1111110111010010
1011010010
1110011111
1101101
1111110010010110
1011000001
10011001011
1111111010101011
1111110011101111
1111100000010010
11000110011
1001
1111100001101011
1111011110110011
1101101111
1011111011
11100110000
11001010011
1010111001
11101101010
101001111
1111100010010110
1110101001000010
1110111010001010
1111100110110000
1111101010010000
1111100001001111
1111110100100101
10100111001
10111011100
1111100100
10110011
1111111001001110
100101001
1111110011101100
1111011101000100
1111011001010000
1101001001
1111100
1101101100
1111110010011111
10101010110
1111111100110111
1110000111
1011101011
1111111110110111
100011000
10000101000
1111111000110001
1111001000100010
1110110001011100
1111111000110110
101
1111111000010011
1111101101011110
1111101100
1001100100
1111111111011001
11011100010
101100000
10101001
1111110001101010
110101011
1111110011100000
1111011111100110
11000111010
10100011000
100001111
1011110110
1111100101010011
1111101110111101
1111110110111110
1111110010111111
1111111010011010
10011000110
11101011011
1111110010100101
1111000001011001
1110110100101110
1111110000010010
10110000111
1111110100100011
1111111000010000
1010101100
10010011000
11001000
10110110100
1011011010
1111111110001111
101110101
1111110001100000
100010010011
1111101011001100
1111010111100001
1010010
101010101101
11001000011
1111100111101111
1111111010000111
1111110001100011
1111111100101110
11011000
1011100000
1111111101100110
1111100000010111
1111000111100110
1111011010110100
1111101101110110
1111111001110111
1111101100111100
1000010
10111000110
1111110011
100000
11001110000
110011111
1111101111111110
1111101100110010
1111100111000011
101001011100
1111110001110001
110
1110101
100011010000
1111101101011111
1111010110111010
1111110000011000
10010001011
1111110101000011
1111111000100101
1111111010001000
1111101010000110
1111110111110001
1111111011100111
1111111011011011
1111111011000101
1111110001111000
1111100010011011
1111111000110011
101110000
110100010
100011
1111110011000000
1111110010010101
1111101101010101
1111000110101010
1111010000111010
1111100110000101
11010010110
10000110000
11001011
1111111111100011
1111101010111111
1111111110000010
1111110111101010
1010110101
1110
1100110110
1111110010011001
1111110000010010
11111011
1000011111
1111111011001111
1111100010000011
1111100110111101
1111110011010111
1111110110011100
1111111110000101
1111111101000010
1111100010011001
1111011101110000
1101001100
1111110000110001
1111010111011100
11100100101
1111111000100001
11100000101
10111000001
1111111010111011
1111111011100000
1111100001001000
1111100001010101
1111001110011111
1111111100110010
1111111110010011
110001010
111111001
1101011111
1111111010000001
1111101111001001
1111101100000011
1111101100010110
1111111010011110
10011100
1111110001011110
10100110100
1111111011011111
1111011010111000
1111100100100101
1111110001100000
1111011000100111
1111100001100010
1111100100101100
101001100101
101100110101
11100001110
101011001
1111111101010000
1111110011111011
1111001110001000
1110111100110100
1111100010111101
1111111011001001
1001111101
1110101011
10000010111
11000010100
100011000
1111110001100011
1111110011011110
1011101110
1100000
10000100110
100000100001
111010
1111100110001111
1111011100001110
1111001010101000
1111000001000110
1111010111000111
1111110011101001
10001111011
11011111101
10100011
1111111100011101
1111111101111101
10111010010
1101000
1111111111101011
1111110011100100
1111110011010000
10011100010
11110001000
100000000011
11110110110
10011
1111111011000011
1111110000010110
1111111111111101
1011000111
1011011000
11011110110
11001000111
1111111100011000
1111101011111011
1111101010110111
1111010001100100
1111100010011111
1111101001
1111100101001110
10000110
1111111110010101
1111111010101100
11101110
1111110111010001
1111101100111001
1110111100011000
1111100000101101
1111110100011011
1111111101101011
1111101000110010
1111110100101011
10100111
1111111011110100
1111111111010011
1111111011110101
1101100000
1111111111101101
100001000
1111101001000010
1111111011110010
1010001100
1111111011100001
1111101110110111
1111011100011001
1111110011100000
101101110000
10010011101
10001001
1111111011111001
10010110
1111111110111010
10011101
1111111100101101
1111011011010110
1111101000111111
1111110111111110
10111000111
10010010110
1111111110001101
1111010111
11100100100
10010011011
111100100
10000010011
10110111011
100100110001
10011111001
11010000011
101000011001
1111110010000001
1111100111110111
11001110
100000001010
1111110000011100
10000110
100100011
100111011
10101011
1111111111111101
1111111111010110
1111111101011100
1111111101110011
1010111001
1111110011010101
1111111000110011
10000110000
110111010101
1100110001
111010011
10101011110
101010000000
101101111000
1111111111101011
11010010110
1011101100100
101001011110
11110111000
10100100000
11101111111
11010100010
101011001
1111111101101100
100010010
1111111011111010
11001111
