1111111111110010
1111111101100001
10110000
10001111
11010011
1111111100011000
1111111101000100
10101
1111111100011111
1111111011000011
1111111110110110
1111111101011111
1111110101011101
1111101001011110
1111110100110000
101101110
11001100
100010111
1111111100000110
1111111010110101
100011111
1111111110000111
1111111011000101
1111111011111000
1111111010111001
1111
1111111101110001
1111111111000010
10000000
11011100
1111111110011111
10011
11100001101
11100100110
101111001000
110110001111
101010011101
111111001110
1000011001010
111010100110
110111011000
101011101011
1111110111110000
1001101111010
1001111001110
111010000101
111111110101
1001010111111
111100110000
111010001000
110011110000
11111101110
100100001
1111111011100011
11011011
1100110
1111111011100011
1111111100000100
1100101000
100000101100
100011001101
10100101001
111011100100
111100110111
1001010111011
1100001011010
1010110111010
1100000000011
1011001110101
110100101111
11011100010
101101011111
1001010001001
110111000010
1101011010000
10010101011001
1100111001100
1001110000111
110110000000
110010001111
10110000100
111111100
1111111110010001
1111111100110111
11011111
110011
10101111
100100100000
100011111001
101000001000
101101001101
1010010010101
1100001010011
100101110110
1011111111
10010100
1010011111010
1100111110111
110000111000
1011011101001
1100000111101
111000011110
1010101101111
1000100000110
1000010111011
11011001100
1011001000
110001111010
11110011011
10010000110
11101001011
1111111110010011
1100001
1001001011
1111110011001101
10100111100
1111110101111000
1111100100011111
1111110000110110
11000111
1111100001000111
1111111101111001
110001011001
100000110111
100010110110
1011000110
110010001011
1010111000010
1010101011111
110011110011
110111101011
11101001111
110011101
1111111100000011
1111111100000010
1111111000001111
1111110110111001
111111010
1100001101
10000111111
1111111101111100
10000111
110111101111
1000100100110
1101110101
1111101100110101
1000110000
1110001011
1111100010111001
1111111111111110
10100101
1111101110000101
1111101110010010
1111110110110000
10001001
10000111110
100101000100
1001110101
11010111
1011010000
1111110101101100
10011000000
1111111100001000
1001010111
1111110110010000
1111111001000110
101100001100
1111010011
1111111110010110
10001111010
11001111
10100111100
1110010010
1111101101000011
1111111011111001
1000101010
111010000
1111111100011100
1111110101110110
1111111101111111
111011001
1010111
1011100
1101110000
11001101
1111110000011101
1011010010
11010100001
1011111100
111011000
1111111011100011
1111100000
10100110110
10001110100
1111110010011101
110110011101
1111110011100011
11111011111
1111101101111110
100110000
10010001
1111110101101011
1111111011101110
11001001111
10101001110
10101010
1111110000111010
1111111001010011
110101
1111111001110010
101010011
11000101
1111111001101101
1111111010010010
11101000101
10101101011
111000110
10011101110
10001100
1111111011011010
1111111010100111
10101110101
1111111000010111
111011100010
11110110000
11101101001
1111101000010100
1111111101001111
1010101011
1111101100011001
1111111110101000
1100100011
1111111011000000
1111111111101110
1111111010110110
1111110101011101
1100010
1101010001
1111111011001110
1111100101110111
1111111101101001
1111111111100101
1111111101001100
1111010000
10100010101
1111111101100011
1001000101
10000011010
1111101111011011
1111101001111101
110111101
101000101000
1000111001
1111011100
1111110101111011
1111110011010001
1111111010001110
1111110011110101
10000100010
1111000
1111111100111110
111000101
1111111001000111
1111111111101011
110001000
10011000000
1111110010001010
1111101011011000
1111110001100001
1111110000111011
1111101100011011
1000011100
10001000100
10000001001
1111101110010111
1100100110
100001011111
100111101101
11011001011
1111100101110110
1111111101000000
1001000110
1111111000010000
1001111001
11110011
1011011101
1110100100
1101001001
11100100
11001000
1111111111010111
1000100101
10001001000
100101110000
10010001011
1111100011000000
1111011011101101
1111101110011101
1111110110011011
1111110110011010
100011110010
100010001011
11011111010
100001001000
100110111000
1111110011111101
1001100110011
1111110011011101
1111010110110101
100011010100
1110000
1111101110
100001111101
1111110010010111
10111100011
1111110100110000
110000110
1111111000100101
1111111110010100
1110111100
1111111111000101
100110001011
1101110010
1111011100000100
1111010010000110
1111001110000000
1111100010100011
1111110111110111
10101101
100001101110
100100011111
1000100100000
1010101001111
1111111001
10001101011
11101
1111100100000011
10111
1111100110110010
11111011101
10110111110
10110000100
1001111010
11100101001
1011110
111010100
1111111010001011
1101011101
10000011111
10010000001
11001101000
1111101011001100
1111010011001101
1111010101010011
1111011001000110
1111101111110011
1111110010000111
10110101101
11110111111
1010110110011
1000101111101
10001110110
100010011100
110001100
11011111010
10011111001
1111111111011000
100100101011
11000100011
110010110110
111100001
1111111100100111
1111110111111000
1111100101011110
1111101111010101
1111111110011101
110010100
110111
1011101100
1111101110111010
1111010000011010
1111010111101111
1111011111000001
1011111001
1111111100100110
10111110010
10010010000
1000100011010
11111111100
1111110011111011
1111111011001001
101101000101
100010111001
100000001
10101101010
1111110111011001
1101010000
100111000
11000001101
1111100000001000
1111101110100101
1111100110110100
1111111100100000
10100111001
1100010010
1111010010
1010100000
1111110001011001
1111010001101010
1111011100011001
1111101100110111
1111101000010010
1111111111100110
101111011101
11110010000
10011011100
1111111111010110
1111101011011110
1111111010001111
11100001001
10001111101
1101111110
11110000101
1110110100100111
101101101
110011100
1111101100001011
1111101110011000
1111111100101001
1000100101
10000000010
11100110000
100010010100
100010001110
10110011000
1111100000111001
1111100011010110
1111100100111100
1111110011100010
1111111110010001
101000010
10110001100
101101000
10101000
10010100011
10000000101
1111111101011010
1111111001110001
1111100110110000
100011101001
101010101000
1111001000111000
111100011
1111111000000100
1111011001100010
1111010111111101
1111110001011110
10111010001
100010011111
10100011111
10010000111
100101011001
1000110001
1111101011101000
1111100101000101
1111011101010010
1111100001101100
1111111101110010
11100001
1110001000
1000001100
1111101110001001
1111111001100010
100100011100
11100101011
1111111000111111
10110
10011010101
1111111010011011
1111001111100000
1111110101111111
1111011110010110
1111110101000111
1111011000111011
1111100101011000
1111111100011010
10010000
1000101100
100010110
1000011
1111110110011111
1111100000001100
1111011101100101
1111011101111000
1111011100111001
10101111101
11101110000
1001000110
10011110001
1111110001011110
1111111110111000
1111100110101111
1111111001010101
110110111
11010011001
1001110110
1111110010010000
1111110101010001
1111111001010110
1111110101101000
1111101011001001
1111100110100110
1111110001000010
1111100110100100
1111111010011001
1011010
10110001101
1011101011
1111111000010011
1111100110100010
1111001011000001
1111101101111001
1111111100101001
1010010000
11111000100
1111111011111100
110011
1100000010
100000000011
1001110000
1111011011011100
101110111
1111101000
1101110011
10100100110
1000011010
1111101110000001
1111110001100000
111110010
1111101001110111
1111101100001110
1111110100100111
1111111001001110
1111111110101100
11101010110
11111110101
1111110110011011
1111110111111001
1111100001100111
111001111
11111101100
111011001
1101000101
1010111101
10111000001
101001010110
101011110110
101010110
1010000111010
100010001
1100110
110010101
10000000001
100000110100
1111110100011111
1111110100101011
1101110100
1000100011
1010001010
10101011010
100010111111
100111101100
101111101111
11011101101
10101001010
10011111111
1111110010001100
110110100
100010101111
1001000001
100010011010
100001011010
11100100011
101110111011
1111111110111001
1111110110011100
1100110101101
10111111010
1000001100
101010101110
111010011001
10111010001
1111110100010010
1111010011010111
10111100110
1110010000
1111110111001101
111001000
11011010100
110001011111
101110010011
101111101001
100110110111
11101000000
1111111000000000
111111001
1011010000
1001001
1111101110001111
1111110101101001
11100111000
101110110011
111100010
1111111110111111
110110001111
1111111100000000
101010000
10001110
1001000111100
1111111110111010
100011101
10101110111
1011010001
10001101001
1111111010001010
1101101000
11101
10001110010
1010000101
10110110000
111000110
1101010000
1111110101101001
1111111110111000
100110011
1111110000010111
1111110010000110
1111111101101001
1111100101110001
11000011101
10010101100
101111001
100010011011
1111111100001110
1001111
1000101
1000010110100
11101001000
11000101111
110011010010
1111111110100101
101011
10001011001
10000110010
1111111010
1000000011
1100111
1110000110
100100011
110111011
1111010100
111001000
1111011101
1111110100011110
1111101110000000
1111100110111101
1111111100100011
10101001011
10010111010
11000010101
1101110110
1111111011110001
11001000
1111111110111011
1111101001100101
10001101001
1111111010101111
1111110110100011
1111101101100011
1111101110000000
1010101010
10111100
101111011
10110011111
11111110100
101001111111
100010111101
1110010110
11010001001
110101000
10101010101
1100110010
1111110011101001
1111101010101000
1111111
1111100011101001
1011001001
10000011110
11010000110
1111111101000010
1111111101100000
101000
1111110011100111
1111010111100110
11001100
1000000101
1111111111101100
1111111011011100
110110000
10001111100
1000100111
1111111101100010
11110000101
101101011111
1011111101
100111001010
100011100000
10100101111
10011000100
101011100111
1100010101
111100010
11100111001
100000100010
10011001010
11000011001
11011111011
10100011
101000010
1111111100100000
11110111
1111101001000011
1111110011000111
1111101111100010
1111000101011001
1111100010011011
1111101001011101
1111000011001101
1111110011100011
1111110011100100
1111111001000000
101010101
1111100001110110
1111111111000100
1111100101011011
1111011100101000
1111110011101001
11011001
100110100
1111101111010010
1111110101101111
1111100000110011
1111111010111101
1111111001001000
100011101
100001101
11100000
100000
1111111101010100
1111111100010011
10110101101
11000111011
10000100000
11010110000
10000110100
1111110011100100
10101001001
11111001
1011111001
1111001000110000
1110010100101011
1110011110001010
1110101011001011
1110011001111100
1111011001110001
1111101000011111
1111100010000011
1111011010001111
1111010101010010
1111101010110011
10011000
1000010
1101010
1111111011111000
