10101001
1111111101011010
1111111110101000
11010101
1111111100101100
1111111011100101
1111111110100110
1111111111011011
1000011
1111111100100010
100110010
100110101
1111101111101001
1111110101100000
100100101
10110001
101001001
1101101
1111111100000000
100111010
1111111101000110
1111111110011000
100010000
11000000
1111111111010100
1111111100110001
1111001
1111111110110001
100000011
1110000
10111100
1111111011010100
110110110
10100001
1111111011111111
1111100110110000
1111011101110010
1111011001010010
1111001111011011
10110100011
1000001111
10001100100
101010100110
101011010011
100101001111
10100001111
1111001111100101
1111001100001110
1110111000011010
1111000010101011
1111010101110111
1111101010111010
10010110
10011111
1110011
100100010
10011001
100101100
1111110010011111
101111001
100100
1111011011011100
1111110101111001
1111011110111011
1111000110100101
1111100100110110
1110111100110010
1111000011000100
1111011011001011
1111100010000011
1111011101101000
1111101111110100
1111011010100001
1110111011100010
1110111110011100
1110101011100010
1111001110001100
1111000101001101
1111100100100111
1111110011001000
1111101011101001
1010111101
11010010
1111111100101110
1111111110100011
10000100
100010001101
1111110101001111
1111111101101111
1111100111110110
1111100101001010
11011100111
1111111101010111
1111100100101010
1111010011000100
1111011011110110
1111101010
111010001110
110010010111
10111110101
1101001110
100110011
1111100100001110
1111010110000011
1111110001010111
1111111110111111
1111001010000000
1111010000010001
1111110111001110
1010100011
1111111001011000
11100110
1111111111011010
11010100
11001011111
10001100000
111110000
1111111011101001
11110110
1000101111
1101001101
1111110110101101
111111011
101011010101
11110010011
110101111001
110000011101
110011110100
1000001011
1111100011100010
1111100011101111
1111011100001100
1111010101101101
1111110000111111
1111110001011011
1111101000101011
1111111001000101
1001000010
100101001110
1111111010000101
1111111111010100
100011000
1111011111000011
1001011000
100000111
10011111111
1111111010111001
1111101101110000
11001110
1010100101
11110000100
101100101011
111100010
100010110010
100011100000
101000010011
1000010111
1111100111010011
1111110000100111
1111101001010111
1111110010111101
1111111001001010
1111000
1111100101011000
1111100101010010
1111101110110011
1000010000
1111100011001100
10000
100111111
1111110000111100
11111
1111111001001011
10111001000
10111101101
110101011
11011110
1111111111011110
101011001101
110101010100
100111000001
111110101011
110011010110
100101000000
11101000000
1000101101
111000101
1101101111
1110000011
1001100011
1111111111110110
1111110011001001
1111011111000110
1111100001100000
10110010100
1010101010
1111111101001100
10100000110
10110011110
10010100000
111100111
1011111
11101111100
10011111111
1111110110001000
11000111011
10011100010
10110100001
110000011101
110101110110
100000001110
1111011100
1110010110
1111111100111101
101101001
100101111111
110110111
1101101110
1111100011001010
1111111100101110
110101100
110000011101
1000000001
10111101111
10110001
1000110000
1111100010111111
111010010
10001100110
10011101001
10000010111
1001010001
11101000011
1111001100
10110110
10101011000
111001001000
101001100010
11100000110
1110100010
10000011111
111111110
100111011111
101011100001
11000100101
1111110110000000
1111110100110001
11101011101
110010011001
100110010110
1111111001101011
11000100010
1100000001
110110101001
1111101101100011
11001000111
101100101
110101111000
101111011100
100001
1100110111
1000101101
10010100110
11111110000
11010010000
11101000100
11101100110
1011001001
1000111100
1100
11001010101
1110010010
1101100101
1111110111001111
111001111000
1010111001110
1000010011001
111001010
10000011001
10100110111
111100100
100001110001
11001011010
100101010000
1000000100
101110000001
110011011011
1111111011011101
1111101010111000
1101110
100101010
10000111101
1111100100
100011010111
101011000101
11100111101
10011110001
1111111101111010
10111101101
1011111100
10000101001
100110010100
1010101111
11111101011
110001110110
1111101000100101
1011000111
1001111101
1111111111110011
1111111001100111
10001110111
101101101100
101011001101
10110101011
11010110001
1001100110
1111110111101010
1111110111001110
11011011
10101010010
100101100011
110000111110
101010101111
110001001010
10000000010
100000101111
10011111111
110100010
1000011101
111011101
100110111110
10110111101
101011011110
1111111001101101
10010101011
100000101101
100111010
10100110
1111111101001110
100101001110
10101101011
1010001010
1111111001110001
1111111001100111
1010010010
1111110010010011
1111100101110011
1111111010100110
100101111110
100010011000
101000010101
11000100010
1100110111
1010011
10101100
11011011010
1111101010
10101001
10101011011
1111110110101000
101100000
10010000001
111001001000
11000010011
100110101
1111111011110000
1101111000
110000011001
1111111111100101
1111111011001100
1101000
1111101111010110
1111101110101110
1111010010100011
1111000100011110
1111101101101001
101110011
111011111
10010111000
1111110110111110
1111101010111100
1111111000100101
1111111011011001
10101110
10110010001
1111111000101100
1111111011010000
1111010000101110
1111100000010010
1100010111
101000111001
1000101001
1111111101110010
1111110101110010
11101001110
11011101101
1111101101011011
1111101111111001
1111111011001010
1111110111110110
1111100001000001
1111001111010011
1111011010111100
1111100011100100
1111101010000001
1111110100100110
1111111101111101
1011111
1111101011111000
1111101101110011
1111111110100111
10001001100
1111110100100100
1111101110001110
1111010100100001
1111101000011110
1111110111011001
1111011010000111
10001101101
1111101100011001
11111000
1111110101001100
1111100110001011
1111111110111110
1111111111111100
10101100
1111110001011110
1111110110100101
1111101010011100
1111100011110001
1111100111100110
1111011111110001
1111101110001010
1111110110011000
1111111100011101
100011001
1111100101001100
1111101011000110
1110000000
1111111101100011
1111111100010111
1111011101010111
1111001111010000
1111110001000000
1010010010
1111111100101011
1111110001000110
1001010
1000001
1100000110
1111100111000100
101001010
1101101000
1010
1111111111000001
1111110001010110
1111100110100101
1111110100010000
1111111010010101
1111100100110011
1111101000000100
1111110000101010
1111111101000000
1111110000111001
1111100011111011
1111110000110110
1111110101011000
1111110110100010
1111101000111000
1111011011111110
1111011110111001
10101110
1111111001101000
1111101011101011
1111110000010110
100001111000
11000011
10010010100
1111011110101010
1010010001
1111110110001010
1111010100
1111111110010110
1111011010001000
1111011000001100
1111101100111011
1111110000011100
1111101011100001
1001010111
101111111
1111111100111100
1111110011110100
1111101010000110
1111111101001100
1111101101010101
1111110101011011
1111101011100001
1111010101101011
1111110111011100
1111111000110100
1000010111
1111111101101001
1011100101
11111101100
10111101000
10011101110
1111110111100011
1111101001111101
1111101100110010
1110110111
1101011010
1111111100000011
1111110111101001
1111110101010010
1111110100101110
1111111000110110
1111101011110010
10010011
1011100111
1000111101
1111110000010001
1111101111001101
1111101100001011
1111110110011111
111010101
1100101000
10111101111
1111111100110010
1111111111101100
1111101111011001
10000100001
1111100111111111
110110101
100101111011
1111000010
1111010110101011
1000101000
10011001010
100010010
11010010
10101101001
1111110100100100
1111101101110010
1111010000101100
1111101101000100
10011110
1110100101
1111110010001111
1111110001100000
1111101111011011
1111111000100110
1111000100
1111110011000010
10110001011
100100100000
1111101111000010
1000101010
1101010101
1111100100011001
101101000
1111111100100010
11000110001
1111011110001110
1111000111110000
1010011100
110001000101
10111001010
11110010011
11100010010
1101011011
1011001011
1111111001100110
1111111101011001
1011001100
11110001
1111100101111111
1111101001010111
1111110010101011
1111100100001011
1111111010010010
11101110
10101001101
110010100101
1111111000010101
1111011100111011
1111101110001010
1111100001000100
1010100000
1101111
1111111000111111
1111011010011110
1111001010111010
1111110101111101
110101101001
101001001001
100011111010
11000001101
11100111101
1100010110
1111110111000111
1111110000010000
1111110100001010
1111111011100011
1111110001100001
1111110100010110
1111101101101100
1111111001101010
1100111001
1111111100000011
11011111101
11100010111
1111110100001111
1111110100101110
111010
1111100110011000
111100001
11
10000
1111100011011010
1111011101100001
1111101001000000
1001101110010
1001001111100
111010011011
111000111010
110000101100
101100110
111111100
1101001010
11001000010
1111011101
1111110111100101
1001111010
10101001001
11000111000
1111111011010000
1111111111111100
1111110010011011
11000111
1111101101010100
1011011111
101110010100
1111101010010110
1010101000
101001
100010110
1111101111010010
1111010001011110
1111010100011010
11110111101
11101010100
1101000000
100010111111
111010111010
111011000101
110111010110
1001110111010
110011110111
10111101101
1000101111
1110001110
1101100110
1111111100110101
1111100111001111
11111110111
110010001
1011001111
1111110110001001
11011011001
11100110110
1111101011010011
1111111110101100
1111111111101110
1111111100000101
1111111010011011
1111101010010010
1111011011101101
1111110101100101
1111110110010111
1111101110100100
10001100100
1011110101
11001000100
1110100110
111011110010
101001001011
10101010100
1101011001
1011111110
1110010101
1111110110010100
1111101110001111
10111000001
100101010111
1011010100
1111101111100111
1101111011
1111111110110010
1000000101
110100
100101
1001
1111100010001000
1111100111000111
1111111011001010
1111100011000010
1111010001011110
1111011110000001
1111111000111100
1000110111
10010110001
10000011001
101001011011
10110011111
10111111101
11001001001
1000001000
1111111100011101
10010110
101111101
1111111011001110
1011111
101011011110
11110010001
100111001010
1001001
1100110011
1111111101011011
11011100
101001110
1111111111101110
1111110000110010
1111011100111001
1111011100101101
1110111010010011
1110111011011101
1111000101110101
1111011101011011
1111110111111100
1111011100000100
1111100101001111
1111110001100011
10100010101
10110111000
1111101001101010
1111101111010111
110001100100
11111110110
1000001110
110011011
110000001010
1010001100
1111100001010001
1111111100011100
1000101
10001011
1111111101011101
100110010
10011101
100000100
1111111110101100
10100101
1111101101011000
1111110000111010
1111110010000000
1111101001101011
10011000111
1001000101
1111100101101011
111111101
1001001000
1111101000010111
1111110111000111
11111100100
11100011111
10001111001
1111101110100001
1010010111
11000010101
10101
1111111110100101
10010001
1111100
1111111011101001
