11100010
101001101
1111111011001111
1111111011100001
1111111111010101
101001001
10100000
1000100
11001
10001110
1111111010110010
111000
10101110
110000111
11011010
1111111111101111
1100010
11011110
1111111110100101
1111111111001101
11111010
1111111111010101
100101000
101011
1111111010111110
11101110
11000100
100101011
10001010
10100001
1111111100110110
100110101
1101010001
100110110
100111111010
101111100001
110001100001
1000011110101
111011100010
111100010001
1000010000001
1010000001110
100111011
1100010
11001101110
1011000011111
1001100111011
101101110010
100010101100
10000101100
10111101111
11110110110
1111111101110001
101000
101001110
100100001
101010001
10011
10101010
10011100101
11111100101
11110001111
111100111010
1100011011000
110001110011
110011010001
1110111101
100110001001
1000011011101
110010110001
110010011110
1111110100110001
1111011100000001
10001000010
1110110110011
1110101100011
111111111011
1001000111100
111001101001
101101000110
10010011001
1111111100100110
1111111111000001
1111111011100100
1111111100101011
1111111101001111
1111100000100100
1111110101011010
101011100001
1111110010010010
1111101000110110
1010000110
111101100101
1000001001101
111100100100
1000010110110
1000000010000
101101001001
110000101110
100110100011
1111111100101010
1111011110110011
1111011110101111
11101101001
101111111011
100110001110
1111110010111010
1111101000001011
1111100001001001
1111011000000011
1100010111
100000100
10100001
1111111111100000
1111101100111101
1111110010011111
1111111101100000
1111111000101111
1111111001110101
1111111100101100
1111000101
111011000001
100101011101
10111000100
10111010101
1111111010100010
100001100100
100100110110
101111110001
110100000100
100100010001
101010000
101011001010
11101001010
10001001
1111100100101111
1111011001100111
1111111011101011
100001001101
1011000101
1111111100111110
1111111111101101
1111111000101011
1111111000110111
1111011101010000
1111101001010000
1111101111011010
1111110111110100
1111110101100001
11101101011
1111111101011011
1111111100111000
1111111111101000
1111111001011010
1011101100
1111111101110010
11111100010
101111001110
111111101111
1111110000
100110111001
11100101110
11110010110
10010010000
10000001010
1100000000001
1000000110100
11001000111
1100001
1111111011011011
1011110111
1111101100100110
1111111111101000
1111101010
1111110100010010
1111111100001111
1111111101001101
1111111011010000
1111101111001001
1111101100001010
1111110011001111
1000011101
11001000000
1011001110
1111111000011110
100001101101
100101100000
101110010
1110111101
1111101011100100
1111111111101000
1111111000100010
10011110
11101011101
1010001101011
110101101101
1111111001110001
1111101100011101
1111100110111110
1111011101001101
1111101101010111
1100110011
1001011110
1111110010111110
1111110100
1111111111100110
110111110
1100100100
1110101
101000111
110111111
1010000101
1111110111011101
10000010111
100101110100
100000010
10000011001
101101
1110011001
1001101011
10110010011
11001110110
1011011111000
110101010000
10000011111
1111101010110111
1111001111010100
1111110101000011
1111111101010111
1111111110111000
1111110010011101
1111111111011110
1111110101101011
111010100
1111111000111100
10010010111
1111111101011100
1111101110111000
1111100011110010
1111110000110100
1010111001
10100110110
1100001010
1100111011
1111100111000010
10111011010
1100001100
1011011010
10000100000
1011100000
10000010001111
101011011010
1111110001000000
1111110010101000
1001110010
10100010010
10001100100
1111111001100111
1111110101011101
1111111001111110
110110100
1111111011011110
101011011
10000011101
1111110011011011
1111001101100010
1111000000011101
1111101000111101
10010110000
11010101101
10010100100
10010001100
1111110110101010
10101000101
1111111001101000
1010101100
1111111010111100
1110000001
1110010101011
111000010011
1111101011101000
1111010101101011
1111110000000001
1111111110011111
1001010
1111011101111001
1100
101111100
1010001101
1111110011101011
1111111010101001
1111110100111111
1111100000111011
1110110000011101
1111000101011110
1111110100101100
101001110101
100011001001
101010010101
11110010110
10110100
1111110101110100
1111101100011001
1111100100100000
100010110101
11101101001
101110000100
1111100010010000
1111101001010010
1000111110
1111110101001011
1111100011000001
1111101011000100
1111111100111011
1011110110
1000010111
10000100110
1111110001001111
1111101011000110
1111010101011111
1111011100010010
1111100010001100
1111111111100101
10001010110
11000000001
10110101110
100110110001
1001100100
1111100100101100
101010111
101001110
1111110111111000
11110011110
1111001000
1101010010
11111000
1111110001100000
1111000101010110
1111110011110101
1111111100110011
1111110101110010
1111111000010010
1111110000101011
1111111001110011
1111110001010100
101101011
10001111
1010000
11001001111
101000000011
101101010000
101010001000
101110101
10010
1001111010
10111011101
111000111
1101000111
101101010
11111001011
101100010101
10010111
111000000101
1111100001
1111110101111001
1111100100111111
1111101001001011
1111100001011010
1111111001011000
1111111010110000
1111011001111101
1111111101000111
1111101110111101
1111100100000100
10101011
100000000000
1010011110011
1101011110001
1001001010001
100000110011
1111111011000100
10
11110010010
111110100001
10111000001
110010110
101010010
101110110110
110011000010
10001100001
100101111101
11011011111
10100101011
1111011011110000
1111000011101000
1111011000001010
1101110100
1111111100000010
11110101
1101010
1111100111110000
1111111011011010
110110000
111001010001
1011111100011
1010101101010
100001100110
1111110100011010
1111110101011001
10010101000
10011010001
11100010110
11000110000
10010010001
100011101000
1111111011101110
100110110
1111111000000010
1111101100110001
1111111101010100
110100001
1001111111
1111011100001011
1111001111010011
1111111101011011
111100111
10000100111
1111111000001001
1111111100110001
1110
111100111101
1100111010011
1100001010111
101000101010
1111111100011110
1111111010001000
1111111101100100
110000100
11100110101
110010010100
1111110110011110
11100011011
1110010011
11001101100
10000111000
1100111
1111110100111111
111010110
1111100100110010
1111110001010111
1111001011101011
1111101100000010
1111111011111001
10111101
1111111010001011
101111001
110011001110
101001100000
1100010101001
1101011110110
1001100101000
10111111011
1111100100011011
1111101100011110
10010000
10000100110
1001110010
1110010111
1111110010000000
1111100011110001
1111110011011010
11100001000
10100001111
101110001101
1111111111010110
101110011
11010000
1111101100001111
1111100010011111
1101011001
10100101100
10011010100
11110011100
111010000010
1110001001111
1100111010111
1100001011011
1000000100010
100111110111
1111110110100111
1111000001110111
1111010110111000
1111111110011101
1100100
1111101111111011
1111110001001011
1111110000010010
1111110010101001
1111110000110101
111111000
11000100101
100110001
1111100110101010
1111111101101001
10100100010
1111110110000110
1111011010100001
11111000100
101000111100
100010011000
110000100110
1100101110000
1001011001110
110001010111
100101111001
101110010011
10111101011
1111101101000111
1111000110100001
1111010110111000
1111111100010100
100010110
1111101110100001
1111101011010001
1111110010100101
1111111010110110
11001011000
100111011001
11101010010
1111100010010101
1111100110001001
1111111010111011
1111110110001011
1111011101101101
1111111011110011
110101100010
101010011101
10110100011
111000101010
100011101000
10011110011
10100010111
11001101101
10011110001
1100100011
1111100001010000
1111000110010000
1111001110100000
1111100000001101
1111110010100101
1110001001
1111111011000000
1111110000110011
10001101101
100111011111
11001000010
1111100111010011
1111010001110011
1111111111000111
1111110100011100
1111111100010110
1111110111010110
11000101001
1010001010011
1011110101000
1000011010100
100010111010
10101111111
1111001001
10101111
1111111001111011
1111100110011110
1111100001111011
1111100101001011
1110111111000010
1111011110010110
1111100000010011
1111101100011101
10010000
111011010
1111111011111000
1111111010100000
10110011
11101110011
1111100011111001
1111110001111001
1111101100110110
110111011
1111101110000111
1111110110000101
1111101101000101
100111101010
11100101000
110011001
1111110110010000
10010110010
10001101
1111111000010100
1111111011101011
1111110000010110
1111111000111001
1111101110011110
1111100011001101
1111000101001000
1111001111010000
1111110110111111
1111110111000001
1111110001011011
1111111000111000
1111101110000111
11010001101
101101111100
1111010001111000
1111100000100011
101000000
100101101
1111110000101010
1111110111000010
1111110110101101
11010110010
1111111000011111
1111110111101100
101010010
1111110100011010
1111101101101001
1111110101010110
10001000101
1111111000011001
11000111
10001101100
1111101100001100
1111010010010110
1111101010101010
1111110110101011
1111100100111100
1111100100100010
1111111011111010
10101110001
110001010001
1111110000000001
1111000000010000
1111011110000000
10111111100
1111111110011101
101111
10011111
100101001010
110001000110
10100111110
1111110000011000
1111111110101101
11101101101
1100111101
1111011011101011
111101010
11010001110
1101110010
1111110101
10010001110
101101111
1111111001111100
1111111010100010
1111101101011101
110011001
1001111101
10001000100
1010111100
1111111000000110
1111100011101001
110011011
1111110001011011
11111011
1111111101110010
1001111
1111100110010111
1111110011010101
110001110
110110011
1010111001
1111111100101100
1111101100001001
1111111111111001
1011100110
100011110000
11001011100
100011
11111001
100111010111
110000111110
1110010010
1111100101000101
1111111101000111
10011011000
1111101000000100
10001001111
101001101
1111011111010010
1111001111000110
1111011001010011
1111111010100110
1111111111010110
1111111011001001
100001010100
1111100110101000
100011100
1110100110
10111000010
1111111000
1111101101000101
100011100
11101011111
1100101011
10001101110
1111111111101101
1111110111001010
11010000
1101010110
111000011111
10011011100
10000
1101111
101101001
100110000
1111101001
1111101010110101
1111111101001010
1111111100011001
1111111101100111
1111111101011011
1001001
1111111111001100
11010011001
11001000001
1001011001
1110001000
1111111110100111
1111110000100101
1111011
1110011110
1111111101010110
1111111000101100
1111101101111001
1111101100101110
1111110111111110
1011100100
1110000001
1111011101000100
1111100000110000
1111101100011101
1111110101000010
1111101001110010
1111110000110101
1111111100110111
1111111100010011
100101101
10101100
1111111111011100
10011010
1111111101001111
1111111110001010
1111100011000101
1111011001110000
1011010101
1111101111001010
1111101100011011
1111101011011010
1111101010011010
10001101001
1111111111010001
1110101111010001
1111100010011101
1111110011100010
1111100101110011
1111100100000101
1111101101000101
1111110000110010
101010010
1101
1111011101111010
1111010101101100
11010010
1010100
110000
10001111
