1111111110000101
1111111110101111
1111111010111001
100010100
1000111
1111111100011111
10100100
11010110
1111111101110000
1010110
1111111100100101
111011
100010
1111100101
10000011010
1111111110111110
1111111010101011
1111111011101101
1111111101110010
1111111111100000
1110101
1111111011001000
1111111111000010
10100
1100111
1111111100101011
100101010
1111111101000000
1111111101001010
1
1111111111110000
100001000
10010111
1110001110
11000110001
10000000111
1111110001001110
1111101100001011
1111111111001101
1111110101001010
1111110111111011
1111111101100101
1111100101100011
1111111110011111
10011101111
111110010
1111100101101111
101010110
11111000
1001000000
10101011101
1011110011
1111111011001110
10010110
1111111011100111
10010000
10101011
11001010
1111111110010010
1111111110111101
1111101111010011
1111101110111110
11010000010
10010011111
10100001111
10100011000
101111011
110101000
10111000101
101100101000
101110000011
100101001001
10110011100
1111101111010111
1111110010001011
1111110010000010
1111111001010101
1111110000011100
1111101010010100
10001000000
101011101001
100101000100
11000111
1111111100001110
1111111010101111
1111111101111111
11111001010
11100100101
1111101110010000
1111100110110001
1111110111011110
1111100100010011
1111110101100011
1111111101010101
1111001010011000
1111010001010101
1111100101001000
1111011110110001
1111001000101011
1110111110001111
1111011101111010
1111011010011010
1111101010000110
1111111100000110
1111111000001100
1111101110001000
1111111001101001
1111101010000011
1111111100101000
1111111010111111
1111111101011001
11100000
1111111111101100
1111111101111011
100101010110
1111110000001101
10100011110
1111101001010111
1111111110010111
1111110100111001
1111101100111100
1111110100011101
1111111101000001
100011110
1111110111111111
1111111010100011
1111101011111101
1111111100011001
1111110001111110
1111101110011001
1111111100110101
1101100010
1111110101111101
1111011011011111
1111101111111010
1111100001010101
1111011000110110
1111010001000001
1111101011101100
1111100011110100
1111111111110110
1111111100010010
111011000001
1111111100000010
1000101000
1111010111101101
1111100101001001
1111111110011111
1111101101110111
100111101
101010110000
11011011010
10001101
1111110111010111
1111101001101110
1111111101000001
1111110111100010
1111101111111011
1111100111000011
1111101100000010
1111100100001001
1111111100010011
1001100101
1111110111110000
1110000
1111101100100011
1111101111111010
1111101000000100
1111111110100001
10010001110
1111100011111110
1111101011010101
101000
1111010001110100
1111110000111000
1111101101001011
1111101000101000
100100001
11010111010
11000000001
1001011000
1111101011100011
1111110111001100
1111110110111101
1111110000110100
1111111111010101
1111110000001010
1111110000111001
1111101110000010
1111101101010000
1111111110100010
1111101101011100
1111011111011001
1111100000111101
1010110100
11010010111
1111111011101000
11001101100
1111110100101101
1111110001101101
1111110001100001
111011010
111110100
10100010100
1111101000010010
1111111101001110
1111110100110111
1000101111
1111111110011001
1100001010
1000101000
1111111110111101
1111111110011000
1111111000100011
1111111001001000
1110001100
11001000
1100100010
1101100111
100100111
1111100000110110
1111011011100111
1100011011
11010110010
1111100101000111
11101111011
1111110100000001
1111111001100001
1111110111101101
1111110101110100
1111101111010011
110100101
1111100110011000
1111101110111000
1010001101
1111110001100101
1111111110001000
1110101100
11110100111
11000001010
1111101100001000
1111111111110111
1111101100011101
1111111011010110
1000000101
1111101101011000
10110010100
1011111111
1111011111110001
1111010111111100
11110100
1111111010011111
11001000001
11001110110
100011011
1111110001001001
1111010111101001
1111110100100001
1111011000001011
1111100110010101
1111101100111001
1111111111000010
1111111011000100
1111111101010111
1111111010101101
10010110001
11110101010
11101011001
1111111001001111
1111100111001100
1111101011100000
1111110000111000
100110100
1111101000010010
1111100111001001
1101111100
1111110101001111
1111110010111111
101010100000
10111011010
100101100110
11001100100
1111100000011011
100100010
1111101000110011
1111110001000011
1111101111110010
1111100011001011
100101011
1101110110
1110111001
10011101101
1111110001110100
100000001
1010001001
11011100100
1111111011100101
100001010
1111110011010101
1111111011100011
1111111000010010
1111111110010100
1111111001001110
1111100111111001
1010011010
1111011111
100100011111
11000100001
1111000011
10101001000
1111101000111010
1111111111001001
1100100011
11101000011
10110101011
1111000111
1011110010
10100010101
100100000
1000111
1111011110111101
1111001100101100
1111111100011011
1111111110011000
1111110010100100
1111101000011110
1111101110000001
10001010
1111111011100011
1111111100110100
101110010
1111111111011010
1111101101100010
1010010101
1111110011110001
1010100110
1001001101
100110110000
10000011110
1111011111101110
1001111100
1111110010011000
10100111011
10010100101
11111011001
11001101
1111011110001100
1111000010010110
1111000101100010
1111000101100100
1111110001101110
1111110010110010
1111110001100010
1111100010000001
1111111001111111
1111111110110110
1111101101010100
10011101110
1111111111000011
1111111000111010
1111110011100000
1111101010
1111011101010010
1111110011101110
10010101001
1101101101
11000111100
1111010000100111
1111001111110010
110000110
1111111100101000
1111011100000100
1111101110110100
1111011001100100
1110011101101101
1110100001000010
1111001011011010
1111111100110000
1111111111010101
1111111011001101
1111111010101010
1111101111010001
1111100001001110
1111101111110101
1111100000000011
1111101010001111
1111111100101011
1111001100
101010001
10001000
10101101101
100001000000
1111101110001111
1111100111011001
11011001111
1111001011000010
1111100010010100
1111011010010100
1111000101001001
1110011001111111
1101101110010000
1101101111101010
1110100110100001
1111000111101110
1111101110011001
1000010000
100000
1111110101010000
1111111001010010
1111110110001100
1111111001000011
1111110010001001
1111110110100111
1111100011000010
1011110010
1111111011011100
100111011
1000001010
100101000000
101001100101
1111110001111011
1111100110001011
100100110100
1111001111110000
1111000011000110
1110011100001001
1101111100010000
1110010100110101
1110101011110110
1110110010100010
1111100101101110
10001101101
10111101101
11011010100
1100111001
10000000
1001000
1111111100001110
1111100111110101
1111101001000100
1111110110011010
1111101111001101
1111100101010010
1111110110000011
100001011100
101010110
10111010
100011010110
11001010011
10001011001
101001000100
1111101000011001
1110110110010111
1111011001111100
1111100010000000
1111100011101001
1111101001110011
1111111110011010
11010001100
101100100111
100101000001
100010100010
11000011010
10110111
1111111001110100
1111110000111110
1111101110011001
1111110100010110
1111101100111010
1111101100000110
1111101100111011
1000011110
1111111101010001
1111100101101011
1111111010011001
101000010111
1111111111100001
110001
1111111110001100
101101
1111110011010011
1111111011000111
1111111011100111
1111011000111101
1111101000110001
110010100
1101110110
100011001100
101001110111
100111011100
10000111100
1111111000111000
1111100001111110
1111100101011110
1111110101111000
1111110001101110
10010110110
1111110110101010
1111111001011010
10001011010
1111100011010111
1111111011111011
1101000011
101100010011
1111110110001010
1111110000111000
1110111110001110
1101101011
1111110011001011
1111101111110111
1111101000111110
1111101000000101
1111101111101111
1001001000
1110001
1001111101
100110110101
10111111011
11011010010
1011001101
1111101111010111
1111101101101011
1111111010010001
1111101101100000
1111111111111001
1111110100010111
11010111101
10111110
11001111
1001001100
1001100110
111001101010
1001101110
1111101101011101
1111101000000011
1111101011000111
10110100101
1111011100101111
1111111001110101
1111111100101101
1111111001011001
10110000101
110010110
11110110101
100110110000
111000100011
110001100110
10101100010
1110000101
1001011000
1111101100100011
1111100000000110
1111110110101000
1111111110101110
1111110100010100
1111110100000111
11011011101
1100011
111101010000
100000101101
101111
1111100010010000
1111100111001101
11110001011
100110101100
1111110100110001
1001110100
1111111110000111
11001111001
11001001101
1001101000
100100001001
101100111110
101000111011
100100111001
1101000100
1101110111
10001101011
1111111011001001
1111110010110000
1101101111
1111111101100111
111001011
110010111
11001111100
11011100001
111001011110
1111100111100001
1110110111
1111111011000001
1111110101101101
100000100100
10111101111
11111001100
1011111
1111111110000000
110011
111011010
10011110000
1111111111111011
100110011
1110101001
11010101001
11101111101
110000101
1111110100000001
1010110100
10011000001
1111001101
10001000000
1111111110100010
10001100101
1111111001100001
1010000100
1001101001
1111111100001010
10000011110
1010111010
10111010100
1011111
11101011010
110011010010
1111111101101011
1100000101
1100110110
11010111010
10010011
1111111100011110
1111101111101001
1111101100001000
101011100
11000001110
1111111000111010
1111110101101001
10000010101
110100110
10011101011
10011001011
11100001
10011011001
11000001111
10101001101
1111101011010101
1111111110100011
100111101
10110101
1111100100000111
1111001011010111
1111101010011101
11011011110
10010011
1111101101100100
1111110010111011
1101111010
1101011
111011100
10100111100
1011011101
1001111
111011001
111111100
1000101010
1110101
100110010
10011010101
1010001101
11000111101
1111111100101001
10011101
1111000000
1000001111
1111111101010100
1111111010101111
1111111100000011
11000010001
1111010110010110
1111101011001011
1111101010011001
1111110000000000
1111011001110110
1111101011111100
1111101110000110
1111110110111001
1101110100
1010010
1111110111010101
1010001110
1111100110101111
1111100011011011
1110011110
1110000000
100101110
10001001001
1001101110
1111111111110010
1111110110011001
10001001001
101000110111
1100110110
1111111111110110
110000
11001010
1111101001011101
1111110110110111
1111110011000001
1111101111010110
1111111000000010
1111100111101011
1111100101101011
1111110001100101
1111100001111111
1111100011001110
1111000110100111
1111001010000000
1111110001001011
1111011001101011
1111001101110010
1111010000110111
1111000101110011
1110100101101010
1110111111011011
1111101111101001
1111110001010100
1111100011001010
1111001001110101
1111111101110111
1111011
10011111
11110
1111111100010000
100110010
1111101110100100
1111000100101110
1111100101001000
1111101001001000
1111110100010010
11000000001
1111111110111100
1111100010101001
1110111101101001
1110110000001101
1110110010111000
1110101111111011
1110100100110101
1110001001101011
1110011001111001
1110101011010000
1110111101010001
1110101101001000
1110111011010001
1111011100000110
1111110100000110
1111111010101000
1111111100111111
100111111
1111111101011011
1111111111010010
1111111011010111
1111111100110111
11110011
11110111010
11011010101
1001000111
100010110100
10001001011
11001010111
10011110001
11000100100
1000010100100
1001100110011
11111100
1111110001
11001101001
1111110111111110
1111100011011111
1011001111
1111011110011000
1111010111100101
1111101000100010
110111
1111111100110010
1111111100001110
1111111010100010
10000110
