10100111
101010101
1111111100101101
1111111100100001
1111111010111001
100110
100101011
11010110
1011100
1
111010
1111111101001111
100
1110
1111111111110101
100110100
1111111101011110
1000010
1111111101011111
100011100
100101110
101000111
11110001
1001111
1111111011000000
1111111101100010
1111111100100011
1111111100000011
1000101
1111111111000100
1111111100111101
1111111110001111
10000101
100111000
11011110
1010010100
1010000010
10011101101
11000010010
1110110000
11011110001
100001111101
100101010000
1000001100100
1000111111111
111000001111
1111111111010110
1111111110111100
10100000101
11010110111
11011001011
10011011101
1111111011111100
1111111100001010
1111111110100110
101101
1111111011101011
1111111011110001
10001011
10001110110
11101001010
100111010
111010010
1111110101001001
1111101111101100
11101100101
11001000101
10110011111
1000111000110
1100100010010
1111001100010
1101001010010
10001000110000
1000001111011
100011001110
1111111010101111
1111111000011111
10100000100
100100001
1001010111
1111110010101010
1111111010100101
101010110
111111
1111111110000000
1111111100010111
1111100010011110
1111110010010000
11010110100
101101010110
100011111100
1111111010000101
1110100000
110100000
1000101000
11000111010
1000001111010
1111110111000
10000110000100
10100010101110
10001010110011
1110001001001
110101001001
1010100101
1111111111111001
1111110000110000
1111101011100000
1011100000
100010000110
11100111011
100011000100
1111111011101011
101000111
1111111100111100
1111011100110110
1111100001101000
1111110111000110
100110101
1111100110101111
10110111011
11100001
10011111000
1001010010110
1000011110011
1001110010001
1101001001010
1101100101011
110000001111
1010101
1111111101001010
1111111100001000
0
1001101001
1000110010
1101110100
1111111000100100
100111100001
110111000000
1101111100
100111011101
1111111101100011
1111111010111100
1111101010010001
1111111111111000
1111110110010110
1111110110001000
1111110110101001
1111011111101011
1111110010110011
110110
1001001111110
110010101100
111000100101
1010001111111
10100011001
1111110000100101
1111011110111110
1111010011010000
110111001
100110110110
11110001000
11101111010
10010011001
100100100110
11000001
11010111000
110010111100
100010000011
1111111011101001
10001000000
10111000111
10101101101
1111101110010001
100010110
100110001100
1111100111001010
1111101101011100
10010100
100011010100
10010000111
11010111101
11000011110
1111110110111100
1111011011110111
1111000011100111
1111001110010110
1111110000001110
1100000111
1000101011
1111111001000111
1111110101011101
10001111110
1111111100010111
100110011110
1111101010101001
1111110111111001
1111111111000000
100011001101
10110110111
1111111100101111
1000111100
101110011
1110011011
11010011000
1010110000
1111111110100100
10100101110
1111101010
10111000000
1111111001100111
1111110010011100
1111110011001100
1111010110000001
1111100001000010
1100001100
1111111010000100
1111101101110111
1111110110010100
1111110001011110
1111101100000111
110001110
100110100101
100101110
1111111000011110
11010010111
11010101100
1010011000
1111101001101111
10011011001
11000001111
1111110100101110
11100100
1111100011001001
1111100010110010
1111111011110001
100000001101
11101100111
11100111011
1111110011000101
1111100111110110
1111101101111001
1111110111001011
101001011
1111111100011011
11100010
10100001110
1111111000010100
100001000
101110
1111100000111010
100000010111
101101101111
1100100010
10110101110
10011000100
1111110001110111
10011011110
10010010010
1111111010011001
1111111100000011
1111110000011010
1111111110010011
100001
10101010001
100010111110
11101010001
1111110001100101
1111010100010000
1111000111101110
1111100101000111
1111111100111000
1111111000110101
1111110010101101
1101000001
100100100
101000110001
1111111011100100
11101101001
10110000101
1000000100
1110000001
11101101001
1100000101
111011011
1000111110
1111110000110011
101011001
100000000001
110001101111
1110000011
110100111
11101100011
100100100010
101001100100
1100111001
1111001101011101
1111001001000101
1111110110000010
1111111010101011
1111100010101000
1111101110101101
1111111101111100
1111110100011111
1110111000
1001011000
1111011000001001
101110101
1111100101011100
1001011
101000100011
1111101111001110
1111101000101110
0
1111100110101101
101000101010
111010111111
11110000010
1111111011111100
11000
11110100100
10011010110
11011100100
1111101111101001
1111001001100101
1111010100111010
11001101
1111111011011100
1111111001101011
1111111001001110
1111111100001000
1111101010001100
1111110100000001
1111111010111100
10000011
1111111111110000
100000011
1101001
1111111111110100
1111101110111000
1111011101110000
1111100111110100
1111111000110111
11001011100
110011110
1111111110110101
1111111110011101
1111111111100100
10001011000
1111111011001100
1111111101111000
1111110110100000
1111001000011001
1111100000011010
10010111101
11001010101
1100010100
101100
1111011110100111
1111101110011110
1000010111
100001101
11000101100
11110001110
10001101101
1010010101
1111110001010111
101000001011
1111100110110111
1111110110101100
1110110110
10101111111
1111111011110111
1100010100
1111111100111000
1111101111001100
1001100011
1111110111010110
1111110110111110
1111100001011010
1111010110100011
1111110011111010
11101100100
100101110101
11111111100
1111100111010100
1111110010001010
11000101111
11110011101
1111110111010010
1001101110
1101110010
10001010101
1111101011000001
1111101101000011
11000100001
1111100000111100
1111101001001111
110011
1111111111010001
1111101101101100
1111110100100000
1000000100
11101111100
11110100001
1011011101
1111111011010101
1111100100110010
1111011101110011
10000111
100010000000
10110101110
1111110111101111
10010001110
1111110111101110
1000101100
1111010001
11101110000
1111110011001001
1111111001010110
11100010010
1111110010100101
1111101110101001
1111111001001111
1111010010011011
1111100100100101
1011101000
1111111010110001
1111101101011110
1111110001011111
1010000000
100100001110
11000011110
1100100001
1010110001
1111011100001101
1111101000010001
1100101101
1100110111
11001000000
1110010110
111110101
1111101100110110
1111100001010001
1010111101
100011000011
100111101011
1111110010100011
1011101011
100001110
1000010100
1111111011101011
1111101010010000
1111100011000110
11011010
1010110
1111110001101011
1111101101011100
1001100000
1000000
1000100010
1111110111101010
1111100011001100
1111001110000001
1111111010001111
1111110011111111
10100000010
100000111100
1011001110
1111111111010111
1111110100110011
1101110101
101011001
1111110110010001
10010101001
10001011110
10001001101
1111111111001000
1111110100101001
1111110010101101
1111101010000001
1111011001110001
1111110001110000
101011111100
11111011010
11100100110
100001111101
1110110010
1111111000011001
1111110010100111
1111000110011111
1111011010001101
1100010001
110011111011
1000111001000
10001011111
110011100
1101011010
1111110111011000
1111110101111110
1111101011001100
1111110010010101
1111001010111110
1111101000110011
100110010000
1111110010
1111111001011111
1111111101011111
1111111101001010
1111111100100101
10010100010
1000010101111
111010010100
101011001111
10011110010
1010110010
1111101111010001
1111101100111010
1111100111101010
111000111
1000000101100
1100011000010
1101011101010
100101001100
100000011110
100001110111
10010011001
100010101011
11011100000
10111111011
1111100011111000
1111010001000111
1111111111110100
1111111001110101
10000110110
1111111011100011
111111010
1111111111000010
10100111001
100011010000
1010001001
11101011001
10010110100
11001101101
1110
1111111000100111
1000001110
11111001100
1001101110011
1011111100010
110111011100
1001000110111
110101000000
1010111100
11110001011
100001100101
110010101111
1011011001
1111101001010111
1111110100010110
1111011110111101
100000111
1111111101100000
1000111011
1001100111100
11001110111
1111110101001001
1111101011011001
1111111001100100
1111111001110110
1101101111
100100010101
1011100100
1111110110010010
1111111111100001
100100101110
110100010001
110000101001
101000101000
11011101010
1011011011
10010100111
100110111
1111101100101001
1111111001100110
1111101111010100
1111100011001000
1111110001101100
1111111111000100
1111111110100110
10011011001
11011101000
11011001101
101010000011
1111011111011110
1111101001101010
111101000
1001010010
1111111100010110
11000100101
10101101000
1001000010
1001011110
10100100111
101010010000
111100010000
110100001010
11111111011
1111110100100000
1110110011
1111110110110100
1111011110000001
1111100001010010
1111101000011001
1111101101111001
11101000010
1111111111010010
1011111
1111111101101111
1011100001
1111111001011101
110101001
1111011011110011
1111101100101010
1111111110011010
1000010100
1111111111110010
110000001
100001011000
10001000101
1111111010011011
1010000101
111010101111
1000000110110
111101111001
1000000101001
1111111111111111
1111111101101100
1111111111100101
1111110000100010
1111001101000110
1001110000
1001011111
1111111111010011
11101001
100011
1111111010101000
110111010000
100110111100
1001010010
1100010110
1111101111010110
110011100
10100001000
101000100
1111111000101110
1111110100101100
1111100010110110
1111110101101001
11001010111
1011110010101
1010001111100
1001010010001
110000000111
11000100001
1111101001000101
1111101111100010
110010000
1111101111110111
1111110010100010
1111111011000110
1111011001011011
1111111100001101
1111111110010001
1111111010101011
11110111110
101010101000
1111110111000101
1111101011010000
1111110011011000
1111110011100110
1111101100000111
1111100111011011
100
100111001
1111111011001111
1011011011
10100110011
1000011001101
1010011001010
111101101111
110101110010
101000100000
1111111001011010
1111101010100000
1111111100000101
1111101011111100
1111111110001111
1111101110111010
101111
1110010
100110
1111111111010110
1110011100
1110111100110100
1111110110000001
1111111011111100
111110100
1111111110111100
10001001011
1001000110
11011011100
1111101000
11010000011
10110000101
111100000
10101101010
11100111110
1111001000
11001010010
110011011110
1111111100001010
1111111000100101
100010111
1111111101011001
110101
1011010101
10001000011
11001101
100001110
10011111
1111111101010000
11011101
1111011000101000
1111011111010101
1111011101010101
11110100011
11111010010
111110
10111101100
101010100110
101010100011
110010101100
10011001101
10010101000
101111101011
100111101
110111100101
11010011010
101010010
1011100
1111101100000101
1111101000101000
101111000
1111110010111110
1111111101110110
111
1111010
1111111101011011
10010100
11110110
10011011110
10110010111
1100111100
10110001100
11011111110
100011111011
110000100100
101110001001
100010100110
110000100011
110001101111
1111011100011000
1111101100001010
10000101010
11011100111
100110001
1111101011110110
1111011101000110
1111111010010100
1111100100111101
100110001
1111111100110000
1111111111111001
1001011
