1111111111011010
10100000
1111111111011010
11110110
1111111100111000
100110010
1111111111110010
1111111100000111
1111111110110110
10
1111111110000001
11110110
1111111011111111
10011001
1111110
1111111110110111
100010001
1111111100010101
1111111111010101
1111111100000111
1101100
1111111010100001
1111111101111101
1111111110001000
1111100
1111111010101110
1111111110000000
1111111101111000
10001101
100111111
101000011
1111111100010011
1111110110001111
1111110101110010
1111100100110010
1111101001111100
1111100111110000
1111010001010100
1111000101000101
1110011111011010
1110101001000001
1110110100100101
1111100001000011
1111010100011010
1111001111010110
1111010000111011
1111110101111001
1111100001000111
1111100001110111
1111111110101000
1111101100111101
1111101000010011
11111011
1111111100010100
1111111111000111
1111111110001100
1100001
1111111011101011
1111111101011100
1111100011100101
1111101000011110
1111111001000000
1111101111110000
1111011111101010
1111001100001100
1110100000111000
1111001110011001
1111001110000000
1110100100101001
1101110001111111
1110010110110010
1110010011100011
1110110101001101
1111011110001000
1111100110111011
110000011
1111011100010101
1111111100010000
1111111000100110
1111111010011001
1111110101110101
1111110011100011
1111111100001001
1111111100110000
1111111011000111
1011001
10010110101
1111100001111001
1111011001111001
1111011010010010
1110111110011110
1111011111011001
1111001100101001
1111010011101111
1111101100111011
1111001101011110
1110001110011111
1110000011101111
1101111001110111
1101100110111101
1110000111010010
1111000100100000
1111011010111110
10001001
11010000010
1111111010101111
1011111001
10110111
11100101010
1111101001110110
1111110001111100
1111111111010101
1111111100110100
1111111110000111
110111001
1111110011101001
10101000
1111111101111100
11001111111
10111101101
1111110100001111
10110011
1111111000011110
111110
1111100010010101
1110111011101010
1110001000111001
1110101000111101
1111011011110001
1110101100011001
1110111000111001
1111101110000110
1111110001110111
1111111111110111
1111111001000011
10011000001
1111100101001111
1111101000000110
1111100111111000
1111100101001101
11110101
100010010
1111110011111011
1111110110010010
1111100111011100
101011101111
1000001111
111001100
101010101110
1100010110
1011100011
1000011011
1111111100010101
1111100001110110
1111100001000010
1111111110101110
10110110
1111101101001010
1111100001101010
1111100101110110
1111101001011001
1111101101100110
1111110101010000
1111101111011011
10101111101
1111101011110110
1111011011100100
1111101100110011
1111111100000010
1111101000111011
1111111100011011
11011001101
11111100
1011100000
111001010
1111001111
1111010000
10101111111
1111101101
1111111111101111
101001010
110000
1111111011110001
1111100110011100
10010000001
10101011011
1001001101
1001110110
1111110111100100
10110010100
1110011001
110111001
10000111
1111101101101000
10010110001
10101100
1100000110
1111101110000011
10111100100
100011001001
1111110110100110
1111111011010101
0
1010010010
1011010100
11001000110
11011010
1111110111000100
1111111010110010
1111111111000111
1111010000011101
1111001110001110
1111110111011100
10101010001
1111111001011100
101111
10101011000
10111100000
1111111010101110
10010111110
1001010011
1111110010101000
1111111110011110
1111111111110001
1111100001010100
10000110011
11101111111
1100111111
10110100001
1011100111
1000101000
110111100
10100001101
1100000000
1111111111000010
100001000
1111110111011010
1111010100101111
1111100000011011
1111110101010111
1111100100101101
101100101
100111111
1111111010111000
1111111100101010
1100110000
1111111000000011
1111110111111111
1111101001101011
1010001010
1111101111100010
1111001010000101
10011100011
111001011010
1111101001100101
1111111011001110
1100101101
1111111100110011
1111111011100011
10001101110
10000101111
1011101
1100000
10000101000
1111111010001011
1111011110101111
1111110110101101
100010011
11011001
1001000111
11101001
1111110010001001
1010001000
110000110
1111010100
110110
1001000000
1111100100010101
1111100111110100
10011010001
1011001111
1010000101101
1111111001001101
1001001111
10000100000
1110010110
11101011
1111111010110101
1111110110001110
10000111101
10011110
1111101111001111
1111011011000111
1111101001001100
1111111101011010
11100010110
1101000100
1111111101000010
1111101011110010
110011100
1010110010
110110110
1110101
1111110000111010
1111101111010001
10111111010
1111101011111010
100100010010
100010011100
1111100011100101
1100110101
10010110010
1111111001101100
11011110000
1010000110
11110111
100011100
1110101111
10010111100
1111110000110110
1111101100101101
1111100111000011
100101000001
111101110110
101001011001
110111011
1111111100101001
10010111100
1111111110011001
1111111100010000
1111110111000110
1111010100100000
1111001110111001
1111110101000101
1111011000010010
10110111000
11001000101
1011011011111
101001001110
1000110110
1111110001110000
1111111000000011
1111111100111010
11100000
111100110
1111111110100100
1111110001011101
1111100110011000
1111100001011000
1111111011101000
100011011100
1001110110110
101111000010
110010
1010110111
11000110001
1111111010110111
1010110001
11010011011
1111010001110110
1111011100110011
1000011010
1111111111000101
11011101101
1111100011010001
101111100111
110110001010
11100110
101011110
1111101100010111
111011010
100000000101
1001110
101001000
1010110
1111100111111111
1111100111000000
101011001
101001011000
110011101010
11100010000
1111111110010001
1000011011
100110
11101101111
10110010100
11101001
1111011010101111
1111110001101101
10100101011
1111110100010110
1111000110010110
1111101000111011
100000100011
111010101100
1100010000
1101000101
1111101100110001
1111110101000010
11101010111
1111010100
10011100001
1111110100011100
1111100100001110
1111101100001011
11010000111
110100100110
101011111010
10010001111
1000011
1101111110
11010111010
100110101000
10111101000
11111000
1111110000110100
1111101000000011
1100100100
1111100011011101
1111100011110100
1001001000
1111101111000000
1100110101
100100001100
10100110111
1111011010010101
1111110111111010
1101010110
10001101100
1000100110
1111100100100100
1111011111001000
1111111100000010
10111011000
100100100010
100101100100
1101000011
1000011111
11001000011
110001001
11110110101
1000110011
100001010110
1111110111100000
1111001010111111
1111000100000101
1111100101100000
101011100
11101010111
1111110001000000
1111101011110110
11111011000
11100001100
10111
1111110101110111
110011110
100000001010
1111110001101101
1111010000001110
1111001100011011
1111110001100011
1000010001
101000101000
10001111110
10101001001
110111001
1011001
10011110000
1101010001
10110010000
1011100
1111100110110101
1111011110111101
1110010011100000
1111000100111000
10011110011
10111
10111001001
111011010
10111001011
1111111000000010
1111110001110001
1111111001100000
1111110011000100
1111110001011100
1111101010010100
1111010001011100
1111011110101000
1111100101100100
100011100
11100110010
1010011110
101001011
1111101111011011
110110010
1111101001111011
110011
100010100
11001101
1111110101001000
1111100010111100
11001010010
111110101
101100010
1111111001101000
1111110111011001
1000110010
1111111101110001
1111011100000011
1111010011110101
1111011111101101
1111110010101101
1111011101001010
1111000111010111
1110111101100000
1111001111000001
1111011001111011
1111110001000110
1111110111100101
1111101001100111
1111110101011001
1111010001001000
1111001011101100
1111000101101001
1110111000100101
1111011010111011
1110110111011100
1110110100010001
1111001010100100
11000010101
100110111111
11111000000
1111110001010110
11101001010
1111111000001000
111011011
1111101111011110
1111100110101010
1111110000110101
11100111110
10011011
1111011111101111
1111000111100110
1111101100110011
1111011011010011
1111011111101110
1111100110010110
1111100000011010
1111010011010110
1110111001010001
1110110101111100
1110101110010100
1110110100110110
1110111010110011
1110010011111011
1110000010100100
1111000101100110
1100010
1111101110000101
10010111011
1111111110110000
1111111100001001
1111110001011101
1111001010111101
1111000101000001
1111100011011000
1000000100
1111111110101111
1111111110010100
1111100000111010
1111111001101011
1111111001011010
1111110111100011
1111101010111100
1111100100100111
1111001101001110
1111100011010010
1111100001101110
1111000111011010
1110111011000111
1111000101011001
1111010001010110
1111010010011011
1110100011000100
1111010110100100
1111111100011011
1111101101110111
1111100111011010
1111111110110110
1111100010000100
1111001100101100
1111001000000101
1111100111111110
1111110111111101
1111111011101000
1111111010110011
1111111101100100
10010111110
10010000110
1111110001110110
1111011111000000
1111010000100010
1111010000001000
1111100010000001
1011110001
1111111101100100
1111110001110111
1111110011001001
1111011011011111
1000111011
1111101110000110
1111011010001100
110000101
1111111100001101
1111010110110011
10000010
1000001111
1001000
1110110000001101
1111001111111101
1111101001011010
1111111101101001
1110100010
1011110100
10001110000
100110110011
11100110110
1111101110011000
1111100101011000
1111011010110011
1111110110111111
1111101111010011
10010101110
10000101011
10101110111
1100100101
1111101110011110
1111011101000100
1111111110111011
1111110110011001
1111110111111011
1111110000101001
110011001
1111111110001111
100001000
1111111100101001
1111000101001100
1110111111111010
11010001
1111111010111010
100011000011
10000000100
10111010
11111101111
1011000111
1111101100010111
11100111
1111110101110010
1111111100001100
1111110001000110
1111111001001010
10100011
111111100
110101111
1111111001000110
1111101110110110
1100110010
1111111001011010
11000111001
1111110100000011
101001101101
1111111111000100
1111111010110110
100010111
1111111001110010
1111110011111011
110000100
10100000111
10100101010
10001110001
1100101001
1111111101010101
1111111110010011
1111101010101101
1111010101011111
1111100010011010
1111101100110111
1111011101110111
1111101000101010
1111110111111010
1111110010011101
1111111111110110
1111110101101001
11111000100
100011000
1111111111000110
1111110000011011
11010000101
11001001100
10101000
100010000
1111111111111111
1111100001111011
111001111101
11110001010
1111110101000010
1111111110101001
1111100100
101101001
110011011
1111101100100101
1111100001111100
1111010001000011
1111011000110110
1111101100011110
1111111110000111
1010000101
1111111010001001
1111101111111010
1111111000011111
101101101
1111111111010110
1111111101010101
1111110110001010
1111110110111011
11111001111
1111111000111001
1111111011000011
11111010
1111111011011100
1111010
1110000000
10110101100
10010011011
1111110101
1111110111111110
1001001100
111110111
1111111101111000
1111111001111110
1111101110111111
1111110010111001
1111111111000011
1111111011010000
1111111101011100
1111111001001100
1111110100110101
1111111100001000
1111111001110100
1001100000
1000111010
110011
101110110
110110111
1111111111101100
0
1111111100110000
11110110
1111111101110110
100000101
1111010011
101111011000
1111100100011111
1000100
1100111111
11010000000
1111000111
1111110001100011
11101110
101101101011
11110101110
1111111010010101
1000111000011
1100000011011
100000000101
1111110100101011
10010110010
11010100100
11110101111
100000110101
11011000
1111111111100010
10110110
1111111011001011
