1111111100000100
1110110
1111111110011101
1111111100111001
10010111
100100011
11110110
100011
1111111011011101
10011101
1111111010110010
11100000
101000111
1111111110000011
1111111011011100
1111111011101100
11010100
1111111101010011
1111111111011101
100111100
1111111011010111
11100010
1111111110110101
1111111101000010
1111111100110010
1111111100101011
1111111100011011
1110010
1111111100110111
100101110
1111111101110111
11000
1111101110100010
1111101101101101
111001
1111110111011000
1111111100110100
1111111000001111
1111111111101011
1111111010110011
1110111011
1100010100
101011101110
110000110000
110100000010
110000100
1111110110100101
1010000111
10010111000
101000000111
1111110111011100
1111111000011101
111010
1111111101110010
101001111
1101100
1100100
1111111111001101
1000111
1111111110100001
1111110111001111
1010011010
1101010101
11100001000
1111110111101100
1111110000000010
1111101110110001
1111101110111100
1111110101010011
10001001001
1001001100111
1101011100010
1011011011100
110110101010
1111111111010000
1111110101100010
1111110011110011
110001110101
11000000101
1001101001
11010011001
0
1101011
11111100
11010
1111111101001100
10111111000
1111111101010100
1111100010100000
1111100110000010
1111011011110010
1111110011101110
1111101100000001
1111101101010010
10110010100
10000111011
1111110110001101
1111101100110101
1111101000100110
1111100001010011
1100011000
100001000
1111111100011000
10000101101
1001010000
11010110101
11100110011
10000111011
1111101010111101
1111110101010000
1111011010011110
1111111011101011
100101011
1101000011
1111100100
1111010110101110
1011111101
1111110111100011
10010001
1111110111111010
1111011111110001
10000111
10001001111
1111111100010110
1111110001011101
101100100
1110101001
1111110101001101
11001011110
101011100011
111101000
1111111010110010
1011000101
1111111111010111
1111101111111001
10000000001
101110000
1111100111011110
1111011111010010
1001101000
1001110
10011100
11010010001
1111101111101001
1111110111010001
1111011000111101
1111111100110110
1111111111110010
1111111101110011
1111110101100010
1100011101
1111110001001011
1111111001000111
101
1110011111
11000110
1111110011101000
1010100111
1011111001
1011011011
1111111010111101
1001001111
1010000110
111110
10111001001
1010000011
1111101001111101
11011101101
1111111101101011
110101111
1111110011001110
1111110100100111
1111110110100010
1111100111011110
1010000
10011111
1001101101
11000110
101010100
11110000
10011101
110011000
1101
110100101
110100
110101101
110011101
1001010011
110111000
1111111100010101
1111111110010100
100010000
1111101010000101
1111100111100011
1111011100101001
1111110010010101
1111111110100100
1111101011001000
1111101010100111
1111011001101011
1111100110100000
1111101101111010
11011010
10001101000
10100000001
1011111101
1000011
1111111110110111
10011001001
10000010001
1111110010011100
1111110111000101
1111110001010010
1111111011000010
1111101011111000
1100001101
1111101010110001
1010011111
1111101111010000
1111101011100111
1111100111100110
1111010011101011
1110110010011111
1111100111011000
1111100001010000
1111101110011100
1111111010001111
1111011011000010
100111011
1000011001
1001010
10110111000
1010100101
1111111101010101
1111101110111101
101100110
10101111010
1000011010
110001101
11101010100
1111111011100110
1111111100
1111111010111000
101011101
1111101111101011
1111110010010011
1111101010001010
1111011110001111
1111111000111111
1111100111111111
1110110111010100
1111011011101101
1111110001011010
1001010010
11100001110
1111110100000110
11110011010
10011011100
111010101
1001010001
110110111
10110001000
10110011110
100011010011
11111000000
1101100010
10111110101
101110101110
110000110100
10000010111
11100010000
100000001011
10100100000
1111111101010100
1111011111101101
111110101
10101101111
1111001000010110
1111101100100000
1111011010010110
1111100111100011
100010011001
1111111000100000
111110001
100010101111
1101101110
100100111111
1011110110
10011100000
11001000000
11011101011
11000011110
1001100
1111111010011101
10100000111
101110101101
100010011111
100110000000
111101110110
1000110000100
110001110010
100000011001
1111110010010111
1100101101011
110000010100
1111101000001111
1111011011100011
1111110010000000
1111111111001001
1111111111000000
1111111011100010
1010010010
1111011111100110
1010110000
1101000000
111100010
1101110001
11101101110
1111111011100101
1111101010000100
1111011000111010
1111010110111001
1111101011010000
1111101111100010
11110101000
10100100110
11101110111
101101100010
111111110111
110100001101
111010000011
10010011111000
1000011111111
11000001000
10001110000
101011001110
11011110
1111100010
101101010
1111100011011110
1111001111010000
1111110101011101
1011111001
1111110101111010
1111101010000011
1111111100000001
1111100010110110
1111010010001001
1111000011100001
1111001101101100
1111000011101000
1111100001110101
1111111011010001
100100
1111111111100010
11100010011
101111100001
101110011110
1000011100110
1110011001100
1001001100100
1100111100
1111101011111011
100010011011
1111110001111100
1101001110
1111110011110110
1111000010011101
1111000100001000
1111011101101101
1111110110100001
1111110011001110
1111111011000011
1111111001101100
1111111110010111
1111110010000111
1111100101100010
1111010011100000
1111011010010001
1111110110110101
1111111000110001
1111110011100001
1111111110101000
1111111101110111
11110100100
10101111110
1111100100
11010110001
101001110001
101011
1111111111001100
11101010010
1111101101100101
1111111010011101
1111100100100101
1111001100111100
1111010011100100
10011101000
1111101110011010
1111111100010111
11100110101
11100000001
10100111000
1111110011010010
1111101110111100
110110001
1000110001
1100001001
111101010
10110010
10101000000
1111110100111011
1111111111100010
1111110011111000
1101000101
1111101111110101
10101110010
1110010001
10010011111
100000111110
1111110101101011
1111101000101111
1111101011001101
1111110110111110
1111011100011011
11110010000
1111111111010010
100101101100
1010011001010
1000001101001
100000110010
11100111
1111100000010001
1111110110001101
10011000010
1111111001111100
1111110100111101
1111111011111010
10010100
1111101000100001
1111100101001010
10101001
10100011101
10101101
1111101001110111
1111100101101100
1111100110001111
1111100101001000
100101110
1111100111101101
1111001100010001
1111001011111011
1011011
10011010101
11111000100
1010001001111
1111000111001
1111110110100
1110000000011
1010110000000
101001001111
10010001110
10010100000
11110
1000110
1111101000010000
1111011110101000
1111011010000110
1111100100000111
1111011000001101
1111110000010000
1111110001111010
1111011000000110
1000011101
1111110011
1111011111111001
1111111101001001
1111011011101011
1111010101110011
1111010100010000
1110
11110011
1111110111101000
1111011011
111010010001
1100100001000
10010000001100
10001111100101
1111111010100
1011011011101
110110110110
10110111111
101101000
1111110110101000
1111110010000100
1111100100001011
1111110110011101
1111100111111011
1111110011101000
11101001101
1101111100
1010110010000
100111000111
1111011010011011
1111011
1111101111000101
1110111000100110
1111101100100000
1111110001010101
1111001100100111
1111100011001111
1111011010111001
1111010111100010
1111101100100011
1100101001
1101110001
11111011100
1000111111
100110101111
100010010101
110100001
1111110101110111
1111111011111000
10010011
1111111111000001
1111100110100101
1111111111100011
1111110110111010
10010111011
1001111100101
11101010100
10110010100
1111111011010001
1111101110000010
110001
1111100110010101
1111110000101011
1111011101001010
1111100011001000
1111100111010111
1111011010101011
1111010011110001
1111010101110011
1111101011111100
1111110110110110
1111111110100000
10001001111
11110101000
10111001010
1011001110
1000101011
1010001010
1001011000
1001011
1101101011
1111101110101001
1111110101000111
110110000010
101000110100
11010100110
1111111100101010
111110
110011010
1111100111000001
1111101010110011
1111101001001110
1111111011101001
1111111101000001
1111101110111000
1111101110010001
1111011101111011
1111101000100111
1111110010010110
1111100101100110
1111111101001100
1111111111111010
100100010010
10101100000
11001010000
1110100010
111000100
101101000
1111100011101010
10010010
101110010
1000010100111
110000
10110000010
1101001
11101101010
100011011
1111111011011100
1111111011100110
1000000001
100101100
1111011111011001
1111110101010101
1111110001010000
1111101100000001
1111100110101010
1111100110111010
1111101010101011
1111101101000010
1111111111101101
10111111111
10001111000
1110001011
10111011010
1111111100110010
10111001010
1110000001
1111111000110011
1001101011000
111110000101
111001110
1111111010011100
100100011
1000001111
10111111
1111111010011011
1101110011
10010111001
110010110
111000110
1111111101111011
111001
1111111110000000
1111101111011110
1111111111000010
1111110111111011
1111111010111101
1101110010
11001000000
101110000
110100000
1111111000010110
1110011011
1011001010
1010111110
1111101111100011
1001000101111
11110100100
1111110111100011
1111111101111111
1111111100101001
10110110
1111001111110110
1111001001101110
1111100110000011
1111110011001000
1111111000011011
1111110100000101
1111110110110110
11100101
1111101110101011
1111110001111000
1101010100
1111110100011100
1111111000101000
1111111100110111
1100111110
11111010
1111111000001101
1010010110
1111000111
10001010100
101010000011
11111001011
100000001001
1000011
11001101111
101010
101001110
11111111
1111111111011001
1111011001001100
1110010100
10100100111
1111111100010011
1111111000000001
1111111001010100
11101001
110010011
1000100010
1101010001
1010101110
1111111011010101
110111110
11110100110
1111111001011010
1111111100011111
100000000010
11100001
1001010111
111110010
101100100110
100100101111
101000010000
11111010001
1111111101100010
1111111111001011
1111111010101111
1111111000111111
11011011010
101000011111
10101101111
1111101100001010
1111111011001101
100110001100
10011111100
110000111
1111101101101010
1111101111011010
1101011011
1011101001
1111110101000111
1111111011001011
11000001101
110111110000
1000000000100
100101010101
100011111100
10001000000
11011111000
10011101111
1111111100000111
1111111011010100
1111111110010101
100001110
1111111101100100
1111111110010101
10111111001
111011001
1111110010110101
100011111
10001010010
110011101011
1001000011110
101000111010
11101100
100101
1111101010111001
1110011
1111100100111001
1111101101101111
100010001110
1000011110001
101110001010
11000
1111011000011110
1111010101111101
1111100100110101
101001011
1111111100011101
1111111100111101
1111111010110110
10111111
1111111111110111
1111111110110001
10000011
1111111101101000
1111110001000100
1111101110001100
1111100011011110
1111111000000101
1111111101000011
1111110010110000
1111101111011000
1111101010110011
1111100010011000
1111100101100111
110011010111
11010010111
101001011
100011100111
10110011101
101000010
111011001
1111111010111010
101100100
1111111010100110
111011
10110000
1111111101111110
