1111111110110010
100110001
1111111111010111
1111111010110010
111111
1111111011011010
1100110
1101
11101110
101010111
1111111100111011
1111111101111111
1111101011100001
1111110011010011
1011010101
1111111110001001
1111111011001010
1111111110111000
1111111011100100
1111111111110101
1111111010110000
1111111100110001
100001011
1000011
1111111010111000
1111111111100000
101111
10010110
11001110
11010100
1111111111100010
1111111100011110
1111111100101111
110011111
10100010101
111101011
1111110100110100
1111100000101011
1111011110011111
1111010010111111
1111010110001010
1111011111101110
1111100010000110
1111100100111110
1111100101100100
1111011100100011
11010001
101010000000
11001110011
101110001
101001011
100010001
1111111100011111
101001010
1111111100111011
1111111111110011
101001101
1111111101110000
10000101101
1111100101110000
1111100100111011
1111101000111110
1111100110111011
1111100001000000
11101101001
1000011101011
1001000001
1111110100101010
1001111011
1111111000010101
1111111010111000
110000001000
101000100111
10111110100
100001110011
11111000101
11110110
1010001111000
110110011101
101111101100
100101010111
11110011010
10111000
10110000
1110000
100001011
1110111111
1111100110001000
1111011111011000
1111101101111100
10110111010
1111111100011110
1111101011111100
100011100
1111011011011010
1111001101111000
1111101100010000
1111111011101100
1111111111001101
1001101001
10010100
1111111111000011
1110100001
1111110110011101
1111101011001001
1111110101000101
100001000010
1001110001011
11111100110
1111101111111111
1111011010111101
1110110
1000101
1111100110001100
10110010100
1111011011010010
10110011011
10111010011
1011010011
1001011000
11100
1111110010000100
1111100000111100
1111001010011110
1111110010111110
10110100110
1011110000
1111011100111100
1111110010010001
1111110001010001
1111011100011011
1111101010110000
1011011011
1111110001000001
1111111011101010
1111110011001101
1111100101011001
1111110100001000
1111111011010111
1111111000101111
1111111110100010
1111111011010100
101101101000
10001000001
110101110101
1111111110101100
1100101001
11100011000
1111111001100001
1111100110110101
1111011100011101
1111100010000101
1110000
11111000000
11010000101
1111000101
10000111011
111010111
1111111111001010
100000111000
10110011101
1011010010
1111101001001111
1111101101100100
1111100001100000
1111110010101110
1111101100000101
1111101111000100
1111111110101001
11000111
1111010001110110
10010100011
1000111110
1111101010101101
1000010100
1111111000010001
1111100110001110
1111110001100111
1111101010111011
1111110111011000
1001001100
1111111111111100
1111111100001101
101011110
111000
10001101
10111011
1111111001010011
1011100100
1111110101101111
1111101111101011
110000011
1111110011001101
1111101111100001
1111100001011100
1111101100010011
10001101
1111111011011110
1111100010101001
1111111111101010
1110111101
1111110110111000
1111110011000100
111001
1111101001011111
1111101010001111
1111101100101100
1111111001011101
10101011
101000110
1010000111
10101011010
1000000111
111010101
1101101
101001100
10101011010
1111101101001000
1111111100011101
11000000
1111111111011100
1111110010101101
1111111110111111
1111100111000111
1111100000010001
100100001100
1111111000100110
1111000110
111001
1111111000100111
1111110100111110
1111111101100011
1111101100011000
1111101110100000
1111111010011110
1111110001100110
1101110111
10111101000
10110111
10000001011
1111110100000100
11001001
1111111000110111
1011100000
100000001110
1000011100
1100000010
100101110011
110010011
10100001010
11101100001
1111111010100110
111100100
1010111110
1111110100101000
11010110011
1111111111000101
1100101011
1101101
1111111001000101
1111100101010101
1111101011101101
1111100110011110
1111101000100110
1111111011000010
1111111100111010
110011010
1111110010111110
1111101110111011
1111111011010001
1111111111111001
100101001
10111010100
1011110101
10100101110
10111010010
1111111110110010
1111101111010000
11100000110
1000111010
1010100011
11011110010
1111011000010011
1111111001010110
1111110001010111
1111111111001010
1010100011
10101001
1111101000111110
1111011000010100
1111101111011001
1111111110110010
1100000101
111010101
1100001111
1111110111111001
1111101100000111
1111111001100111
1111111111100110
101111
1111111110001100
1111101110111101
101000
10001100010
1111110010011101
1111010101011100
1111011111110000
110101100
11101010
1111100000000001
1111100011010011
1111110111010011
1111101000001100
1100110100
1111111011110110
1011111111
1111111000000111
1111110111001111
1111100100100100
1111100101001100
101100
10111000010
100111010111
111110001
1111111001110101
1111100111110101
1111110011101100
1111110011001101
1100101010
100110111
1111111110100100
1111110000100001
1111101111001001
1111011110111010
1111100100101000
1010111
1100001011
1111111010111001
1111111110011110
1111110001101010
111000100
101000010
1111110000110001
1111100010010110
110110000
1111101100000101
1111001110001010
1111100101100001
1000110010
11000000000
111100100111
11110111001
10001100001
1111111111101100
1111111011010000
100000100
1111111100011101
101001000000
111111100
1111100000010010
1111111010101110
110111
1111110101
100101110010
1111111111010011
1111100001110101
100000000101
1111011110100000
1111111101000010
100001
1110000111
1111100101011011
10010110
1111101100101000
1111100110100001
110011001
10011101111
110100001011
110101100101
101011111100
10000101010
11011010
10100100
1111111111100011
110000101
1111011100
111100000
11010100
10111000001
111000010
111100101011
11110011000
1111100000100011
1101101101
101100000010
1111010000000110
1111010000101000
1111100111011011
10111111
1111100010000100
1111100000100100
1111011111000111
1111101001101000
1001101110
10111100110
101111010010
101011010011
1110001110
1001101100
1111111100110011
1001111100
1110011111
1111101101011100
1111111100001001
101000
1111011110110010
1111011110110000
10101001100
111110110001
100100001001
1111011111111110
1111111010000010
110001010001
100100101
1111110011001100
1111111001101000
1111101100000101
1111100101101010
1111001101001000
1111010100111001
1111010101000000
1111100100110000
1110111
101000111011
100010001010
11110110000
11110101111
1100010000
100100010
1111111011000010
1111111110101010
1111110110100010
1111111111101100
1111100110010111
1111100010111110
111
110000110001
101001100100
10011010010
1111111111101000
1111111110001111
11111001100
11010111
11001110010
1111111011101000
1111101011111000
1111001111000001
1111001000011111
1111010011111010
1111101110011011
1111111100111101
110001
10011101000
101001100100
110011111100
1101000111
1110111110
1111111001010001
10000001010
10100
1111110011110111
1111110011111101
1010010001
10001001010
111110111011
1111101101011111
1100111
1010111
1111011100
1001110010
111000110100
10101001000
1111010001
101111
1111110000010101
1111100100000011
1111100100110111
11011000
1111110010101001
1110011
11010000101
100110101001
100011010100
1111101101011010
0
111111000
1100110101
101111011
1111111011000110
1111101111000100
1111101111101101
101100011010
100110110011
1111101010000001
1011010
1111110011010010
1111111110111111
1111111110011010
11110110001
100100000100
1101110011
11110110001
100110011110
10100011
1111111011010111
1111110100011010
1111110101101110
10000101111
100001011000
11101110000
11000111011
101100
10011100
110110
1111111100110101
1111101110100100
1111111011110100
1111101000000101
1111111100101000
110110000011
10001111111
101010000011
1111111101000101
1111111011010010
1111010000000000
1111101000001010
101111010011
111111011110
101100010
11101011101
11101010100
101000000111
101011000010
100100010010
1100011110
101001100000
101100001011
100001001101
1000110110
1111111010100111
1111101111010010
1111110100101011
1111111001010100
1111110001000110
1011001100
100101100
1111110101000011
10101011111
111011101100
10011000100
1111111100100001
1111011010111010
1111100011011000
1111011111110110
10011011100
100100110000
11001100110
110000000110
10110110110
101001100011
111010101010
111001111001
110110001000
10100100010
1100001111
1111110101110100
1111011110110101
1111100101011010
1111111011010011
1111110001100101
101011
110001101
1111110001010100
1111111110111001
1111111110
1000000110
101011001100
1111100011100100
100101111
1111011111100110
1111100101110001
1111100010100111
1111100101110100
10101101111
1111011
1111111111010100
1101010100
11101111001
100011111101
11011111110
10101001001
11101111000
1111000100
1111110100000101
1111100101101111
1111110011000111
1111111001010100
1111
1111101001011110
1111110100101110
1111111001001100
1011000
1111110101010100
1111100110011000
1111100001010001
100111
1111111111110001
100011011
101110011
1111111011100111
1111100011111001
1111010101011011
1111111000100111
1111110000010100
1111111010101001
1000101011
11010100000
100100111110
101100111111
101111000110
11000000010
1110110011
1111111100001001
1111101101101100
1111101011011000
1111101111110000
1111111011101101
1111111010000000
1111111011000111
1111110011110010
1111111110000001
1111100110110010
1111100100100101
1111111110110100
1100111
101011
1111011100010000
1111101101010000
1111011001100011
1111101101001111
1111110110011101
1100101
1111110010100101
1111110000100100
1111011110100111
111000100
1110110001
11100000001
10101100101
100101101100
10001101111
1111111010101000
1001011
1111110010000101
1011011000
1100010111
11011001011
10101000
1111111011011011
1111101100001010
1111101111101011
1
1010101
1111111
11111101011
111010001
1111001100001001
1111010100100011
1111100100011011
1111101111101001
1111101111111111
1111011101010001
1111100000111110
1111111110011100
1001010101
10010000111
100100011110
11110001110
1010100
1111101101111100
1111110110111001
1010111001
11110101
1101000101
110111110
1111101000000001
1111111000001101
101010110010
10011100111
1100000
1111111111001001
11001011
1111110010111100
1111101010010011
1111001010111100
1110100101100010
1111010010111111
1111010001111111
1111010101011001
1110111101100001
1111000001110101
1111000101000000
1111010010010011
1111010010010001
1111111011111110
110000101
1111101111011011
1111101100110001
10110101
1111101100101111
11101001001
10110000001
1111100100101101
1111011101101011
1110111101011110
1111101111011110
1001011000
11000010
1111111111000010
1111111100011110
1111111100101110
110110110
1111001010111111
1111010111011000
1111011000000111
1111100011111010
1101100
1111111101111010
1111101011110111
1111001110011000
1110111001111000
1111000011011111
1110110011101000
1110010111000111
1110101111010100
1111000111010010
1111011000010000
1111100101011101
1111011010100010
1111001001001110
1110111000001100
1111001101101010
1111100101000111
101011
1000101
1111111011100000
1111111111101101
1111111011100011
1111111111000000
1111111101001110
1101110111
11000101110
1111110011100101
1111110011100110
1111101011101001
100111001
10011111
110011001
1111111101101101
1111111100111001
1111000101100001
1111110100001110
10100111101
10010000011
1111110011011001
110011100011
1000011001
1111110110000001
1111101100001011
100001000111
1111111011001000
100001
1011
1111111100101011
