1111111111101111
1111111101010100
1111111010110000
1
101000
1111111101111000
1111111100011011
1111111011100110
1111111110110110
1111111111000101
1001000
11111111
1111111110011010
1111111100100010
1000101000
110010110
101010000
1100110
1111111011000001
10111011
10101110
1100101
1111111110110001
100110101
1111111101101101
1111111100010100
1111111101000010
1111111110011110
10111011
1010
11001111
111101
100001100
100100010
101010011
1111111000100010
1111110101100010
1111101111010010
1111101101001101
1001011010
11010100
10010001111
1111001100000010
1111110100101011
11110111000
101101110001
1111111000110111
111000000
1011011101
1111100100100110
101100001
10011010
100011010
1111111010101010
1111111110100001
1111111010100011
100011011
1111111100001011
101101
1110101010
1000101011
1111100101001110
1111111100111101
1111011100000001
11111011
111110110
1010001110
10010
1111110100110010
1110111110011001
1110110000001101
1110011111001000
1110010100010000
1110110011010100
1110100110011110
1110100010000101
1110010011011100
1110101000010110
1110110111000100
1111011000010000
10001111101
10000111110
1111111101110100
1111111110011100
1111111100010111
1111111101010001
1011100001
1110011001
1111110101101100
1111111101010101
10010011100
101111100
100011010000
10011100100
1111111110000111
10101011001
10111010111
1111111111010000
11110100
1111110100011111
1111011110001101
1111011110111010
1111001001000100
1110101110010100
1111010010110001
1111111001100111
1111010011010101
1111000100101100
1111001101010000
1111110100001010
1111111100011111
11000100
10101110
1111110101100101
100010010110
111111100
11110010000
1011111010
111011110
100101011001
11001001010
100100000
1111110110001111
11010101100
1101010100
101010010011
1110111101
10001100111
1010111
1111100011100010
1111101100010011
1111111111010100
1111011000000011
1111011110000010
1111100111000100
1111011000010001
1111010100011000
1111011010111000
10000110101
1111110101001011
1111111011101111
1111111110001100
11100
111100000
11100010111
100111010010
11000100110
100101010110
100000011111
1010000000
10000000000
1111110110010011
1111110100001100
1100000101
101110100
1110001010
1001101011
1111110111010001
1111111110101101
1101001111
1111100111000111
1111011111001010
1111011000001000
1111101000010001
1111101111010001
1111110101001100
1111101101000111
1111100111110000
1111111011100001
11000001101
1111101110011001
11111000000
101011100
110101001110
10111111100
10010001
1111111100000110
1111111010100101
10111101111
1111111100001111
111010
1111111101101001
1111111100100010
1111110000100001
1101101101
10100011011
10010011000
1111111111010011
1111110111111111
1111111011101100
1111101001110010
1111101101000001
1111010111010100
1111100101010111
1111010110101110
1111010110100110
101101110
100110011100
1111110111100001
11101111110
101001110001
10110111011
100011010000
1111101111001001
110111000
1111111010101111
1111101111111001
1111110111101100
110001110
1111111000000001
1111100111110101
1111111011110001
10110110011
101010000100
1011101110
10000101110
11000110010
1100010110
1111111010001000
10001001
10000010011
1111111000000011
1111111111011001
1111100111111110
1111111000011011
1111111101101001
10110011000
11010111000
100100110111
10111100110
1111000010
1011101001
1111111010
1100001000
1001111100
10111010
11000011
1111110001111011
1111110110111000
1010000001
11000100011
11001101110
10101011110
100110010
1000000011
10101110
1111110110101000
11110001
1111101
1111111011110011
1111101001010110
1111111110010011
10001010111
10110110000
101100010011
100100100110
100101000110
1011110100
10110010100
1110000010
10000011110
1000001110
1001100011
1111110111001011
10001100
1001001000
10100101001
101011010101
100011011001
101000110011
10001001001
10001101111
1001011000
110101111
1101101101
1101100101
1111110000101111
1111111111100110
1111110010000100
111101100
11011100000
1000011
101010001000
11100000011
1111100001011011
11000101001
10101011010
1111100001010000
1111100111110101
1111101001110100
1111111001100000
101010111
1111110011100111
10001100010
1010110000
10011111111
101111011110
110101111111
10101101001
11011001010
110011110
11000000001
1111101010010001
1010010100
1111001101001100
10101111100
1111111011101101
10001011110
10110101100
11000100101
1111010
1111110100101010
1111011111010101
1111110000010001
1111110110000100
1111010000000001
1111001110100101
1111101110101010
1111100111111100
1111101010100111
1111100001010001
1111011010011001
1111000110000010
1111110011011000
1001000001
11100010001
11101111001
1111000111
11010010011
1111110000000110
1111010000011110
1111001000000100
1110111111101010
1111011110100100
1111001100100100
101010001
11101000110
111100010000
1100001101
1111011110111010
1111110100011111
1111100011111101
1111111011111101
1111101010111010
1111100101110111
1111111000011001
1111100101110010
1111100001100001
1111101001101111
1111000011001100
1110111001110001
1111011000010101
11001100
1100010111
11001110001
111100001
1111111011010101
1111010101000101
1110110001100101
1111000010110100
1111001011000100
1001110001
1111001010110000
100101000
110001001
1111110100
110000001001
1111101101011010
1111011100111000
1111110110100001
1001010010
1111111100010011
1010011000
111010011
10001
1111110111001010
1111010000100011
1111000101111101
1111001110000100
1111011100001000
110011110
11010010101
11001001111
1111111100110011
1111110001010011
1111001011100010
1110111101110000
1111000100000001
1111011111100111
1111101010000011
1111100001100110
10001011101
1111100100101101
1011011011
111011011100
1111111001100011
1111101111001111
1111110010110000
1111110101110101
1111110000110001
1111110110000011
1111110001111001
1111111111100001
1111110000010011
1111011000101100
1111000101010111
1111010001110110
1111111100111000
1111111111010001
10011001110
100001011000
10001100011
1111111010111111
1111100011100011
1111001110110101
1111001000010110
1111111010001110
101100001
110101110
10000010100
1111101011001110
111110101
11110000010
1111110111110101
1111110111011011
1111110111110011
1111101111100001
1111110001101110
1111101111001101
1111101100111100
1111111100000111
1111010101000000
1111001110111111
1111001001011101
1111100001001010
1100110111
1111111001111111
10001001001
10100111000
1111110100
10111001100
1000011010
1001101100
1111010010110000
1010111110
10010101001
110111101011
1111110010011011
10111100101
10011100010
100001010111
1111110110001001
1111111100101110
1111011011000001
1111110111000011
1111111011110111
1111100111011100
1111110111101110
1111110001001101
1111001001101011
1111010011101100
1111011100110011
1111101101101111
1111110100100110
1010101111
11011001010
11001110101
1011111010
100111110
10010100111
1110010111
1111011101011101
1111111010110101
1111101001010110
11110010100
1111000110
1111111010110110
10011100011
11100111000
1111101011101101
1000011011
1111110100010011
1111111011100011
1111111011001011
1111110110111111
1111111000000011
1111100001101010
1111000100001111
1111001110101111
1111100001011101
1111110000011100
1111110110101010
1000111111
11010001110
11110110000
10011100100
1111111001000110
10001011011
10011010
1111100010001001
1111101010011111
10111010011
100111111100
100010111010
1000111101
0
11001100111
1000101001
1010010
1111111100011100
1000011
10001011000
1111111100
1111110110111000
1111101110010101
1111001011011111
1111100110010100
1111101000011111
1111111001010001
1000000
1100011000
11011100011
101001110000
101010101110
1011000
1010111000
1111110110001100
1111101100001010
11011010
1111111101011111
11011011001
1111111000010000
1111101100110110
100110001100
100100101001
11101110100
11001011101
1000111001
101010111
111101111
1001010
1110011
1111110011001100
1111101010000000
1111100101001001
1111101011110000
1111111001011101
1111111010010000
1111111111101001
1110001110
10000111101
1011100010
1111110111000000
1111110110000100
1111101000110111
1111100000001100
1000000
1111110011100001
10010000010
1110011100
101010110
10111110010
1110011111
101001010011
10101001000
100111011
1000110110
1011110101
111001111
1000011011
1111111000001000
1111111010000101
1111101011001010
1111110000011001
1111111111011111
1111100111110001
1111111100011100
1111111000000001
1111111111100110
1111111100000010
1111110111100011
1111110111000010
1111101111111010
1110100000
1111111100011001
1111010011111110
1111111001010000
1111110010010010
1100010000
1111111111101001
10100111110
1110100
1100001100
10011111
1111111110000111
1000101100
10101110101
1100010
100001
1111111010010100
1111101011100110
1111110011110010
1111111001010000
1111110110101110
10000100
1111110101011110
1111111110011001
101001101
1111101110101111
1111110110110011
1111011110001110
11111110110
10101001000
1111110111100101
10011110000
10010100100
1001001011
1100100011
11000101011
1111111000100101
1111111000100001
1111111111101000
100111110
11111101110
10111110010
10010010110
1101010100
100001
1001001
1000010010
1000111010
101001001
1111111001111000
1111110010110001
1111110001110001
1010101
1111100111001111
1111110100101010
1111111101000101
1111111101011100
1000100
100010100
1111101011001001
11010001111
1111111011010000
1111111101001111
1111101000100101
1111101111111010
10000000100
10000000110
10011000110
10010001100
1111110100001101
10000100000
1111111111011100
111110100
11010001
110100101
100001100
1100011000
1111110100011111
1111101001010011
1111110010010100
1111100001100111
1111001110111100
1111001110010011
1111100010001010
110001111
10010010110
11011110010
1111011010101110
101011101
100101011
1111111
10111001110
101000111001
10011110011
10100100000
11010100011
1111111101100001
1111110011010100
1011111
10001000110
11110001111
10011000010
1111101100
10011101101
1010101110
1111110000111101
1101111
1111101000011100
1111010010000011
1110111010010101
1110111011101110
1111001001001001
1111101110111111
1111111000011001
10110001000
1111111111100110
1111111110001111
1111111011001000
10100011
1111110101001000
1111111101001101
11111111110
10001110101
1111111110111110
1111111011000111
1111111001100110
100111011
100101101
10101101010
11110010010
10000001
1111111110
111111011
1010111101
1111111101101011
1000010010
111000010
1111110101011010
1110111100100011
1111010101011011
1111111000011001
1111110100011010
10001011000
100110001
1111111011000000
1111111110111010
101011001
1111111100100000
110100000
1111001010110101
1111111000110011
1111110111110100
1111111001110010
1111110111011001
1111111101001000
10100100111
1111111111110001
1111110110111000
1111110100011010
1111111
10000110110
100001000011
100001
100110001110
11000111101
10111010110
1111110100000111
11000001100
10010011100
1111100110000100
101010110
1111111110101110
1111111111111000
1111111011111000
11001101
1111111011110011
1111111110001000
100011110110
101111011001
1111101110010101
1111101110011001
1111111100001010
11110001110
11110111101
1000011100
11010001011
1000011000110
101001000010
1010011110
101100010100
100111011111
1111111000010111
1111111100011101
111000011
100111011
1111110011010011
100011001110
1111111110011111
100101001
1111111111011011
1111111100011111
