101011
1111111011011011
10010011
1111111100001000
1111111101110011
1111111110111011
100110001
101010
100100
1111111010100010
1101101
100100110
1111101001011111
1111101100101000
1011001001
10101010
1111111110100101
1111111010110100
100111010
111011
1111111011101010
1111111101000100
1001
1000010
1111111111101010
1111111010111101
1111111011000101
11000
1111111100101011
1111111110100011
1111111100111111
1111111011100110
1010011110
1011111111
10101101110
111100
1111101010000000
1111001000111010
1111010100100101
1111101001010000
1111110010000111
1111111010010011
1111101000011011
10011111100
110111010110
10100000111
1111101110101011
1111110101011101
1111111111111000
1111110111101100
11100110100
10111100011
1100000
1111111111110001
100001010
1111111011000111
10110110
1111111011000010
111010111
10100111101
110111101
1111101001111100
1111101101001010
1111001011111111
11011101
1101000011
1111110010100011
1111101101011011
101011000001
101111110110
110010100110
101000000110
101011100111
11101111111
1111111110101010
1111011101100000
1111100011101001
1111010010110100
1111001000110000
1111110100011111
10101101101
10101010100
1111111111011100
1111111011001100
111000
100110000
11101110011
10010001100
1111101100100110
1111100000101011
111111111
110101100
11100010100
100001000100
10010010000
10001101110
101100001100
100101010000
11001011000
1101111111
11011111101
11010001001
1111111011100110
1111100001000111
1111101010010011
1111100000000010
1111011011100001
1111011101101100
1111111101101111
1100100
101010101
1111111100101101
1111111010101000
1111111001110000
110000110011
11101101
10010101101
1111110000110010
11110010100
10000111001
101010011010
101001110100
11011110010
10100101001
1010110000
1111111010111101
1111111010101101
110010111
1000000010
1111101100010101
1111111011101011
1111111111111010
1111110000011000
1111111010011000
11001000110
1111010010101010
1111101111110000
1111100000110100
1111110110011011
1111100110110000
100000100
11100001
101110100111
1111100001101101
11110110111
1100011001
10010
1111100101001100
1111101001000110
1111110001010011
1111110110001011
1111110010111011
1111110011011011
1111111000011101
1111101000000110
1011011110
1001111
1111111011100111
1111110101011000
101000010
11010110
1011101010
11101101
1111101111010011
1111110011011001
1111001101110001
1111110011010100
1111101010010111
1110001
100100000111
1100000010
1111010111111000
1010000101
1111101011110110
1111111100000100
1111101011001100
1111111100000011
1111111001111001
10010010001
11001010111
111101010
1011100111
1111111100010110
1111111101000101
1111111001001000
1111101100010010
1111101011
101111001
1111111110001101
1111101001101011
1111101010110000
1111110110000111
1111111011011101
1111001111101100
1101110110
1011001010
1111111100111010
101101000100
1111111110010011
1111101100000111
100011101101
1101000
10010101001
10011001100
1011010010
11010001010
1111110001
11111100100
10000001010
11101110
100110010
1111101111100100
1111110111011111
1111111001101001
1010110000
10100001001
1111111111001101
1111110110000111
1111101000001010
1111111000010000
10000011
1100111
110011111
1000111010
1111101111100011
11110101001
1111100100101101
1111111010111111
10110000111
1011110111
10110011000
11000010
101001110
10010101101
100000001111
1111110000001111
1111111101001101
1111111110110111
1111011110110101
1111111110111111
1110100101
10010101010
10001100101
1000001001
1111111101100011
111111100
11000110
1111110111010111
1111001110100111
1111100111110111
10111100101
1110111100
1101100
1111111010100011
1011010000
1111101111000110
101011001011
1111111111110111
11100000010
1111111111111100
100100011
1111101011110011
1111001010111111
1110011100011101
1110001010001000
1110100100101110
1111000100010010
1111111000111000
1011001110
10111010100
10000001010
1111110111110111
1111110111001110
11000001101
1110000110
1111111001000011
1110110111100100
10010110
1011100000
1111001010
110001001
1111100111101110
1010110001
1111101000110011
1111101101110000
1111100011001010
1111011000101001
1110101100100110
1110001001010110
1100100100101101
1100100011000010
1101011001100100
1110001110100001
1111000001001010
1111011111110110
1111101000111010
1101100
100001111000
100100011
1111110110011010
1001000000
1111111000
10001
1111000110110011
1110010000001100
101011011011
110110011111
100001010011
100001110
1111111101010110
1111001100101011
1111010100111001
1111011000001110
1110101110000010
1101010110111010
1100101010010010
1100101100100101
1101010000000010
1110101011001010
1111100001001001
1111110111001001
1111111110001101
1111100110
110111000
1111000
1101101100
1111111111100110
10100110
10100101
1111111101100110
1111011111000011
1111010001010010
1111010010001110
10010101110
10101010101
1011010111
101110111
1111110001000011
1111011100100111
1110111100101110
1110101010110001
1110100011100110
1101101011000110
1110100010001101
1111101010111100
111111111
11000110101
11100011010
11111111001
10010011111
100011111110
11101010
1111111100101001
1111111000100001
1111110010111101
1111111000100000
1111110010010101
1111111101100011
1111100001000011
1111101011010011
100100100
1000010010100
100100000111
1111101111110111
10111101000
1111110001110010
100111100
1111110100001111
1111010010111000
1111001110011001
1111111001111111
10111001101
11010111100
11100001000
10010011101
11011001001
1010101010
10110100110
1100100101
1111111010100011
1111110011000101
1010000001
1111110101011100
1001110110
1111001000
1010111100
1111011011110000
1111010001000100
1111100111111000
1001100110
1111111010
1111100000110110
1111100110101111
110111000
11101001001
11010101100
101001111001
11001011010
111010100010
101111011011
11100011001
10010010011
1111111101111000
1111110100111100
10100000
1010110001
10001101110
1111101100
101111000
1111111011111101
110111011
1001001010
1111111100001010
1010000000
1111110011001000
1111011000011101
1111101101010110
1111111110110100
100000
1111101110110100
1111100111000001
11101110000
110010010011
100010100010
101111110000
100110010100
100000011111
101101111
10000110010
1111111100101111
1111100100101010
1111101001000001
1111101100101101
1110011110
1110011
1110011101
110100101
1111101101101100
1111111111010011
10010101111
1111110111010100
1111110010010001
1111110010011010
101111111
1111110010111100
10100101001
110011000011
11111101110
1111111111000010
100000011110
101111101110
101100000111
11011011010
100100001100
1010010110
1111110110110100
1111111111110001
1000001
1111101010111001
1111101000111000
1111100111110000
1111110111010100
11000101001
11111100
1111111100011010
100010010
1111111101001010
10100101
110111
1111111101100101
1111111111001110
1001000000
11101001110
100010110011
111010010010
100111110110
1100
100101111001
100010110100
1101000111
11011000001
10011110101
11000111101
100100110
110110111
1111111001101111
1111011111100000
1111110001101100
1111111010011000
1111000001
1110111001
11000110
1111110000111110
100010
111010
1000000000
1111111010011001
1111111110000101
1000111111
1111110101001111
1111101100000101
1111101111001101
11110101111
110011011100
1100010011
10111011110
11110110
11110110000
1110001101
1111111110011101
1101010001
1111111101111101
1101100110
100001100
1111101000010100
1111100110100101
1011000
1011100011
10000110100
10101000
1111111101100110
111010011
1100000011
10010111011
110000000
10001111001
1001100100
1010001111
1111100101101101
10101001000
1111111101010110
110101001101
1011011100
1010110111
1111111101011011
101011001000
11000110
1111111001000101
101011011
10010001000
1111111111100001
1011011100
1111110100110110
1111100111001111
1111110110011010
10100101110
10001001010
10111110110
110011011
1111100010
10101100010
10000110000
111001001
10110001011
100000100
1111111111111100
1111101110111011
100110000111
101110101110
11111111001
1111111111011111
1111111011101111
1111110000100000
1001011101
1011111010
1111111000010101
111110
1111110111001001
1111111110010001
1111111111110001
1111111001101001
1111111001000100
1111111110101000
1111111110111011
1100110100
1000111000
101000111
10000111
100011010001
10011000011
11000111101
1001100011
1011110011
1111111101101010
1011110111
10110100001
11111001000
1111101110100000
11000111001
101101111010
101001011000
1011101100
11010000
1110001
1111111100011111
11110
1111111110101100
1001000011
1000101011
1111100110101100
1111100000100111
1111110011010101
1111110110001110
1111111011010000
1111111101001111
1101000000
10100100011
11010111100
10011000001
1111110111101101
1111110101000000
10000001111
11110011100
11010011011
100101110100
1111111010111111
11000010010
11000100110
100011000101
1111110000110101
1111111100111111
100011011
1110100100
1111111100110000
100010
11100111
1111111001000101
1111111011101111
1111100101010011
1111101110100000
1111110110100010
1111111010010101
1111111101000010
1010000101
110000110
10101000111
1111011011
10010110000
1000001011
10000010010
101000011010
10100111000
1111100011000111
10101110
101011100
11100010
101001110010
10001100000
1111111101001001
1100001010
10110001
1001011101
1010101110
1011000011
1111110010110111
1111110011001011
1111111010000101
1001100010
1111111110100000
11100010
1111110111001110
1111101111000010
1111111111100111
1010100011
100010001
1111110001011100
111000001
100011001100
100000111111
11010001101
1111101110101011
10000001
1111111100101010
100110001
1000111100
110100000110
1111011110110011
1111101100000011
1111111000010000
10011001011
101011011001
110110111
111000111
1111110101110010
1111101101010010
1111110101000000
1111111010011011
1111110011010110
1111111111101010
10100110110
11000110010
1111111101101101
1111111001101101
1111101110000000
110000001
1111101011011110
1111101010000110
101010001000
11010001000
1111111111001011
1111100
1111111111100110
1111110101011001
1111010010010110
10101010011
1111110111101101
11001011011
10100110110
1001101101
1110010100
1111111110111010
1111110110000010
11111101000
11101001011
1000111
1111100000101100
1111010111101001
1111110011110111
1110101011
11100111
101001100
1111101000011011
1111101110100100
1110111010111010
1111011100100100
10010110110
1001010010
11110111
101000011
1100
101010000
1111110000110000
1111010110010101
1111010100011101
1111010100011000
1111100110111000
1001010010
1111101111111100
1000011001
1111100101111001
1111110111001100
100110100
1111100100010011
100011011
1110011100
11000110
11001111010
1111110010011110
1111101110000010
1111011000100100
1111001101110110
1111111001110110
1111111111100011
101000110
11011010
1111111011101000
110
1111111010110111
1111111111101001
1111111101111010
1111111111011001
1111111011110100
1111011111010010
1111100011001110
1111011010011101
1111010011010101
1111101111100010
1111101111000100
1111100101010101
1111110110011101
1111111010101101
1111100100000111
10000010010
1111110101000111
1111110001001110
1111100101100001
1111111011011010
1111101101110110
1111011110001111
111110
1111111011000100
1111111101110100
11001000
1111111100111101
