1111111011011010
1100101
1111111111100111
110111
1111111010100111
101010011
101010110
100011001
1111111111110100
1111111100011101
100111001
1111111110010001
1110101
1111111100110101
1111111110101010
10000101
1111111100010100
1111111111110001
101011101
100111000
1111111111010001
1111111011110010
1111111110011010
1111111110101000
10011101
11011100
101001000
1111111110001001
1111111011010000
100111011
100000010
1111111111111100
1111111001110101
1111110100111011
1111110100111110
1111110110001110
1111110101000110
1111110101001101
1111011110110001
1100011
1111110101110101
1111111111100001
100110111001
10010100111
1111100
1100110
1111000000101011
1110110001100100
1110111100100100
1110111001110100
1111010001101101
1111101110111101
1111111101100101
100001001
1010110
100110001
1111111110110001
101000111
1111110111100101
1111101111010010
1111100100010011
1111100110001111
110111100
1111011100011001
1110111001111000
1110101111000100
1111011010111000
1111011010111000
1111011001111110
1111001110001110
1111100001011010
1111101110111000
100101100
1111011011
10010000110
1111111111110010
10000001000
1110100001110000
1111100001011110
1111011101101010
1110101100011011
11110101
1111111011100010
1111111011011011
1100110
1111111011111010
1011010010
1111101000010111
10000101000
11011001
1111110101010110
1101000101
1111110011110000
1111110000001010
11010000110
1101010010
11010001
1111110110110101
10111110001
11001011001
11001001000
111010110011
101110001001
11000001110
10011000101
11101001000
1011001111
11101011
1111111000100000
1111101111111111
1111110110110110
1111111010101100
1111111100000000
110100101
1111111000101100
10101011
11100001
10000010100
1001010001
10001100101
1111110011101110
1111101010111111
1111101111100110
11101010
1111110101010001
1111101100001101
1111011000101111
1111111100101010
1111111101001111
1001011110
10110111111
11001000100
1111110011001000
1111111111001000
1111110101011100
1111110010001010
1111001000
1111111010001001
100110010101
1111100010101001
11110
100010011
1111001010010011
1111111110001000
1111110010010101
10001111010
1111111001111011
1110110001
1000111100
100000010
1111110001101100
1101111100
1111110111010011
1111101001101000
1111100110100001
1111110101110100
10010100
10001100
1001010111
1111111011011111
1111110111111101
1111101110001101
1111111101000100
1111011010010000
1111110011110110
101100
1011110010
1111011011001011
1111111110011011
1111111001110110
1111111000101011
1111010011110001
1111100000010110
10110010100
1111111101010010
100011110000
11111010100
10001101110
11011101001
11001011110
10010110000
10011000001
1110010011
1111111010010011
111010010
10100111101
101100001001
100010000001
10000000000
101001010
111100100
1111110010111000
100011
1111110101001101
1101001100
1111100011100001
100011
1010110111
1111110000001111
100100011
10010011110
1101110001
1100000100
10001000101
10101100101
11000110001
11001101000
1111111001101011
10001100101
1100101111
101000100
10011001110
101010110110
101001010011
111100100010
101011011010
10010000101
110011101
1111101110110011
1100111011
1111110000110010
1111111111000010
1111110000011100
1111101101011111
1111011111001011
1111011110010100
1011001001
10000101101
101010010100
1101111101
1000111110
1111111100010011
1111111110011100
110100101
1111111010001101
11
1111111011101101
1111110110000101
1111110011
1111011001
110000010100
100011011101
101111001100
1001001111
1111111011110010
1111111101101110
1111110101000111
1111100011101010
1111101111010011
10101000010
1111111011010111
110110101
11010
111000111
1001100011
111000100
1111111110000001
10110000111
101100101110
11011001100
10111111000
10110010110
10000011100
110000011
1111101011100001
1111110001110110
1111111000001101
10010011111
101110111111
100100111110
100001001110
1001011100
1111101110100001
1111111100000110
1000001001
1111101100100000
1111111100011100
11000101101
10001000001
11111111111
1111111001101010
1111111111100110
100001100001
1111101101001110
1001101
10000111011
101011110101
11110001011
100001001100
1110010111
1010101000
1111101101110110
1111101101101010
1111111001001010
10011111101
101110110110
11110000010
1101111000
11001100000
1111111100111001
1111101100101000
1110111010
1111111001001111
1111110011110010
1100
11011110110
1111111010010000
11101101100
1001011010
1111100111110101
101001010000
1111110010010101
11001001100
1111110111101011
1111111111110011
1111111011110001
1010001
110001101
1111111110010100
1011000010
1111010
101000110010
111001110001
111111010111
10000110010
100100000100
11001110110
1111110111000011
1100000
100001000
111101
1111111010011110
100011011111
1111111101110111
110101101000
101010010000
1111111101010100
1111111100110110
100101111101
110000110
11010111110
1101011101
100010010
100100010
111110100
1111111011010000
1111101101110001
1111110101000000
10111000011
101101000100
101011001110
11111100000
10001001111
1110111000
1011110101
1111111101001010
1111100101
10010
1111110001011011
11101011
1111111101000000
111010
100011111001
11000010111
1011
1111110111011001
101011111001
11001001101
11010010111
1111111001100101
1111111010110010
1111111100110010
1111111010010000
1111110000010110
1111101110011110
1000010100
1100001111
1111101000
1011111100
1111010100
1101000000
1111001110
1111111110
1111111001001101
10110010000
10100001101
1010100010
1111110110101010
1111101111110000
11001000001
1111110100010110
1111011111110111
1111110110
11100111101
1111110101011100
110100111
10100100101
1111101100010011
1111110010100111
1111100100100011
1111101000000001
1111011000110001
1111111001001000
10010110
1111110100100111
1111111010111110
100000101
10011001101
1111111011111001
10110010101
10111000001
10101101011
1000101001
100001010011
1111110001100011
10000011100
1111111001110110
1111111000111001
1111110010011001
1111011101101101
1110100101
11001011011
1111010101001001
1111100010001001
100100001011
1111111100111001
0
1111100111011011
1111011101111100
1111011111111011
1111011001110100
1111100100011110
1111101101110101
1111100101111111
1111101101110011
1111111110011010
1111111100111000
1111111101001010
1010101011
1111111001101101
10100010
1111110000011011
1111101101001101
101100110
1111110110000000
10111010100
1111101101001010
1111111110000001
1111111110111011
1111111111111100
1111100010111111
1101010011
11100001100
1111111100111111
1001111011
1111110011100110
1111100111101011
1111101100111010
1111100111100000
1111010100111100
1111100110100101
1111110000110101
1111101100001011
1111011001001000
1111011100101010
1111101101001110
1111100101010111
1111101010011001
1111101
1111011100010000
1111100100001011
1111101000000011
1111001110110111
1111111100101101
1111010010011010
10010100010
1111111101010010
10100101111
1111101110011000
11100101000
1111110001000110
1111110110011111
1111111011011111
111010000
1111110100111000
1011100100
1101000
1111101101110101
1111110100011111
1111111011101000
1111110010000000
1111101001000111
1111101010001110
1111100011011101
1111011000000110
1111110111101010
1111100011110110
1111010001111110
1111101000010010
1111110101100010
100111001
1111111001001000
1010101100
10100010111
11100011001
10100100000
1010000001
1111011001000110
1111010101101100
1011001000
1000000
1111110101011101
1111110110111011
1011111111
1111111010000101
1111101010010111
1111100001100000
1111110010010110
1111100110110001
1111110010001000
1111100100110011
1111110010100101
1111100001100011
1111111000100110
1111011110101011
1111100011000111
1111010100011011
1111101001111101
1111011100111010
100100111
10110001001
1111100011011101
1010111
100100000000
111010110111
110010101
1111100110110110
10110100111
1111111011001010
1111101010110001
1101000
1111111101111011
1111101111110001
1111110010001100
1010100
100110111
110001010
1111111100111001
100000101
1111101011101110
1111100001101111
1111100101111110
1111101010100011
1111101010101011
1111010100101010
1111101101011100
1111111101111111
100111101011
1110111001010010
11001101111
100001110
1110100000
11001011010
1111110010011100
1111110001000011
111110110
1111110000000110
1111110110100000
1111111000110101
10101010
1111111101001001
1111111001011100
1111111001101110
1111110000
1101011110
1111000010
101001110
1110010
1111011111000111
1111110000011100
1111100110111010
1111100000101001
1111011101011111
1111011001110100
1111111101111010
110111110
1111100101101010
11100000010
101001110
1111100001000111
1111101001
1111110101101111
1111110110100010
1111010001
11011110000
1110101101
100101011
1100010011
1110010001
10100100100
1111111111010100
1111110111010000
1000001001
100000011111
100111110110
111100111
1111111111111010
1111100111110010
1111011010100000
1111011000100010
1111010110000000
1110111011100100
1111110100101101
1111111101101001
1111110101011000
11000110
10111000
1111111100000101
1111101101011011
1111100101101001
1111110000100000
100000010
1111110111101110
1111111100011111
101011011
1111110011100000
1111110010000100
1000010100
1000001010
1010110001
11101100100
11100010111
100010000100
100001101001
1110011001
1111100011000001
1111100111111101
1111001100010110
1111110110000001
1111111000111110
1111100010010001
10110100010
1111100111000101
1110011
1101001
11000000
101011110
1111101111100100
10011000001
1111111001110110
1111000011
11000011001
10111101011
1111111100110001
1000010010
101010011
100010100100
101000001100
100111000100
101100101000
111010100000
110100101000
10100110101
1111111110111010
1111111011010100
1000110
1111111011010100
1100101011
1111111110001100
1111110101000101
1111001000011111
1111111010110010
1111111111110000
1010100
100110011010
11110110010
111111010101
100100100100
100000110101
1010001110
11000001011
100110011110
110110111100
101000010111
1011001010000
1100100111111
1010001011101
1001100001111
1100000000011
1101100011111
111011101110
1011110000111
1000011100010
100011110001
10111101000
11111001101
1101110000
1110111110100010
1111101011111101
100100001
1111111111111011
1110110
10000100101
11110011100
111011000001
1000001001010
10000011
111001000
111110100111
1101000101001
1100111111111
100110011110
101111110110
1001011011110
111011101000
100111000110
1000100010111
1110000100101
1101000100110
10011100111011
1111111001110
1100010101100
1001010000000
100010000101
11111000011
1111111111011001
1111110001011111
100
100001101
1111111111011111
1111111110101110
110111110
100100001100
101110101001
1001011100010
1011011111001
1010111110000
1000010010111
1000010100011
111001010010
1000010100110
111000111100
1001110110010
110010001101
1010011000111
1101101001001
1100110110101
1011110011100
1110000100110
1110001100110
1010000101000
110011111110
1111110101101011
100010100
1111111010101101
100011011
1111111010110011
101001111
1111111101000011
1111111110101001
1111111001001010
1011101010
100010000
1111111101110001
110100011
11001110110
100110110101
100101010010
1000010000011
1001000110100
1001000111101
111011110100
101101111101
1000001110001
110010011111
100100100011
101010010000
110110110110
100011101011
101111010
1111111010100111
1111111111111010
1111111
1010101
