100010001
10111100
1111111011111101
100101000
1111111011101000
1111111100011101
1111111111010001
11011110
1111111010101101
1111111010100100
1000
1001
1010100011
1101000001
10
1111111011111100
1111111010110010
1111111011001100
1111111110011011
1111111011100100
1111111111001100
1010000
1001010
10101
101001010
10001010
1110001
110110
11100010
1111111111111001
1111111011100000
1111111101111010
11000000
110001001
1111111011010010
1100010100
11000110000
100010010010
11010111000
11011000101
100010000001
100001110110
1111010000100010
1111001001011010
1111000101100111
11110111110
10110111010
1111111100000111
1111111001001010
1111111110111101
1111111100111111
10111111
1111111111001111
1111
1111111100001001
1111111100101000
100111001
11111
1111111010111100
101
1100101101
10000111110
10001010110
1100111111
1111110100110111
1111111000010000
100110000010
101101100100
1111100001
1111000101110100
1111010111101111
1111010010101010
1111011000110110
1111111010001000
1111011010111011
1111110111001011
1111011101100110
1111110000100001
11011001
111011
10011111100
1111110011111010
1110010
10001010
1111111011111100
1111111100000010
1111101111100111
1111010100000111
1111100011011100
1111110101111100
1111100000111100
1111101000000111
1101001101
1110110111
110011011
11001110010
1111100100011111
1111010110010100
1111011011101011
1111001100100011
1111100101010110
1111101000001001
1111001001100111
1111101110110111
1111101010111010
100010101
1011110
1111101101010111
1111111110011111
110111
10101101110
11100000
1111011
1110111
100001110
1111110011011101
1111110110000100
1111011001
1111010101101011
1111011101100101
1110111000010001
1110111011100000
1111010111101001
1111011101000100
1111011101111010
1111011101000101
1111000110111101
1111010010101011
1111010111100011
1111100000001101
1111100100111000
1111110010100010
1111110100001110
1111101110100000
1111111111010101
10011000101
1111110001100001
1111110000111111
1111100101111101
10110110101
11101000
1111111010110010
1111001100100011
1111101110111110
10011101
10110111101
1111100101100000
1111010010110111
1111110010111111
1111100000000001
1111111000110100
1111101010010001
1111001111111101
1111001100011010
1111010101001110
1111011100000100
1111010011011111
1111101000110100
1111101001111100
1111101010111000
1111100001111000
1111110011010101
1111011111011111
10
111100110
1111101000101101
1111111000011100
10000101000
1111111011010010
1111110011000100
1111110011001011
1111111111110010
1111100000101101
1111101101110101
1111101110100111
1111110111010010
10111
1111110101010110
101100100
1111101001100110
1111100001000011
1111100111010110
1111100011000100
1111100010000101
1111100111010110
1111110011010110
1111101111110010
1111111001000001
1111100100100100
1111101111101111
1111101011100000
1111111011111000
1111110101000010
1010011011
1111111010001001
1001010111
1111111000100110
1110100001
1111111110111100
1111101110001011
1011010010
1111110100001010
1111101011010111
1111111000000000
1101101000
1111111111001010
1010110111
1111111001110100
1111100100111111
1111110100000100
1111111001100101
1111111001010001
1000000010
10000000001
111011010
1111111111011000
10000110
1111110001100111
1111111001001011
1111110110010101
1111100101001010
1111100011010111
101001110
10000011000
10100000001
100000100110
11000010000
0
1111110011011111
1111011111100011
1111100000101111
1111111010010010
1111111011011111
1000101110
1111111001011011
1111111101101000
1111110010100111
1111111000011101
11001110
10011001110
11011100111
10011001110
10100010000
1111
1101101001
10111111110
1111101110110010
1111101000111001
1111101101001111
1111100011101011
1111011101110111
1111100011101001
1111111000111011
100101111
1111101101011111
1111011101111010
1010011010
1111010111010011
1111011100011100
1111100111101011
1111101110100100
11001110
1010000010
10
10110010101
101011001
10111011111
11000101000
100000111010
10101100011
11000101001
10100101001
10110001
1001111110
1011111010
1111111011010110
10010100
1111100101001101
1111010001111110
10001110111
1111110010011011
1111111010010111
1110110111
1111111111001110
111110011
1111110100001111
1111110110110011
1111100110000010
1000010111
100100101010
10000110110
11111000111
10001011011
10011001010
11110001
10100011110
11010011000
1001001001
1111110110001011
111111100
10011101
11010010001
10100111111
1111111000101101
1100010010
1110100110
10101111000
1100100110
1111100100111111
1111111001001011
1111110001111010
1111111100101011
1111101110101000
1111011101000110
1111101110111101
1111111000101110
1100000110
1110011010
1100100000
100000111
1010110100
1111111101111101
1111100101111110
1111100110011111
1111111001000100
1111111101010000
1111111011000000
1111111111101011
1111011111
10100011001
100001111111
110111110101
100010000010
10110010
1111110100000000
11001100010
1111110000111110
10111111101
100011111001
1111101011011111
1001111011
1111101000010101
1111100010111101
1111110000011111
110010100
110000000
110010100
1111111110011010
1111111011011011
1111110010101011
1111010001110010
1111011010010101
1111100111001010
1111100000101111
1111110000101111
1111101010111011
1100100101
10000111100
1000000100000
1001011010010
1010111101111
110000110101
101001010100
10001101000
111001010
11010010010
110110000110
1010011101
11011010010
1111111110111010
110111100
1111011010
1111111100101100
1010010011
1110101111
100110000
1001001111
1111110011111001
1111100001010011
1111010110000101
1111100111010000
1111101010010001
1111110101000001
110101011
100111101010
101100010100
111001001100
1001110111000
110101110111
111011100000
11010000101
11000000011
1101011011
11000111010
11010111101
1110000101
100110110011
100011110101
1111110000111011
100110001111
10011100110
100110000111
11111000111
1111000101
11000010011
1111110011011110
1111011010100110
1111101111001100
1111110101001000
11001100
1100011110
11111000111
111001101110
101100110001
100100110110
101001001110
100011100101
1111111110010111
1111101011101010
100000001010
1101010101
11001
1111011011110000
1111110001000001
1100111111
1001101001101
11110111110
101001011111
100010000111
100111110100
101110111011
11010100100
11001011101
1111101100011001
1111011110110111
1100001010
101110111
101001001011
10100011000
10100000000
101100101110
11111011110
110000010
11111010101
11011000010
101001100
1111110000110111
1011101101
11011100
1111100101010001
1110111100100011
1110111100111111
1010001111
1000100111010
11101000011
111000100011
101100100010
101010010001
110100010011
1000000000111
100100001111
1111111100111010
1111111110011010
10010101100
100000010000
100010010010
111010010
1010011011
111001000
10111111011
11001000110
11000110101
1111100101001100
111010000
1111110001011111
1100010110
1111111011000101
1111110001011101
1111010001101010
1111011000100001
1111110000101011
11001001111
10101001111
100011011001
10101101010
100111101011
1000011101110
111101000001
11001000101
101101011
10000110001
11011000001
11001110111
111011101
110001010
1111101011011110
1111111010001101
11001110
1010010101
1111110111101010
1111110000111001
110000010111
10000101111
1111100100010000
1111100010010010
1111110011001111
1111100111110000
1111001101010011
1111010110011101
1111111111111001
111110001
10101000100
10111110100
10111100111
100110111100
100111011110
100110010111
11010001100
100001010101
11001010011
1101101
1111111000101111
1010011100
1111111100100010
1111101100010001
110111111
1110100
1111111010111111
1111110100011111
1011
100001110111
1111100001100001
1111100000001001
11100010111
1111110111001100
1111111011111010
1111110001111000
1111110000001110
1111111010001110
1011010
1000000111
1110000101
10000011100
101101011111
101001010101
1110000010
1110110100
1111111010001111
1111101101101111
1111101011010101
101111000
100110110
11000000110
1000100111
1111111111000101
101001000
11101100101
11001110100
1111110111110111
1111101000010010
10110010
1111111010101000
10000000
1111101111010100
1111100111011101
1111100110011111
1111100100011111
1111111011001001
1111110010101111
1100
1111110100100100
1111111011100001
1010110000
1111110110001111
100111011
1111110110101010
1111101100110110
1111110001000101
1111110000010001
1111110001100100
1111101100111001
1111110011010010
1111100101011111
111010
100111001111
100010000001
1111100001100001
1111110000100101
1111110111110111
1111100001001001
1111011110000100
1111100011010110
1111100111001110
1111101100011011
1111011111110011
1111101010010011
1111101011111000
1111011010100111
1111011011111011
1111101000011000
1111101111001010
1111110111110001
1111101101011100
1111110000111011
1111110010000111
1111101011011001
1111100111100001
1111011100010100
1111110101101000
1111101110011100
1111101111001001
1111110011110101
10100111001
1111111100100000
1111100101001000
10110000111
1111111001110001
1111110110100001
1111011101000111
1111110101101110
1111100010001011
1111110100000110
1111100100010101
1111010101001010
1111011000111010
1111100010111111
1111011110111110
1111011011011001
1111101101111001
1111100101001100
1111100001011100
1111101011101010
1111111001110100
1111110011111010
1111010111110110
1111100000111110
1111100111111100
1111110100000101
1111101010110010
1111101000111001
1000110100
1111110011110110
1011110011
10001100001
10100110
1011101
10011100
1111110010011110
1111011111101001
1111100101100001
1111110100000001
1111101000010111
1111001010100000
1111101101011000
1111100111010100
1111111111000010
1111101110111000
1111110000110011
1111110011110101
1111011000011011
1111011000110101
1111100011111110
1111001111111011
1111011001000100
1111001110011001
1111011010011100
1111110100110100
1111110100101110
11010000011
1111011100110110
1111111111001011
1110111
1111111100001000
1001
1011001111
1000010100
11101010001
11001010111
1111100100110110
1111100010100001
1111011000010101
1111101010111111
1111101011111111
1111110101011101
100111
11110
1111101001101011
1111100101100100
1111101111010110
11000100101
1111111101001111
111101100
11100111
100000101111
1100101100
1001100001
11110010000
1111100000
10000110111
1111111111001010
1111111111001111
100100101
1111110110001110
101001000110
11011010101
1111000100
1111110001000110
1111110111010101
1111101000000100
1101001
1111111000110001
0
1111101110010001
1111110010011100
1111101110100100
1111100110001001
1000110001
10000110
1111111010111101
1111111100001011
1000000111
100111111011
10010111010
110101111110
101100111101
11100110001
111100001
1111111010110011
101101
10001
100000000
1000011011
1111100110000111
110111110
1110011001
1111100101000110
1111101100101011
1111101101111000
1111100000010000
1111110011001101
101011001
1010110100
1111110000010100
1111111110010011
11101101
1111111111100101
10011101011
1001011011110
1010000111001
11011111000
11111111010
1001000111
1111111011101110
1111101110100101
111001
101000000
101
1111111011111101
1111010
11100111
100011010
1111111100110001
1111110000011011
1111110101001001
10101000111
100010110111
100111100001
1111100010
11001100001
100000001010
11010111
1111011000101110
1111111100110110
1111111101101111
1011111000
101101011010
101001010111
11000101110
11100001000
1111110110010001
10000111
1111111100111000
100101010
11001100
