100000001
100110111
101001001
11011000
1111111111111111
10010011
1111111011101110
100010001
1111111100000011
1111111110110101
101010001
1111111111011101
110100001
11001101111
10101110000
1000000101
1111111110100111
10100000
1111111110011100
11001100
1111111111000100
1111111010101001
11111010
1111111110000000
1111111101001000
1111111111111010
100101100
1111111111100001
1111111111110101
1111111111011000
101000000
1111111111001101
101011001
110000001
11010111
1000000001
10000111000
10010100111
11001000010
101001011101
10111111100
1011011000
1111010001001111
1111110010111001
11010001110
10000010001
1111110001011010
1111100100100100
1111010011101101
1111010110111111
1111111010010001
1111001000
1111111110101001
1111111010101000
11101101
1111111100000001
101010
11000101
1101000100
11100101010
11010001010
1111111010100001
100010100110
11110101101
101111100
10011010
1111101001111001
10110100111
101001001110
1111111111100101
1111010011100011
1111000000000001
1111010110001011
1111101111110100
1111110111011001
1111101101101111
1111110001110001
1111100011101010
1111110111001111
1111111110000111
10101001001
10110110110
1111111111100110
1111111101011010
1111111111010100
100110111
1111110110101110
100000110111
11000000101
100111000111
111111001100
101111100
1111111010100000
1111111000110101
1111110000011100
11111110
100010110110
110000100100
1000011000100
101000111011
100011110101
110011110111
101000101101
1011100100
100000100
1111111110101100
1111101010011110
1000110110
100110000111
111010000
100101110010
1111111100110111
1011000
1111101101100000
101001101
11011101110
1111110011100100
1000111100
10110010
1111110100100010
10001000010
11111000011
110101111101
101101110011
110010100
1111111101001010
10111100
10111100111
11011010001
100100011110
111010110100
111001100111
10000110100
1
10011010010
1010011
1111101000011010
1111111111001010
100101110011
1001111100
100001011
10011000
110110
1111111110011100
1111111110010100
1001
1101101110
1111110111100111
1111110111101001
10100000111
11000111110
111101111
1111111011111010
1111111000100100
1111100110101000
1111110010110000
10110100110
1101010110
100010101101
100001000100
100001101111
10001101010
1111110111000001
10101100110
1111100110111000
1111110011011111
1111101101111000
1111101011010011
1111111100101101
111011011
110101
1111110110001111
1111100101100001
100100100
1111000
100110
1111111110000101
1111111100101001
111011110
1111110101110010
1111111100100100
1110000010
1001011011
111010011
100010100
11100100010
100010010111
10111100110
10110111
11011111111
10001001111
1111111001001111
11100100000
10110100110
1111111011101000
10101100010
1011010
100001011110
1111100011011010
1111111110011100
100101101101
11110011010
1100111110
1101101
1111001001
1111110101000101
1111110110100001
1100100111
10010101
1000001101
11101101100
101011001111
100000101011
101000001101
101101110011
10100011100
10010001111
100011001101
101010011011
10001100110
100110001110
111110000101
1110101110
100000111000
100011001010
10001111011
1111110010010000
101001101111
100011001011
11111010011
1000111010
1111101001110111
1111110111101100
1111111110000101
1111111010111010
1111101100001111
1111110001101001
1011
1011001101
1011101111
101100001100
100110111000
11001011000
10111010111
1010000110
10111010001
11110110000
111001011011
10000001101
10100000111
111101
10101000000
110101111
1111100110001100
10101110011
1111111110010101
1111101000110010
1111100001000011
1111101000011001
1111101010110010
1111110001100010
1111100000001001
1111101001101011
1111100110100100
1111010010011110
1111100100100100
1111100011010011
1111110100001110
110111101
1100000011
1001000110
100000010101
1110110101
10101111001
1111111010001101
1101111101
10011001001
111001100001
100010010011
1111110100011010
1001101010
1111110000010001
11111011111
1111101110001111
1110011111010010
1111011100110010
1110111011000101
1111010100001000
1111101011001111
1111010001001110
1111100000001011
1111101001010110
1111010100011010
1111010110111011
1111011100101001
1111101001101100
1111111011100010
1111110110010101
1111110100011010
100111
1111100001
11000010000
1101100101
11011111110
100100110100
111110101100
100101111010
1001111100
1111111101001101
101111101100
1111101001100000
1111001100100011
1110101100100100
1110101111001111
1111000000111011
1111011011000101
1111001101001111
1111000100011000
1111001001010011
1111110000001001
1111110010100100
1111111100110100
1111101111000100
1111101011010101
1111100011000111
1111101110100001
1111100100111110
110111111
1111110100010110
1010110011
1111111110110001
0
1111111010101011
11011010011
11110100001
11011000001
1111111101000010
101111101
1111010111010100
1111000101000111
1111001101100111
1111010101000000
1111100011101111
1111111110111101
1111111011110100
1111110100001111
1111111111111101
111101001
101010010001
10111110010
100011101000
1111101110100010
1111100000110100
1111100010001011
1111010010001011
1111010110010001
1111000110110101
1111101001001001
1111001110110100
1111100101110010
1111010001110111
1111101100000110
111101101
1111111110101100
111001000
11110001
101110010
1111110001111010
1111011010
1110001
1111111100110001
10000110110
1111110011
101000010
1111111000100101
101000001
10110011101
100111011110
11001001010
1111100011011010
1111000110000011
1111010000010101
1111101000001110
1111101000010010
1111001001111001
1111010111011100
1111011100001010
1010110
1111100111100011
1111101100010111
1111100101011101
10101000100
1111101001
1111101101011110
1111110101100100
1111111101001101
1111111111001010
11010000010
1111111111111110
10000001100
11001000100
1110111000
100000010
1111111101011010
1000101010
1011100
1111101000011101
1111010101111110
1111000011001111
1111011111110010
1111100000101000
1111001011100001
1111001101010111
1000000000
1111100111111101
1111111111001101
1111111100000100
1111010111010111
11100000
10111100101
111011111
10001001110
1111111100101010
1111111001011001
10111000110
10100111001
100010100
1101000011
11110000110
10101001010
11001110101
10011001
111001
1111110000010111
1111010010010000
1111000111110011
1111101010100010
101110
1111110110110001
1111010011001101
1111000011010000
1111110001011001
1111011011011111
1111111110011111
100110011
1111100101101100
1111110010
101000000011
1111111001010001
100011110101
11110100111
11001001001
11000111010
100000000011
10011111100
10000010110
100101110111
111110011101
101111011101
11010001011
1111111001010001
1111100000110100
1111001110001011
1111100101111101
1111110101011010
111001101
1111111011111101
1111101111011001
1111010100011010
1111101000100001
1111100101010111
1111111011111000
10000110110
1111101101111111
1111111101010110
111010011011
1111111111010110
100001111111
1000101011
1001010001
11110110000
11000011111
1101000100
10010100011
10011101010
100110000110
10010110110
1111110111100011
1111011111001000
1111011111000001
1111010011100110
1111100111101100
111000001
1111111111000000
1111110100111100
1001110100
1111011011100100
1111100111000100
1111100011111111
1111011010100011
1111101010100011
1111010111011011
10000011111
110111000100
1111111001011010
1111000010
1100000010
11000110011
100111000101
1110001100
11010000101
10100001100
11001111010
1011110011
101010101
1111101110110001
1111110000000011
1111100100100001
1111100010110101
1111111101100001
10000111
1111110111011010
1111111110010010
10000000000
1110111101
1111101100101110
1111110000000111
1111010100111001
1111100110101110
1001001000
101111
101011111000
1000110111
100111110010
1100100000
11110001100
1001111010
100111
1101100110
1110101111
1100110111
100001
1111101110100100
1111011111001010
1111100100011000
1111101100001100
1111101000001101
1111111100101101
1111110110011101
1010000001
1011001011
1011100001
1001011001
1111110000000011
1111101000011010
1111011100000001
1111110100100101
1001011000
100111010100
1100101010
1111000
10111001101
10111101101
1000010110011
10010000101
0
1110010110
110110
11111001
1100011111
1111111010110110
1111111001101111
1111110010001110
110001001
1111101011101111
1111111100010000
1111110010100100
1111111101000101
1001
1111110001000010
1101101001
1000111000
100111100
1111110101100011
1111111110101111
1111110110111011
11001010100
1111101000101011
1111111101101011
1111100110110000
1000010100101
10100111100
1111111100011000
1111110000011111
101111101
1111111010111010
1111101010100100
1111111111110000
1011100110
1101101000
1011101
1111111011011010
1111100101100101
1111111111111011
1111101110100010
11001110
111110011
1111111111100011
10001100
11100010
1101100010
10010111110
1111110011111001
1111011100111101
1000001111101
100001010011
111110001
1111111110011000
100001101111
1111101101011100
1111101100010101
1111011011100001
1111111110101000
1000110
1001
1111111111001101
10001010010
101000010000
11010010110
10001101010
10101001
1001010001
1111111011010111
1001110111
1111111000101100
110000000
10010101101
11101101011
110000001100
110111100011
1011110101
1111111111110011
10111110
11101110111
111111
100000100
100001100110
11101110011
10000101001
1111110011011010
1001110111
10100110010
10011010010
10001000110
10111110000
11011111011
1001001101
1111111101110010
101111111
1111111011
11001010010
10100010010
101000010
1001101100
1011110010
1111110001000110
11111011011
1000010111000
100101110000
1111110010011101
10000100001
1111111100110111
1111111011101100
100100110
1111111001101010
101111101101
1111111001
1111111010100000
1111101110
101110011
10100100101
1100001100
1111111100000011
1111110110001010
10001110001
1111111011010011
10001111110
100011001000
11010000110
100010001101
101010101001
10000000110
11010010001
1111111001001000
10101
1111100111011100
1111111000111001
11100100110
1010001111
1111111110100101
11001011
1111111100011101
1111101010111011
1111011100101011
10111111101
110100111
1011011100
1111111110000101
1111111000000101
11111010111
1100101101
1111111100000001
11001000
1010
1111111010100000
10011010110
10011111100
10010010111
110001100010
101001010011
111001010000
11000011000
100100111010
101001100100
1010010011
11110101100
100000011001
1111111011100010
1111111101100010
100110011
1111111111110001
1111100111000011
1111100101000110
1111001100110100
1110110111001101
1111110011011000
1111101110100011
1111111010100110
1111101111011011
1111010100110001
1010100011
1100110011
1111100001011000
1111111101010110
100111100100
1111110010110001
1111101101101010
1001100111
10111000011
1101100111
11000001110
10101001000
1111110000100011
1100111
1101100
1111111100101010
10101001
10000101
11111100
100011101
100111011
1111111110000000
1111100110010110
1111100101101100
1111011011011100
1111010001101000
1111100011110000
1111101001110011
1111111101101100
100010001
1111110111110011
1111011011000110
1111011110111011
1111011010010100
1111011111000110
1111010101110111
1111100100110100
1111110010100100
1111110101110001
1111110000010011
1110001
100010
1011
1111111010100101
