1101001
10110010
101010100
1111111010111010
101000011
1111111100011011
101010001
1111111100101111
1111111100101000
1111111110000100
100011001
1111111100101010
1111101100000000
1111101010001000
1111110110001100
1111111100001010
1111111011111101
1000110
1111111100011101
1111111010111010
11000111
101011010
1111111110101111
11001011
100010110
1111111100101010
11011010
1111111100100011
11101
1111111101001010
1111111101110000
1010
1111100110111011
1111100001111001
1111001110000100
1110111110100000
1110111000110111
1110010001011001
1110100100100010
1110101111001101
1110111010000100
1110111001100011
10000011010
1111101111000001
1111001000111111
1110111101011001
1110110010011100
1110110111111101
1111001101110011
1111110111100001
1111100111000111
1111101000000110
11000100
1111111111010000
100111100
11011
1111111111101101
1111111110111100
1111100110100001
1111011100111010
1111100010111011
1111001010101010
1110011110111011
1110101100101101
1110000001100000
1110100000010010
1111001000001111
1110110110001111
1110011001011110
1111001010101011
1111010101001011
1111001101101110
1110110100100000
1111001001001000
1111000010110101
1111000111011110
1111010011000010
1111001110110101
1111011100001010
1111010101101110
1111010101111100
1111110100101001
11001
11
1111111110111100
1111111111111110
11101101010
1111011101101111
1111011010011000
1111100000001011
1111000011011101
1111110010111100
1111100101000000
1111110011011101
1111110010000100
1111000100111011
1110100111000010
1110110101001110
1111000011100011
1110110100100101
1110111110101110
1111001101110101
1111011100000101
1111001010001110
1111010100011110
1111011010000100
1111100000010010
1111101101010001
1111100101110011
1111100101011100
1111010111101011
1111111011110100
1111111100110000
1111111100100100
1101110101
1111110001011010
11011001010
110001111
10111110000
110000101
100001000100
1000001110
1111101010100010
1111101110001111
1111111101011000
101111111
10011000100
100111
10000110010
1111100001
1111111010100101
1111111100101110
1010100011
1110100100
1111111110101101
1111110000100101
1111101101
1110100
1111001011001101
1111100001111100
110101
100000101
1111110101011000
10010101011
110111101
1111110010101011
1111111110110011
1111110100001001
1111110001000000
1111101001000010
1111100001110001
1111111101101010
1111111110111100
1111111010001000
1000010101
10100010001
1111111101101000
1111111101011111
1111110011000010
1111111000101010
1010110
101100001
1100110011
1111110011100111
10100101
1111111110110000
1111110101101100
1011010010
1111111110110011
11100110
1111011101111010
100001011
1111110011
110011101
1111111101111000
1111111011001101
1111110110010000
1111110010111111
1111101111101011
101000000
1011011001
1111111100111110
1011100000
1100011100
111000000
1111111110101001
1111111110000101
1111101101100111
1111111010111100
1111111000110101
1001011101
10001100000
1111100111011000
1111110001010101
11111110
1111110111110001
1111111111111011
1111111110010100
1111101001000010
0
111110010
1111110110101111
100011011
1111111010100101
1111111101000010
1111110111011001
1111111011001001
1111110001000101
1111111101001101
10000110
1111110101010000
1011101
100011101
11010011
1111111110010101
1111111001010111
1111111110101100
1111111011001010
110001001
1110010011
1111110011110100
101000100
1111011111011010
1111011100000011
1111100000110011
1111101100001000
1111101100000001
1111101001101101
1111111001101111
11011010011
111101010
111100
101110000
101110101
11100111
1111111000010010
1111111010001000
1111111001110100
1111110110111010
1111111110110001
1111111001111100
10001010011
10011011000
10000100000
1101110
1111110011100011
1011101001
110010000
1101000110
11101110011
1111110010001011
1111100111001110
1111100011001011
1110011001
1111111000011101
1111111101010001
1111110011001101
1111111111001011
1001110101
1111111110100001
1111110100010001
1010101101
1100011100
1000110100
1111111011110111
11010110
100100100
10101011110
10110001110
100011001110
11001000000
1001000101
1011101001
111011000
1110111011
1111111111101101
1001010110
1111110001100110
1111101101011000
1111110100001101
1111100001100000
10110010111
1111010111010011
1111110011001100
1111101110111100
111111110
100110011
1111111100101001
1111111110011111
1110100010
11000100001
1000100101
10010011010
11000001010
10100110101
11010011011
1110100111
1101001001
1101010111
10011111100
10101110110
11011110011
11110110001
100100101100
101110110
11001000101
1111111000101001
10010100000
1111111100100101
1111101000010101
11011101000
1101001010
100010011000
101001001100
1111111011111101
11100000111
10011001101
10001111010
10111101001
110101110
10100111100
10000010110
100010100100
101011001010
11011110100
100011001
1011110001
1111110010100100
100110000110
1111100011
100101111100
100010000011
101111110100
110010010101
100100011010
101011011000
110010101
1111101010010101
101001101110
1111111001001011
11000010100
1111111101111001
1100
1001111101
100000110
100111100
10011101
1111101001110000
1111110111110010
10100010111
100100001110
101010111110
110000000100
10010100010
1111110111111100
1111110000110001
1111100001
11000111110
100010001001
11001110101
100000110111
1111010000
1111111101100000
10100110000
11010001
1111101101010110
1101111
1111110010000011
1100111100
1111110011100001
1111101110110001
100110
111110001
1111111110110001
1111110000000100
1111110101010111
1111111001001000
10000001111
11100010111
11110100101
11110110110
111101010
1111111100101011
1111110111001100
1101110
1111101100111111
100110001
1111110000110100
1111110001100111
10010000011
1101101011
1011010110
1111100101010000
10100001000
1100010
1100011000
1111110101
1111111000000010
1111101111000000
1111110000101100
1111110100111110
1111101011001001
1111100110110111
1111110000011111
1101100001
101011111110
10111111100
1111110111010011
10001111001
1000011001
100101011
1101110101
11011101
1111110001100001
1111111011011100
1000001100
1101100011
101001101101
10000101100
1111101101000000
1111101110010010
1111110000000110
100110100
11011110010
1111111110111001
110101
1111111000100000
10000000101
101010011
1111110110101110
1111100101001010
1100010001
101000111
10101100001
1111001001
11111110
1001001110
1100010010
11011
1111110110011110
1111101111111010
1111110010011101
10101000
1111110011110101
1111110001010001
10010010111
1111110010001010
1111111001011010
10001010111
1010011
1111110110100000
10111000111
11001101100
10011100
10001000
11000001100
10010010101
100000110
110101010
11101111
10011100101
1000111001
1010110001
111001110
11000001001
10000111101
1001011010
10101110
1111111000000111
1111101101110010
1111111011111010
1111011101000001
1111100001001101
1111101111110110
1111111011010110
1111011111100011
10010100
1111110000010011
1111110101111001
1000100001
10101111110
1111100111000101
1111110111111111
101011100
11100000100
10011010100
1111111000
11011011011
11111110010
100101101111
101000001010
10001101010
10001000011
100000111011
1100110000
1111110101011000
1111111010100000
1111110000100100
1111110101001110
1111001110
1111111100111110
10101100111
100000000
1111011110000111
1111111010101110
1111111111010111
1111110101011010
1111111110110110
10111001
1111110010110110
101001000
100011011
100010000010
100111110010
100001010110
101000011101
101000001100
101100111110
11001111010
110001010
1111101010100110
1111111001110010
1101111010
1111110011100001
1111101000101001
1111101011000011
1111111101010110
1111111101001000
1111110111001011
110011110
11110001110
11010010010
1101011111
1111011001000100
100001000
1111110101011111
1111110111010011
1010001010
1111111011110001
1111111000000010
11101101101
11000010111
1010010010
1111111010011010
1111101111101101
11100000
1111111000001001
1111011011011111
1111011010100111
1111010001001110
1111100000010111
1111010101111000
1111011111101010
1111110010001001
1001011010
1111101100010000
1111111110000111
1111100111111010
1111110110111010
101111111000
1111111101001111
1111011110101010
1000
1111011010010011
1111010010100110
1111101111000100
1111101000100110
1111100001100110
1111100100111001
1111100101001010
1111001011001101
1111000011101000
1110111100110100
1110111000100010
1111000111100010
1111000100010010
1111010100000011
1111010001100111
1111001111010010
1111011100101010
1111011101011001
1111110011100001
1111110010000000
1111101101111010
1111101000100010
1111100010110101
1111110011010110
10011111011
1101101000
11110010100
1111001101010001
1110110010111011
1111011100100010
1111100000111001
1111101101101001
1111001010011000
1111001101101111
1111100000011001
1111001000100100
1111000101000111
1111010001101110
1111001011101110
1111100011000110
1111100101101010
1111110001111001
1111101011001000
1111101110011011
1111111001010010
1111110100101110
1111111111100001
1111111000000000
1111011111001111
1111101111101001
1111101011000101
1111000000111000
1111101001011111
1100110101
1001101011
1111100011001111
1111011001100101
1111110010001011
1111110101001011
1111100001000001
1111101011101111
1111100000001101
1111100110000111
1111101001101101
1111101000010110
1111101010010101
1111101101110000
10010010
1111111011000100
1111111011111001
1111111001011100
101111001
1111111101110001
1010101101
1111111100001010
1111111000000111
1111011000000011
1111111100001001
1000110111
1111101000111110
1111100011001101
1111111111110110
1111111110100110
1111001101101111
1111101000000001
1111011100010111
1111100010011111
1111100100001000
1111110101111110
1111110111011100
1111110011010111
1111110011010010
1111101101100110
11110100
100000100
1111111110011100
10000000
10000010010
100111
110011101
1111111001110110
11010111
10000111001
11100011101
1111101110100011
1111111011101100
1111111010001101
1000000111
1111111101010011
11010101
101001100
1011001
1111011001111110
1111100010010011
111000011
11100001100
101001001
1110110
1111110011000100
101011110
1111111110011000
1111101011101100
1111101000010011
1111101010100101
1111110101100000
1111110111011101
1111011111100100
1111100010111011
10000011001
101001101
1011001000
10
1001010011
1111111110111010
1101110111
10100111010
1111111101011000
100111111
1111111110101111
1111110101101101
100110111011
101110100011
1011000010100
1000011100101
1001001111011
1010011101101
101011101001
111110011100
101001111111
100100010001
111100101
11110011100
100001110110
1110101100
1010011111
1111111100010001
1111110100110100
1111110010100001
10111001110
1111100111001011
1111011000101110
1111011010100110
1111110001011001
1111110101101011
100011100
1111111110000110
1111111101110101
10001100
1111111110011001
100010010110
100011100000
1000000100111
110010111110
1011011101010
1010011111111
101111111110
110011101110
11011100110
11110110101
110001011110
10011101011
11011000001
1100101010001
111111010110
10011000100
110011
1110001001
1111101101111101
1111110001101111
10011101110
1111111011111011
101001
1111111111000111
10000101
10010
1111111111010000
11011011
1111110111110001
1111111010011010
100010010
10001001100
10001010110
101010000100
1111001101
1101000100
1111110010100011
110011000
11111101
110110101001
110110101110
1111111110101111
1111111110010001
11000001001
100111101
1101110001
10000110111
1000000101
10100011
1111111010101110
1111111101110010
100101001
