11111
11100100
1111100
100110111
1111111101101101
100010
10000110
10011001
1111111110110111
1111111110001111
1111111101001111
1111111101100110
1111110010111100
1111101101000000
111010000
101111010
1111111100001001
1111111011010011
1111111100101001
1111111100001001
1111111100111101
1111111010101010
1111111111100100
101010111
100100001
100000110
100110101
1111111100000111
1111111101001011
1111111111001110
101
1111111011110000
101010111
1111111111001011
10001111101
10010011111
100010001
1111111000101100
10000110000
1111100011101001
1111110000111100
1111101010101000
1111111101110001
11001010001
10110010011
1111111111110001
101001011
101000110100
100111001110
11110101100
11101110001
1111110110
100001101
1111011
1111111010100011
1111111101000111
1111111110000010
1111111011011100
100011110
1111101110100000
1111101100011110
101110110
1011100011
1111111000101110
100101010101
110010000001
101011111101
111101001110
1000110101110
111000001110
10010011101
11110001001
1000000000000
111101100110
1011111000100
110101000010
101000111101
101011110101
1111111001011101
11011000011
100011000011
11000111000
1111111100000000
1111111100001001
101111
100101101
10001111011
1111100111100011
1111111001101101
10000100001
100011111110
110011111100
100111000101
1000100
1111011110001011
1111011110001000
11010001111
10011011100
10010101
100010100110
100010010101
110100100010
1001111111101
111100100111
100010100000
111101010
10101110100
1010111001
1111101001101111
1111010101
1111101101101011
100111111
1111111101010001
1111111100111011
100110001010
1111010111111101
100001011001
100001001001
100000100110
1111101010
110001010
1011101
1101111111
1111110110011111
10001111111
1000110010
10100111011
10011010101
100111000000
101110111000
100111101011
11001110101
1111111100
1111110110100001
1111110110010000
1111001101000110
1111010000001000
1111011111011111
11000011110
1111110011101110
1111111010110010
1111111101111011
101101010111
1111100110111010
1111110001000111
1100001010
10011011000
101101110001
101010110
1100100001
1111111001111010
1111101111001010
10100001000
100000111011
11101100111
100110110011
111000010101
101010000011
110110001
1111000
1101010101
1100111000
100010111
1111101010001101
1111110110100011
101100000
1001000101
1111111100000001
11000111
10110010111
1111101000101010
1111101000111110
1111110110010101
1101011
10001110
1111111111100100
10001110001
1100010011
1111111011100111
1111101101010101
100001
1111111011010101
100101010
10010001001
100000101011
110100010
1111110110010111
1111100100010010
1111011100111000
1111100001000111
1111101101000000
1111110011011100
1111111111001010
10001100001
111111101111
1100001111
110100111
11000110010
1111101100101110
1111100110111100
10111110110
1011100111
10001111110
10011010001
11010100101
1111110111001101
1111011001100100
1111001111101001
1111100110100110
1111011100000001
1111100101011111
1111101111101010
1111011101111101
1111100110001111
1111011010001111
1111100111000001
1111011011010101
1111100010100010
1111100100110111
1111011101000001
1111111101010011
11010010011
11100011101
1100101
1111011101101010
11001110111
1111100101010001
1111111000111101
100111000101
100110100111
10000100111
100001001
101100111
1111011101100010
1111100011101110
1111011111101010
1111101110111011
1111100101110011
1111010111011011
1111100110010001
1111010100111111
1111011110010110
1111100011101111
1111110000100010
1111111101010100
1111111001101011
101101011
1111100100001101
1111010111011001
100010111011
111110010111
10010100110
11001110101
1101110110
10100001010
110101001000
100111001011
11110101010
10101001110
10101010101
1101111111
1111110111100011
1111011101011101
1111100110100001
1111110110001000
1111111101111101
110101110
11011011000
111101
1111101101111010
1111100111100101
1111111010111000
1001001010
1111110110100001
1111110100100101
1111101101000100
1111110010011011
1010001110
101111101111
100000101101
10110110011
101110110010
10110011011
1001000110000
1001
1111111101010001
11000001011
11000110101
1111111010011001
1111010110110011
1111100111111110
1111111011001111
101010
11011101
11
1111111000101100
1111100110100000
1111110101100011
1111111101001000
1111111100100011
1111111101000011
1111101001111100
1111100000101001
1111110001110101
1111011101000100
1111101110100100
11100000001
101010001111
11111010001
1111101010000111
11000011100
110110010010
100101111111
1001000
1111111100010100
1111111011110110
1111110100100101
1111111001001111
1111111011111111
1111111001110110
1111110111001001
1111101110111100
100
1010000011
1111111000111101
1111111110100111
10001110000
1111101110000100
1111101010001011
1111011111001111
1111011010000110
1111010111111001
1111101100000001
101101011
11111001110
11100001101
11100001111
101100011010
11101110110
1111111111011110
11000111110
1111110111011011
1111111100101000
110110000
1111111001101000
1111101001101000
1111110011000001
1111011010110101
1111011101110001
1111101110100100
101101111100
101001001010
100100010001
100111000001
11110111111
1001110
1111101110000111
1111111010010000
1111011101100010
1000101110
100011110
10011101001
1111101011100110
10000100110
111101001
1100110010
11000011000
1000100000
101100011
1000110
11111111101
1111110111100100
1001101
1111101110111011
1111011101100010
1111011110110111
1111100001100000
11010000101
110011000110
110101001111
101111001010
111001100100
110010110010
100101111101
1100110000
1001111010
1100101
100111000
1111011110001100
100100100
10111101000
100000111101
1111011101100000
1000011011
101001100110
101011000101
1111110011010100
1111100111100101
10001110111
1111101101011100
1111110111001111
1111011011111010
1111001000111101
1111110011011000
1001001111
101101111001
111111111101
100111000010
100011111000
101010010
10000100001
100011010101
1111111010001010
1111111101100010
100101
1111101110100010
1111110101110101
10010010110
101111000100
10110010110
1111100011111001
1111111001001001
1110010000
1111000101
1111110010011000
1111110001101010
1100100110
1111101001100111
1111111101101101
1111100010100101
1111010101101101
100010101
100011011001
1001101010010
111010001001
101001000010
10011101100
1111110001100111
1111111111000001
11110010000
1010010110
1111110100010100
1110011011
1111111000001111
1111101100001010
1000010111
110011001101
1100101
10110101110
11011000100
1100111101
10111101001
1111111001010100
1111110010111101
1111110001001111
1111111001011000
101110110
1111111111011100
1111110111100111
1101110010
11100110110
110100001100
110001101111
101010110011
1100100010
1111111000101110
1110110011
111010
1111111010000110
1111101101000011
11011101011
111111110
10000010011
1101000011
101001000011
1111101100010010
100010
100000011101
1111111100111101
10000000101
10011111011
1111110100011110
1111111100001011
1111111100010100
1111111111010000
1111110101101001
1111101011111110
11000000
1000101101
10001110100
100100010
110110101
1111111010111011
100110110
1111111110001001
10000111101
1111110101010101
1111110100011010
111010000
1111111101101110
1010111000
10100100000
100001111
1111111001111101
1111111010111001
1111110011
1111110111110100
1001000010101
11110010011
1111111010010010
10011110
1111111111010011
1111110100100001
1111101101001110
1111101000111111
1111101110001110
1111101100100110
1111101110111111
1111111100000000
1111111110011110
11010011
10010000011
10001010110
1111110001
1111110011111100
1111111001000011
1101010
1111110111001110
11001000101
10111111000
1111100011110111
11100100110
1011100001
1111101010001011
11111111001
11001001110
11101110100
10011010000
10001101110
1011011100
1111101100001000
100001111
11001
1111111100000101
1111100110001001
10111001110
10000111100
11110100101
100001100000
100011100011
1100001010
111001110
1111111001110100
1111111110111000
1111101100111110
111001
1000010011
1111110111010010
101001010101
11010101000
10110111
1111100010110010
1111001
1101101101
10001110010
101111011
10111111
10001101101
1111101100011000
1111110011100111
1011011100
1111111001111111
10000011
11001000010
11101010111
11000111001
11100101001
10100010100
11111101000
1010001011
1111100011
1111111111000111
1111111011110111
11011001101
100101001001
101000000
100111100100
1111110111111101
1001011001
1011011111
1111111011111010
100010010
11011110
10011001110
1001010010
1100101000
110010011
1111111110110000
1111111011101011
1111110100000101
1111101110000111
10001101111
100000100011
1111111001
100010111111
100101001001
100101101110
1011111100
111111000
111001100
1111110101110000
100100111110
11010110
1111110110001010
1111101000100011
1111111011101011
1010110111
1101000110
101110111011
1001000
10111111000
11101011110
10100111011
11110011
100010001
1111111110110001
1111101010001101
1111110001100111
1111110001101100
1110011
110111111
10000110010
11000000101
11011000011
100100110
1110110110
10110101000
1111111011010011
1110010011
10010001111
1101011110
1111100100101100
1111011011001100
1111111010011000
10111100
11001110
101011100
1000101001
1001000011
110110001100
11101111010
1011110000
11001100011
1111100101
1111111000001000
1111101100000001
1111111010001110
111100011
111010
10101010010
1100010110
1111111111010001
10101011101
10111011
100101011010
1110011111
11010100100
10110101111
110001000
1111111001001101
1111110010110000
1111111111101111
1111111011100000
1111111100101101
100001110000
101001110011
1111100100100111
111111000
1001000110101
110011110000
101010110000
10100110010
11001101000
1111110110100000
1111100001110111
1111110010101000
1101111001
1111111010
10000100000
1111111111011001
1111111100110001
110
1001111111
10110111101
11010101
1001000011
1111100010101101
100011101110
1110001001
110110
1100010
100100001
10010110011
1111010111100010
1001010110
1111110111110101
101001010100
101011000010
101101101101
1111110011010000
1111101110110000
1111010010011001
1111111111001010
1111101100011100
1111110111111110
1111111000111100
1111110011101101
1111101100000011
1111101001000001
1111110011100100
1111111011111110
1100111000
1111101010001001
1111001101001010
1111001101100010
1111111110011111
11000000
1111111111011011
1111111101010101
1111111110110100
11100010
1011001
1111000111110001
1111110011011110
1111100101111100
1111110101000111
100100000111
1111110010110101
100111101111
1111111111000111
1111100100110010
1111110100000100
1111110100010001
110010001
11101010110
1111111110001111
1111100101001100
1111011000100011
1111010101011011
1111011010010100
1111011100000011
1111101111000010
1000011010
110000110
1111111110100000
1111111011111101
100010010
10011111
10110101
100010001
1111110001
101110001100
10111110111
100110001010
100101100111
110111010111
10111000100
1001010111101
110001110011
1110101001000
1111010001011
10010011001100
1010011000011
1001000110111
1100111110
1111111110111000
1111101010001010
1111100011011011
1111101001011011
100001001011
1111111110001101
1111111111010111
100001
1000
