1111111100110111
1010
1110101
1100100
1111111111110100
1111111101000111
1111111010110000
1111111110001000
1111111110101101
1111111010111000
1111111111110001
1010111
1111111111001101
110101
1111111111001011
1111111101100110
1111111101101100
1111111011100010
100000110
11000011
1111111111011011
1111111110011101
100001010
0
11011110
10000000
1111111011000100
1111111010110101
1111010
100101010
1111111010100100
1111111101101100
1010100001
100111011
110001101
1000001110
1100101110
1100011101
10000101010
10110110100
11101000101
1111111011011101
1111001100001001
1111010111101000
1111110111010010
10100110101
1111111110010001
1111111100010100
1111111111100100
1111111111001110
1011111011
101001010
11110
1111111100110010
1111111010101101
1111111011010100
1111111101110000
1111111100011001
101100000
10101101011
10101111010
1111111011001000
1111100011110000
1111100011000000
1111011010001001
1111001110111000
1110110100010101
1110101001110011
1110010011111101
1101110000011011
1110010101110011
1110001110010100
1110000100010111
1110001010111010
1110100111101100
1111011101110101
1111011011110010
1111101101110010
1111010101000010
1111110001010110
10000110011
1111111110011001
1111111111110100
1111111011010111
1111111111000100
10011011
100001110
11010101100
10111100
1111100010110000
1111110000110011
1111011100011101
1111010000001001
1111000000010110
1110111001100000
1111001011111010
1111001010100111
1111010111111111
1111011110100001
1111000001100101
1111010111111100
1111101010101110
1111101010011011
1111110101010000
1111101100101001
1110101111010110
1110100010010100
1111010111010000
1111111011110110
1111101111010011
1111101010111101
1000010
101010001
1111111110100101
110010010
1111011011
1111111011010010
1111001001111100
1111110000111111
1111110011000011
1110111010000000
1111000100000001
1110111110001000
1111101111110111
1010010001
100001001101
10100001001
1111111001110101
1000110101
1111110100010010
1111111011100000
1010110111
111
1111110011110011
1111110101110110
1111100100101001
1111010000110111
1111011110001111
1111101101001001
1111101101001001
1000001
100011001
1111110000000011
1111100100101010
1111100000101011
1111111111111010
1100111110
1111100100000010
1111101011000000
1111110000001110
1111011110011100
1111101101101010
1111110110101000
10101011
1111111110001110
11101
1100001010
1111111101110111
1111101000010101
1111111000110111
1111111010011011
1111111011010000
1111110100010000
1111101010111011
1111010101101001
1110111110100000
1111001011011111
1111111000111001
10010111
1111111111010010
1111111111010101
11000110101
1111101000100100
10011111101
1110010111
1111111011011101
1
1111111100100000
100111101
1001011001
10111000011
10110000
1111101100010001
1111101011110101
1111101010111000
1111110101011010
1111111000110011
1101000001
1011100111
10100000111
111000010
100101
1111110111100110
1111011001010111
1111001000011101
1111100101011111
1111111010001000
100111010000
100000000
11000101110
1101110000
101111
1100110001
1111111111100110
1001111011
1101001000
11011111010
100100010111
11100111000
1111110101000100
1111011111101001
1111011010100011
1111110101011101
10110111
1111111110001011
110000110
1100001011
1101000001
10001111
1100001101
11110110100
1111100101001101
1111100101111111
1111110000100010
11101111110
100101101000
1111111101101001
1000011111
1111100101010110
11110111
111011001
11111100000
1010100001
1010011100
100110111111
100011110000
10100001100
1111110101110110
1111110010111101
1111100101100100
1111101101110010
1111111111001000
1100110010
101001101
10000001101
1111111001001111
1011100
101100000100
11100000101
1111111011100100
1111111111010110
1111100011100111
11100110100
10011111011
1111110001101100
1111110110100010
10101011111
1001010111
11001110011
10000000000
1111110010010011
1010110101
1100001100
10010000000
1110011001
1000111010
1111110101110110
1111011111110111
1111101010010101
11110011
10110000101
1000100000
10000101011
110011100
11100011100
100000111010
101001110001
1100010110
1110111011101101
10111011101
10111011101
1100100001
1010010110
10100100010
1111100010
100100110111
1110001010
1111111100010011
1111110100100111
1100110001
10100110011
11000001010
10010111010
10101010000
1111100100110010
1111100011110110
1111110111000110
111110001
110101000
10111111
1010001001
11011000110
10111011101
10110011000
11010110011
10001110010
1111001010101110
11101100000
10100111010
11011000001
11111110110
11001111101
1011011001
1001111110
1100001010
100101000
1001111110
100100001101
100111001010
11100011011
1111111001011000
1111010101111110
1111011000100011
1111111101010100
110101100
1010010000
1111111111001010
1111110110111011
10111111001
11110000
1100011010
1110101100
100111101010
1111101101110011
1000001110
10111110111
10001101001
1001000111000
10011101110
1111110001101110
1111111110010101
11101100
1110011110
111101010
11111000001
101001101111
11100001000
1111111000010011
1111011011111111
1110101100001010
1111001000011101
1111111101110101
10110010011
10000100001
1010011011
1111110101100001
1000110110
1111101011000011
1110101100
1111111010101000
101010111001
1111101110000110
1111010100100001
11011111
111100010
111001010100
101111000010
1111110111000010
1111100100101101
110001011
10101011111
1111111001110110
11000011011
11101011101
101100100
1111101101110001
1110100011101110
1110110111010110
1111101111011010
1111111000111001
10101110100
11001101
1111101100001101
1111010000111111
1111011100000110
1111111000011011
1111101110001110
1111100111110001
1111111011110110
1111011101110010
1111001100010111
1111100111010111
1111101001000100
100100000000
110101110010
1111101001011000
1111011100000101
1111110101011101
101110000
1111111001010101
1111110110
100001
1111111001001101
1110111011010111
1110101011001100
1111010011000101
1111111100101110
1010000000
1111110101100111
1111101101111111
1111100111001000
1111011100111100
1111011110100001
1111101110010000
1111110001001000
10011000100
101001011101
111101
1111010110000110
11100100
1111111001100100
1111111110100010
1111111101000111
1111111110001110
1111110001000011
1111101111011111
1111111010010101
10010101011
1111101011111100
1111100101000110
1111011011101111
1110011110101001
1110110111010110
1111010110001000
1111111011001001
1111111110110010
1111011100000010
1111101000000111
1111110011001000
1111100100010010
1111110101111101
1111111101001100
1101011101
1110001110
100000010010
1100010110
1111100100000101
10101101
11111010110
1000011101
1111101000001111
1111111011010100
1111101101101101
1111101111111110
1111110010001100
10101101010
101011101
1111101010110010
1111010001010000
1110111010011110
1111011001001100
1111100100100110
1111110100110111
1111101010101001
1111101111011000
1111100101100000
1111101111010011
1111110100011011
11101
1110000010
10111111000
11011001111
10010011101
1111101000110110
1111010001001010
1111100100011001
11101111
100010110
10001001110
10001010101
1111111000010001
1111111100101000
1111101010111010
1111101001101010
1111101110111000
1111110111000110
1111110001011000
1111101110100010
1111100101000111
1111111011101011
1111110000011011
1111110010111000
1111101011000000
1111110010001101
100101101
1111111001101100
1111001111
1100100011
1010001111
10100000000
1100010101
11101010010
1111101011100111
1111101001110100
100001
1111110111101101
100001111000
1111110011001111
1111101111111011
100011110
1111111101010111
1111101110111011
1111110001000100
1111111100100001
1000000
1111100110100011
1111101001111111
1111111101000011
1111111001101101
1111100011101001
1111100111101010
1111111110011101
10101001011
10011010000
1110101100
11000000111
1111111110011111
10000001111
1111111000111100
1111011111111111
1111101111010010
1111011110100101
1111101101111011
101000000000
10111101001
1111100001110111
10110010001
1111110010101010
10001010000
1111111010111110
1111111100101011
1110100100
1111110001111101
1111100110001011
1111010111001011
1111011000110001
1111100010000100
1111011000011010
1111100100100011
111100000
10010101
1111111011111010
10101110
1110111011
11010
1010001011
1111110110001111
1111011010001011
10000001000
1111110011010101
10101100
1001110010
10010100000
1111110111100111
1111100101010001
1010101
1111100111000110
1111011100000101
1111110011010111
1001111000
11000001
110110000
1100011
1111101001101001
1111110011111010
1111100100111110
1111101110101101
1111111011011110
1111101110111001
1111111101101100
1111111111001100
10101111011
1101001001
1111100101010111
1111100101100010
1111010010010011
1000101101
1111110111001001
110110
1111110011010010
1100101
1111110010100011
1111110110111110
1111110110000100
1111101001011111
1111100100110111
1111101101111010
101100100
11100011111
10100100011
10001111010
110111001
111011001
10110101
10100110010
10000100100
101101100
1000101000
101101
10000000010
1111110110000110
1111101100011001
1111100000111000
1111110101000011
11111110000
10011010101
1000110
100010011
110010010
1111110000101101
1111101111011001
1111111111101000
110100011
10001110011
11100011001
11101010111
1001100001
111100010
1100101100
10011110001
11100010010
10000100111
10001010111
11011000010
10111111010
1010011010
1111110101100011
1111111011110000
1111100001101100
1111011011100110
1111100111000011
1111111101110110
111000
10111100011
1111111011010100
1001001
1111001001101010
1111011101010001
1111110100111010
1111101011110001
1111110011
101010110
10110101
11111000111
1111111000100010
1111111000100110
1111101111111101
1111111000000010
10000110000
1111111011010110
1001111101
1011000111
11100100001
110001000
1111110101101100
1111100011111100
1111110011010111
1111100100101111
1111110010110100
1011100101
1111101001010101
1111111111000101
1111111110100011
11110001
10110110001
1111111101110100
10000101011
1001010010
11100110001
1111111010110011
111110101
1010110111
1110101011
100101111
1111101110101011
1111110010111110
1111110011100111
1111101100001001
1111100110110110
1100001011
1111110100000001
1111101111101101
1111111101010110
1101101111
1101
1111101110101000
1111111010001000
100010010001
11101110
1111111011111010
1111111011011111
100100100
1111010010101011
110100101
11001011010
100110000
100101001
111111001
1111110111011010
10011001000
11011001
11011001110
1111111110010100
1111111010010010
1111111111001101
1111111111011000
1111111100111110
1111111111011110
11001101111
1000111011
1001101000
1011011101
10000101100
10001001110
11011000101
110110100
10001000
1111111110011011
1111111010111011
100000
11101
1111110100001011
1111011110011111
1111111101111100
1111110100110100
110000000
1111111110101000
1111110000000000
1111101111110111
1111111001101101
1111011110010100
111101
10101010
1101000
1001011
1111111011001001
111111010
1111111011101100
1010011000
1111110011001100
11101110000
101000110
110011111
1111110111011101
1111
1111111101010110
1111111100011111
1111111100001000
1111111101110011
101011100
11010110100
100001001110
1111111011100100
10110001100
11010110011
101100111101
101111111010
1101100001
11011101011
1000110111100
110100011001
1111110101111011
1001100011
10000101111
10100000
11101111110
1100011010
1111111101101110
110010010
10010101000
1111111111001001
1111111011101011
1111111111010001
101010
