1111111101110001
1111111100101111
1111111011101111
10001111
11011
1111111010101011
100100001
11000100
1000100
101011110
1111111011101110
1111111100101010
1111111001010100
1111100100100001
1111101010100000
110001
1111111100101010
10000
1111111111010111
1111111011110100
1111111111001110
1111111010111000
1111111011000111
1010110
1111111010100101
10100
100001011
100001011
10000110
1111111100111001
1110011
100001011
1111110011101101
1111100101101001
1111001010000110
1110101000110100
1110111110111011
1110010010000110
1110101011110010
1110111101101110
1110111100010010
1111001110010000
110000110
1111110000100111
1111100000010111
1111010100111000
1110110010111110
1110101110001111
1110111000110011
1111001000101010
1111011001110011
1111011000011011
11011101
1111111101110001
1111111101101101
1100001
1010110
1111111101110111
1111100011001010
1111100110000000
1111101000010001
1111001000101110
1110110101110000
1111101010100111
1110101101001011
1110010111011100
1110101001011000
1110000100101000
1110010011100011
1111100011001001
1111100100010101
1111100011101011
1111001111111100
1110111111101000
1110011000000101
1110001101011111
1110000101110110
1110000110101111
1110111101000111
1110111011010101
1110111101011110
1111001110001010
10111000
10100000
1111111011100011
1111111111111100
100110101
1111011110110100
1111111110111101
1111001011111000
1110101000001001
1110100100000100
1110111000111100
1110110100100110
1111010001000111
1111001111011001
1110100111101001
1110010110000011
1111010011111100
1111011100101011
1111001100110100
1111101100101101
1111110100110101
1111101110010000
1001001010
1111111000101101
1111100010010001
1111011000000011
1100001
10010001001
1111111110010000
1111111100001110
1111111011000101
1110
1111111001111111
11110100100
1100100011
1111100111111010
1110101101101111
1110111001101111
1110101111011100
1110100001000111
1110110001100000
1111001001001111
1111001011111001
1111001000111101
1111010111010000
1111110110000010
1111010001111011
1111001100000010
1111101101101011
1111110011100111
1111110011110100
11001110001
10100100110
100001011010
1100001100
1111101101111110
10100111010
1111100011100011
1111111011100110
1111111111110001
1111001111111111
1111110111011110
1111100100111000
10111110011
1100011
10110011
10101000111
1011101111
1111111011010011
1111101100010101
1111110001010001
11101101
1111111101101000
1111101001100001
1111001010011011
1111110100001001
1111111001100010
10110110
1111110100111111
1111110011101001
1111110100001101
1111101001100100
1111100101110110
1111100100010111
1111010010010010
1111011000101101
100101000
1111100010100100
10010101110
1111100100000111
1111100010101110
1110110110
110000011
1000010
1111111101001111
110
10011100010
100011000
111000001
1010111011
11001000100
10101100000
11000111110
110011100011
11101100101
10001111110
1111111011111010
1001101001
1110001
1111101111001000
1111000011110110
1111011111100000
1101101011
1111111010001001
111
1111111010000101
110011000011
110111111
1111110100001001
1111110000110011
1111111111001000
1111110000111111
1111110101111011
1111110011000110
1111111100110100
1111101101110101
1111111100111011
10011111010
1110111110
11010001110
101010101101
10111110001
1011100110
101001001
1101100101
11000111
1111101111000111
1111111010010010
1111010110100110
1111100011110001
1111011101101101
1010010110
1111011001111011
1111111111101001
10011110
1111111100110110
1111100000
1100110000
1111110111110111
1011110000
1100000110
1111111011100001
1111110000000010
1001111
1111111011110101
1111111000100010
1011101101
100110011101
110001111101
10100110011
101000110
1111111111100111
1111111111011101
1111111000110010
1111111000100011
1111111001111110
1111101001111000
1111101000110001
1111001110001110
1111100011111101
1111110110110011
1010101001
1111011101110001
101100101
101001101
1111111101000100
1111110011110001
1111111001010010
1111101110101110
1111110011100011
1111111100011111
1111110011001000
1111110101011110
1111110101011101
1111111000100001
10000010101
1111101110
110110110
1111111110000101
1111111011111100
1111111010110101
1111101101100000
101001010
1111110000010101
1111111001001000
1111101101010001
1111011111000001
10010101000
1111110011000110
1111110101010101
110011000
1111110101001111
1111100010111100
1111100010001000
1111111110010001
1111111110111011
1111100110011011
1111110110101010
1111100011001011
1111101011101011
1111101100000001
1111101111111100
11011
1111111111001101
10100101001
1111101101110111
1111111110101110
10011110
1111110011001100
1111110100110000
1111100001111100
1111100001010001
1011111011
10010101110
1111010011010101
1111101011001010
1011001
1111011011100001
10011101000
101001100
10010100001
1111110000010010
1111110010111101
100011000
100000110
1111110011000111
1111101110111110
1111101111111001
1111110101100011
1111111001110111
10010110010
110011001001
11111110100
100001101110
1011110110
101101
1001101
1111111001110101
111111
10010001101
111010101
1111101101001000
1111000010110110
11101010
10001000
1111110100101001
11100011010
1100010001
10
1111111100010001
1111111100001011
110010
1111111111101011
1111111001111110
1111110101100011
1111101111100101
1111100011110000
1111101100010000
100000100110
110110100011
101100100110
10111101000
1110011111
1111110111000111
1111101000001000
1111011010011100
1111101001111100
1111110100101101
1111011100000011
1111010111100110
1111110010000100
10011001010
1111101001100111
1111110101000110
101000010010
1101010010
1011111100
1111110100011010
1111111100101100
1100010000
1111111101111110
1111111110001011
1110110
1111101100101110
1111100001110001
1111111101011101
10111010001
10110111101
11000111011
11001100001
1110111
1111100011010011
1111101011101100
1111100110101110
1111100010111000
1111011001100110
1111011110000011
1111100110000110
1111101100011101
1111010011101001
1111101011000100
110001001
100011101000
1011101001
10011010110
1000111001
10111
10111000111
1111111101101001
111001100
1111111011001001
1111011100011011
1111011100110100
1111100010011001
1111101011011011
1111111100011111
110000000
10011111111
110001001
100110001
1111110110111010
101111000
1111100010100100
1111110111111101
1111011001100101
1111010101011000
1111111110110011
1111010101101101
1111110000101100
110100011
1111010001100100
11010111011
11101100101
111010100000
110010001010
100100000110
11000101010
1001101100
1111111011001111
1111110011001101
1111100111101100
1111010101000110
1111010011001111
1111111011111100
1111100
100011101011
11101100111
1111110111011001
100000001
1111111010101111
1111111001000000
100000111
1111111010000011
1111001001010010
1111110111110110
1111110011000100
111000100
1111011100010011
1111001000010110
100010101101
110001001110
101111000101
110110011010
100010100110
100111101000
11000110001
111000000
101
1111111100000111
1111110001100000
1111101100100110
1111110111100000
10001001110
100010100100
1101100110
111111110
110011010
10011010001
1001111111
1111110011001100
1111010110011001
1110101001000000
1111101111000001
1010100011
1010001
1111111101111011
1111111111111110
110110100111
11001100111
111100000100
1011111111
11100110110
101110010100
10101110010
100010010000
11001000010
11001010000
10001011110
11011101101
100100110100
11001011001
100100001010
10001100100
1111111111001010
1111111100100000
1111111001100001
1111111101010001
1111110000010010
1111011101110110
1100010010
1111011110
10010011100
100101001110
1111110111010011
11011111111
10001111011
11111111
11000111110
11010000
10100010111
11011101010
1010110100
100100000011
10100010111
10010110
10010011
11111100101
11100011010
11100110000
1001101101
10000010
1111111100011010
1111111110011010
1110001111
1111101000101111
1111011101001011
1110110110010011
1111111100000111
11111010111
1111011010011011
1111100101010100
100001111111
100010111011
110010110
1111111010010001
1111110001010000
1111101111100010
1111111110001001
1100111110
1111101000100100
1111101001010001
1111110010110100
1111110001110101
1010000
10100100011
1111111110001010
1001110011
1111011100111100
1111101110010111
1000100101
1011000101
110111111
1111101110111101
1111011010010100
1111001101111101
101011011
1111000010000001
1111110000110000
1111111110111111
10101111001
1111101001000011
1111010100111101
1110101111101100
1110111101000111
1110111001000010
1111010111110111
1111010001101110
1111010101000111
1111011001100000
1111011010111111
1111011100001100
1111111011100000
1111111010010111
1111101101101000
1111111001101101
1111110101111001
1111100010011010
11100100011
111000
1111110000011001
1111010010111110
1111100000001001
1111011000001001
110100100100
1111000011111000
11000010111
1111110011000101
1111000001011101
111
1111101010100110
1111000100110100
1111100100011100
1111001001101011
1111000000111101
1110111111101100
1111000011100101
1111011001001001
1111001000111011
1111010000011010
1111010000100001
1111011110011111
1111011111110011
1111111001100000
1111011000101010
1111101001000110
1111111011010011
1111111011100010
11100010
1111101110010010
1110111101101111
101101100
101000110100
1111101101000111
1111111
1111110000110110
1111101011101110
1111001011001101
111100010
1000
1111110010010000
1111111101000001
1111101000101101
1111100110001010
1111101110001111
1111101110011011
1111010111100110
1111011101011010
1111001011101110
1111101001110111
1111010011011001
1111110001110111
1111100110010011
1111110000101011
1111101110111101
1111100100110001
1111101000011010
1001010011
1111101011001111
1111111011001011
11100101010
111100100
10110010
1111111111011100
1111111110010111
1111111111011000
1111100110000011
11000101101
1111111111011011
10010100011
10110011010
10000101
1111111011000100
1111110011011110
1111101010100100
1111010001110111
1111010111001111
1111100001000100
1111010000100001
1111011011001110
1111100111101101
1111101001001000
1111011011010000
1111111001001101
1111111110000011
1111110011110101
1111100101001110
10100101111
1101110100
100101
100110101
101000111
1111111111100100
1000001011
1111110011101110
1000010001001
111111111000
110111001110
100000101001
1111111111000001
1111101111111000
1111101100000110
1111011100111000
1111011011011001
1111100101000011
1111011100100001
1111101100011111
1111010101000101
1111100110100011
1111010100000100
1111001110010000
1111110010101001
1111110011011001
1111011101101101
1001001
1111110110101000
1111011010111100
1111011010101000
1111111011110111
10110
10111100
110100101
110010101010
1011110001001
10011111001
11001000000
11111001011
1111111101010110
1111111000110101
1111110100111100
1111111011011100
10100011
111111011
10010010111
1110010100
1111111011011111
11001101
1111100100100001
1111101100100011
1111100110010010
1111111100110010
1001000101
1111101110100111
110111100
1111111101101001
1111100011100011
1111111110110111
101010110
1111111100010111
1110001
100001101101
110010100111
11101110110
1000010110101
101000011010
101011000000
1000000000000
11111100111
1111110101
10011010001
110101111111
1100011010110
1100110101100
100111101110
1110001000
110111000101
101111011010
100101110100
1011011110010
111010010011
101000110000
1111101101010110
10000110
11110000
1111111100011000
1111111101101001
1000001
1111111101100011
11110111
1111110110010100
1010100101
11010010010
11100110010
10011011000
1100111101
101101110110
100111100001
10001101100
110110010100
1011011100010
11111001111
110101110011
1001010110010
111100000100
101001110011
100101111101
110101011010
110011100001
11001111100
101011000
1111111111010110
1101000
1111111101001001
