10011011
1111111010111000
11011000
1111111111001011
111101
1001011
1111111111000100
1111111010111111
100000001
1111111101011011
1111111101011110
1111111010110111
1100110101
101000110
1111110011000100
1111111100101011
100110
1111111101011100
10010
1111111010110001
1111111100011010
11100101
1111111100011010
1111111101011000
1111111111111110
1
1111111111010010
10011100
1111111100001101
1111111110100101
1111111101101010
1111111
1111110001001110
1111101000110011
1111100110000000
1111011100100101
1001101001
1111111101001000
1111010100110111
1111011010010011
1111010011111111
1111011001001110
10000110000
1111011101100000
1110110111001000
1111001010000110
1101
1111010010110111
1111010001000010
1111101000010001
1111011101001010
1111011111101010
1111111011010011
1111111111010010
1111111100010111
1011011
1111111100010100
1111111101001001
1111101100100000
1111011110111100
1111011111111111
1111111111110011
1111101000101011
1011111000
1010011001
1111010000011001
1111000000111101
1110110101110000
1110110001001011
1111010101010100
1111001000000111
1111001011100011
1111100001110000
100100001
1111110100010011
1111111011110111
100000101001
1111011100101100
1111110000000110
1111010001100011
1111010101101010
1111011111100000
10010100
11001011
1110011
10100101
1111101101000011
1111100101100100
1111011100011001
1111101001010101
1111010110001100
1111001001011100
1111000111101011
1111010110100101
1111100000011100
1111100010111111
1111010100000111
1111000111111001
1111110111110000
1111110101001000
1000000111
100010001000
10011010101
100110001111
11000110100
1111110101010010
1100001000
1111110101110111
1111100110000001
1111011010010110
1111111011110011
1111111011110111
10111101
1011110
1111111100011000
100011011011
1111011100010011
1111011100111101
1111101000011010
1111110011001001
1111110001110101
1111111010100100
1111100000110001
1111111111011100
101000001
1111111100110001
10010000000
100000000001
110010100110
111001011100
101111111100
100000111011
110000011101
110001100100
110010101110
10111111101
10100100001
1111110100000010
111010010
1111111001011000
10000101
1111111101011011
1111101011000010
1111011111110111
1111000000001101
1111101000100101
1111101101000101
1111011011000100
1001101110
10010000010
1111101110100101
1111111100010101
1111111110110101
1111100100011011
1001010100
10010010100
101100100100
1001010000101
1110101011001
1100111101101
1100101100111
1100100011110
1001111110001
1011100110
1010010011
1111101100001110
1111110001010011
1111111000011100
1111111100011011
1111110111011000
1111101001010010
1111001010011100
1111110110000010
1111011100110010
1111100111111101
1111110110101010
10001
1111111000100011
1111110000100010
1111110010100111
1111110100111111
1111111101101100
10100101110
10010011101
110101101100
1110101101001
1110001010110
1011110001110
1010010000011
1001111001011
1001011110111
100100001010
11011010000
1111111001000001
1111110100011011
1101001010
110010011
1111111010111010
1111100011000100
1111101010111110
1111110010100100
1111101010000000
1111100011101000
1111110110011000
1111110100011110
1111101001111000
10011011
1111111100100110
1111111100001000
1111000001
1111110101111110
1111111101110011
110011101100
1000001000001
1111101001011
1001111000000
1001101010011
1011000101000
1100100000110
101110001011
101101011111
1111110101111000
1111110001100000
1100011000
100000
1111101100110001
1111101110001100
1111100111111111
1111110000111110
10000000000
111111001
100111011
10001110111
1101000100
1111110110110101
10110001
1111110111100111
1111011011011001
1111101001110011
10000010
10000101000
100100011010
110101010011
110111001001
111011111111
101111010100
1001010010010
1001000011001
111011110011
1111110110011001
1111110000000000
1111100000111111
1111110011011010
101011110101
1111100000101111
1111011101110011
1111011111010010
1111111110100010
1111110111000010
10100011100
101010001
1111111001001111
1111000111
1100110110
1111111101011111
1111100100011000
1111100011100101
1000011011
11110100001
100010010011
110010100111
111000000100
110100100010
11111010100
100000001100
1000111100011
11101111000
1111010100010101
1001110110
101110100
1111111010010110
111111111101
1111101011010110
1111010110000101
1111101111101010
1111101101111010
1111100001010000
1111011110010101
10011101101
10011110001
1111010010
1111111101110000
1111111100110000
1111111010100101
10110110100
101100010111
100110111101
10000101101
10100101100
100010011000
1101011011
11110010110
11001011101
111001010000
11010001110
1111110111110010
1111101100101101
1000101101
100000101111
1111100011111001
100001011011
1111010101100010
1111010100011000
1111100011111100
1101010001
10101000111
100111000000
11110001010
1101101111
1111101111000011
1011101000
10010101101
100000010011
101111110011
11010111100
1011010000
1001100011
10010000010
111001001
11001110111
110101011000
10011101000
1111100000110001
1111010110110101
10000110110
1010001011
10101100000
100110110101
100010111001
1111101010111101
1111101000100001
10010100011
110110101000
1000010000010
100100001000
11000011111
1000010001
1111111101001110
1111111000000110
10111011
1111110100010001
1010101001
110010100
1111110001101111
1111100100101110
1111110011011011
1111101110011010
1001010000
10010100110
1111110101111101
1111100000101111
1111101011101111
1111111011110001
1111111110111011
1111100010010111
1111010101
1111111101011011
1111100101000110
10100000000
101000100101
1001100100
1101110001
1000010101
1011110101
1111111010101011
1111111110100001
1111110100011100
1111101000100010
1111101000100000
1111111001101001
1111101000011101
1111011000111100
1111101110011111
1111000010100110
1111100010111001
1111110010101000
1111110101110010
1111100101110011
1111101110111000
1001101010
1111101001111100
1111100001101010
11001000000
10101110101
1111101100001011
1111111010000000
1000010000100
100100101
1111100101001000
1100010000
1001010110
1111111000111100
1111101001001110
10000
1111111111110100
1111101010111100
1111100101001001
1111101001111001
1111110100100101
10110111110
1111111011000110
1111011100111111
1111100101000101
1111101000001001
1111101011111111
1111110000111100
1111101101000111
1100110100
1111011101110100
1111100100110111
10110101111
1111111111100101
1111010101001101
10110000
10010010100
1111010111101101
110100000
10000011111
1111111101010111
1111111010000100
1111111101100110
100110001101
1111000
1111011111011010
1111101100101001
1111110000011100
10110110
111000010
1111111101001010
1111010100111011
1111010001011110
1111011101111011
1111110010000110
1111111100101011
1111111100101101
11101100
1111000110111101
1111110001100011
1111111110111001
1111011110100110
1111000001101011
1111011100010100
10111000000
1111100100010100
1111111001111011
1110100000
10011001110
10100000101
10011011000
100100110011
100101111100
1000110
1111011110000010
1111101110101001
10101100
1111111101101100
1111110111001111
1111111000100001
1111101100110000
1111100011011000
1111110101000101
1001010100
1111110001100110
1111010110100111
1111010001010010
1111111100001001
1111111101000000
1111101011010001
1111011110101110
1111101000011010
10000000110
10000001110
1111110011000101
11100010011
10110001101
1110010011
10101101100
1001001101
1111110101011000
111100010
1111101110010110
1001000101
10001000000
1111111110000110
1111101111011010
1111101001110100
1111101100010111
1111100110000010
1111100010111110
10
111101100
1111010001010101
1111110110110101
1111110101111000
10011
101000000
1111010000000011
1111100110010010
10001000100
10011000101
10101000110
11100110001
10100101110
11001100111
11111010101
1110010001
1111110101111111
101101
101001010
10110000100
1000101
1111100011011001
1111100111111110
1111011110001001
1111011011011001
1111110111011001
1111101001100011
1111100000000101
1111101001010110
1110111000011101
11001110011
1111011001011111
1111111001010000
1111110101000001
11000101110
11001101011
10101001001
1111111000000010
11011011000
1101000110
110010111010
100011000011
100101100111
11000111100
111111011
1111111011000101
1111111011001111
1111110010001011
1111111010100110
1111011011100101
1111100100011101
1111101110010010
1100010011
1001001110
110010
1111111110111000
10000011010
1111110100011110
1111000100101111
1111101000010111
1101001
1001100010
11011111010
1000100100
11011000000
1111111010111011
110110011
10010111110
1101110110
1000000010
1111111001101111
11000101001
11011110101
10010111110
1011011101
1111110101101111
1111111000110001
1111101001001010
1111011111011101
11111000001
1010100000
1100111111
11100010100
11001000101
1101100111
1111111010010001
1111010101110111
1001101110
1000100
1111110001100100
1111101110011010
1111100100000000
1100110001
1100100111
110000110
101111001111
100011101000
1110110
100111111
11001010010
100100111011
11001010100
1100100
1111101101101110
1111110111100110
111001101
10110101001
11111010110
11110000
10100001000
1111111111
1111111001000100
111001101
1111101100001001
1111010101100100
11010111
1111111101111000
1111111101001000
1111010010001111
1111110000011011
1111111011101001
1010110001
1111110111111010
100011101010
10110010101
1111111001101100
1011110001
10100100000
1001000111
100
101100010
1111100000101010
1011001001
1110111101
10010111011
1110100101
1111101110110001
1111101000100101
11000101000
11011011111
1010100111
1111111101100011
1100101100
100110011
11011010
10010111
1111110011011110
1111110100101111
10111101110
111110011
1111111010011101
11001000111
110001000
1111101110010010
1111111001011011
1000000111
11011011001
1000111110
1100011001
1111110001000110
1100100111
10001100000
1111110110111111
1111110101001100
1111111010100101
1111101101100111
11000010111
1111101001
110100001
1111111101010100
1001011010
1111111111110110
100110011
100100
1001101101
1001001001
101011001110
101011000111
1111101001100100
1111110001000111
1111110100011100
10000011111
1111100100101101
1111011110100000
1111110110011001
1111110010011010
1111111010100000
110110111
10010000111
11100110111
1111111011100101
1111111011111111
10000100100
11011010100
1111101110001101
1111111010111100
1111101110000010
1111001100110100
1111101111101001
1111111011001001
1111111111100110
1111111110010010
1111110010001101
11001101101
1111110000100001
11011011
1111100000111101
1111011010001100
1111111001100001
1001110
1111101100101000
1111111000101001
1111001000100000
1111100111100011
1011110100
100101010100
100010110100
101110100011
1011000011
1111111001000010
1111111011100111
11111001
100110100
1111111100001000
1111101010010101
1111101101111011
1111101110011110
1111111010111101
1111111101111100
100011101
100111010
1101010110
101000011100
111111111111
1001000100101
1000101101000
111010101101
1010011001001
10011101100
10100101101
1111111010101000
11011
11100111010
1111110100110000
1111111111010001
1011011111
10010011110
10000001100
1111110000100010
10010101001
1111001011
10100001111
10101
10001000
1111111110010011
110011
11011000
1111111100100010
1111111100101100
1111111111011111
1111111010000110
100010011
1101001101
11100001101
110010000011
11101101100
1011101001
100001101001
11101110010
110111001010
1010110111110
10001011011011
1111000110010
110110110000
100011011011
100101110110
10111111001
110000110110
100100010100
10000011
101011
10001100
1111111010110010
1111111010101110
