10010110
1010110
1100110
1111111010111101
1111111101100110
1101000
100101111
1111111101010010
1110
1001000
1111111111010000
1000
11101111
111101101
11101
1111111101111001
1111111100101010
11010010
11010000
1101001
101010100
1111111111100110
1111111011111110
1111111101011101
1111111110001100
10101111
1111111101011110
1111111100111001
1111111111011111
1111111010100010
1110110
1111111010100101
1001100010
1011100110
1110000011
10101001100
100110000001
100110101100
101011101100
11111100010
101100000100
100001000001
1111101001011011
1111010110111100
1111011010101111
1111111011110110
110010111111
111011100011
111101010001
111111010010
11101011110
10101001101
10001100
1111111101111001
100010001
1111111100011110
11001111
1111111101010010
1001101100
11100001110
11110101000
101011001110
111011000110
1100010100
111101000001
10001011111
11111011111
101100101110
1011001000010
1001000110110
101011100100
10010100011
10011111001
111000100010
11001011110
11010001011
1111111110010101
1001111110100
101010110111
100101010100
1000000010100
1111111111110011
11001
11110000
1111111111100101
101010000
1111100001000001
1101101010
1111101111111110
1111100110100100
1111011100001000
1111000111011100
0
1111111010111110
11001010110
100010001100
11000100010
10011010011
1101111101
1010000110
11101111110
10100010001
10000111100
100010000010
10000111001
10100111111
1100111100
1100101000
1111110110111110
1111111011111101
11011011111
1111111100110110
101000101
100110011
1111011111101111
1111011001011111
1111011110110100
1111100010000111
1111101110101100
1111101
1111110100011111
1010001100
1111110111111101
100101000
10010011111
10111010011
111010110
1111110111011111
1010
1110100011
1111111110010001
1011011110
1101001110
1111111111011010
1111101010101000
1111111011011000
10011011110
111010101
11011110
10000011010
101010000
101110
1111100011111101
10000100000
1111110100111110
1111100111101111
1111101110111011
1111111000011001
1111111000000001
1111110100010101
1110010110
1111111000010111
1111111101111110
1001000000
11101000
1111110111100111
1111101111011101
1111111100011101
10011100001
10101101110
1111111101010010
1111111111000101
1111110011010100
1011010111
100010101010
11001101
1100110100
1110100101
1111111110011111
1010010101
1111110010110010
10110010010
1111110100001101
1111011001110100
1010001101
1111111101010010
1111101011000000
1111110001001010
1111110000010100
1111101101001011
1111111110101001
1111110101001011
1111111110110111
1111110111011110
1111100111111101
1111110011001011
11000111101
10111100001
11101110
1111110110011001
100101
11101
1111111110011011
1111111001011111
1111111011011110
1011011101
1111111011100100
1111101101011000
1111111100010011
11000101
1111111100000111
11111101
1110001001
1111111000101111
101100010
1111110101101001
1111110100111011
10110000111
1001001111
110111
1111111111110010
1000010
1111111111111010
1111111000000011
1111100101
1111000000
1101101000
100101110100
100100110010
1100000111
1110010110
1111010011110110
1100101100
10000110011
100000101100
11101100000
1111101011011100
1111111001101000
1111111110100111
1111110100011111
1011111
1101000111
1001010010
11010110
1010100111
10000101101
1101010111
11001100011
10010000000
1111110101101100
1010010111
11001010100
110101001
10101010100
11101100011
10110010101
11011111000
1011111111
1111101000010011
1111011010010001
1111111100110011
1110011000
1000011111
1111011100111000
1111100110001101
1111010101100101
1111111010010011
11110101
1111101100100111
1111110101001011
1111101110110101
1111101110010110
1111110101110100
1111111010101100
1111111001000011
1111111000001100
1111111110100101
1111101010011011
1111111100000111
10101001000
100100001000
101001000100
11100011110
10
1111111101100110
1100100100
1111011111110011
1110110001010001
1111010111011110
1111110011010100
111100000
1111011100100010
1111110100011100
1111111111101000
1111101100011011
111011010
1111101110010011
1111111011110111
1111010010101111
1111100011000001
1111100101101110
1111101110101101
1111101001001101
1111100010111101
1111010111000111
1111011011100111
1111110101100000
10001000
10000001100
1100011000
111100011
1111111100011100
1011
110111101
10111010111
1111111001101111
1111101111000010
1111100001110001
1111111110000110
10011010
1111110110000110
1111110000010010
1111010001110111
1111101110101010
1111111101111100
10000
1111110000100010
1111110011101011
1111111000000110
1111110000000100
1111011011000011
1111001100100010
1111000000111010
1111010010110101
1111110001100010
1111101011001011
1111101000010111
1111111011100111
1111110010011100
1111111101110100
1111111001011011
111101100
1000000100
1111100100110000
1111000110111111
1111010001101110
1110001
10010000111
110110011
1111101001111000
1111101000010001
1111101111110101
1111111100000100
1111101001100000
1111111010010011
1101001101
100001000
1111111010000100
1111101000010001
1111010101111001
1111000110001101
1111100010111000
1111101000101010
1111100101000110
1111101011101110
1111100111100010
1111100110110110
1111110110001011
1111111010100110
1000101010
101111010011
111100001
1111110110000011
1111010101010111
1111110101100010
10101000010
1011011110
1111101100111110
1010000110
10101010
11111
1111110000111110
1111101011110101
1111101101101001
110001
1111101100101110
1111100011001000
1111011110001010
1111100001000100
1111100001111010
1111011101011010
1111100110101010
1111110110011100
1111110011010111
1111100001111101
1111101110110011
1010111010
10000101111
10100010010
1111101001110001
1111111101100011
10010101010
10001011011
11011011
110110011
1111111110011101
100100110010
100011110010
1111111111011010
1100010000
100100011
11111110
1010101110
1111111111000010
1111100110001011
1111010111011110
1111001110001111
1111001111011011
1111011001011110
1111101101011100
111010110
1111101100111010
1010111010
1111101001100011
1111111000111011
1111101111101110
1011101000
1111111111111100
1111110101101111
101001010111
11000000011
1111101000100001
1111100011111101
100111001
100100001000
1010010011010
111001101011
101101011011
100011111100
101001100111
11001010010
11100011
1111010110100111
1111001110010011
1111010001110000
1111000000000100
1111100000000001
1010010111
1111111110111111
1111101011
10110011010
1101001010
1111101010001101
1111111101000000
1111110101101000
111001110
1111011010000110
11000001010
11110101100
1111011111101100
1111010110111100
11001
11011001000
110011100001
110100100110
1001110110100
101110110001
101110000001
101110101111
110100011111
1100010000
1111110010000100
1111001000000111
1111001110101111
111111100
11100101011
100100011110
11001110110
11100011100
1000101001
1111111110011010
1000011010
1111110110011001
100000000001
11000001001
1111111100101110
1111111110000100
1111011010111011
1111110100101110
11100011100
11111110101
1111111110101010
10110010110
100111110000
1000000111011
1010001011101
1010111100011
1100110100010
111010000111
11000010101
1111101010010100
1111111000101000
110111010
111011011
10111000011
1111010010
11000110011
1010110001
1111111100011110
1111101110110010
1111111011111001
1011001
1111110000000001
1111111001110010
1111100011111011
1111101111111110
1111100001101110
1111111111001010
1111111000101000
1111100101000011
1111111010011000
1000010101
100001000000
101100110001
1000111000101
1010101111100
1010001010110
100011111111
11101100101
10100000101
1111111110
1000011100
1100101110
1110101000
1100110001
10001010111
11011110000
1111111110010011
10100111011
1111100101001010
1111100101011001
1101101011
1111101001100110
1111101011010110
1010010110
1111011111011101
1111100100111111
1111010111101010
1111110011101110
11101001
1111111100110011
110000
11000011110
101100001001
110011010001
101010000101
10110100111
1111111000
1011011001
1100000110
1111111010101110
1111111100101010
110001010
1011101001
10100100100
1111111000011101
1111101011001111
1111010110000100
101001101110
100100000
1111111111010110
1111100110010100
11011000010
1011000001
1111010010111111
1111110100001011
10111101
1111110010100100
1111110110010100
11000000
1111111011111110
100111000
10001101010
111010001
1111111101101100
1001010000
11000010000
11111010
1111111011101101
1111111010100101
10110110011
1100010100
1111110011010101
1000111100
1111110001010011
1111101100100011
1001110011
1111101011110011
1111110011101001
1111110111010011
111110011
11010110010
1111100101100110
1111111101000100
1000011001
1111101110000111
1111110100000011
1111110111010100
1111111100000101
101000000
10110100101
1000110101
11111110
11111000
1000001101
10011001
10010
11101100
1111111001000100
1111110101000011
1111111100111001
10101111000
1111110001000011
1111101101011110
11110011010
1111111011101111
1111110101101100
1111111110010011
10010100110
110000011
1111111010100011
1111111000110101
10011001000
111111001
101001101
10011110000
1111010111
11010111111
100101101111
10010001011
1111
101111000
1010
1111111001010000
1111110100101011
1111110011100100
1111110101111100
1010001
1001010001
1001100101
11000110000
111100111
11000011111
100110
1001
1111111010100111
1111110000001011
1111101011111001
1111111110000001
1010000101
1011100010
1000010
110011001
110001101
1000010101
10011101111
1100101111
1111111001001011
1111110100001101
1111111011111011
1100001110
1110101
101110111
10010110111
10111000111
11100000011
100010110111
101010010101
10000000110
10001100110
1000011011
1111111011001101
1111011
1111111101000010
1111011101110101
1111001111111000
101010000
111000
1111110000010010
1111110101110101
1111110011001010
1111111001111011
1000010000
101001110110
100101010011
10011001011
101001011100
101111011000
11111000011
10100100000
100011110010
101000011100
11101110011
100100101100
100101101000
10110000001
1111111101001101
111100111000
100010000001
1000011
1111011
11111010
1111101100101100
11110010000
10100011101
1111100001011001
1111100101000011
1111110010111100
1111000001110010
1110110100111111
1111000100011111
1111101101110111
1111100111000001
1111010110101110
1111101110110011
100100011000
11111111001
1111110000001001
1111100001111001
1110011101001001
1111000101011111
1110111010111111
1110111100100010
1111001001110101
1110101110001001
10000101110
10100010101
100010001
101001001
10010110
1111111110010101
1101111100
1111100101101001
1111100011000100
1111111100100111
101111110
1111101110101010
1111100110010001
1110111011100101
1110100111111111
1111001110110100
1111001011001011
1110111100000011
1111010111011001
1111000100111011
1110111110001110
1110111011001000
1110101111000100
1110100101001001
1111111001110111
11000
1111101110110000
1111101111011100
1001000100
1111111100111001
100000101
10010000
101010000
11111111
1111111100111110
1001100010
100001
1111101110010101
1111101100100010
1111101011111010
1111011000111001
1111001011101100
1111000101100001
1111000111111111
1111001011011000
1111001110101101
1111011110010111
1010100111
11110101
1111011100011101
1111011100101101
1111110110101011
1111111010001010
1111100010110101
1111111101011110
110000
100001100
100101
1
