1111111110111001
10011011
100000001
1101000
1111111110001000
100000110
1111111110111110
100101001
1111111101001001
1111111011111001
11110110
1111111111001101
1111101110110010
1111110001100010
1111111111100011
1111111101101000
1111111010101111
1111111101001111
100110000
10001101
101001110
1111111011111011
1111111011011001
1111111101111010
100011011
1111111111000101
100001001
1010011
1111111011011110
1111111011100110
10111100
10001010
1000100000
1001000100
110111110
1111011110100110
1111011001011001
1111010010101101
1111000000100110
1000100101
1111110110101100
1111111000010001
1111100001110110
10000010001
11111011011
111110100
1111010111100110
1111101010011011
1111011111100001
1111100000000010
1111110000110001
1111101111111100
11011011
1111111010111010
1110001
100100011
1111111011110011
1111000
10101111
11011110010
10010010011
1111100001000010
1111101001111011
1110111001001101
1111100011011101
1111011110111011
1111001100101100
1110110001101000
1111000001100111
1111001000100110
1110110001111110
1111010110100101
1111101001101010
1100001101
11100010000
10010111100
1111111110001101
1111100010011101
1111100110001100
1111101100010000
1111100100110000
10110011
1111111111111000
100010000
1111111101100101
10000011
110110001
10101110001
100100011011
1111001111000111
1111000001101110
1111001000011111
1111100110010111
1110110111100001
1110101110101000
1110101011111000
1111000111110111
1111010101101010
1111100010001010
1010110000
10100110100
101111110110
1000111101011
1000010110101
101000101100
1111101110100011
1111110000100011
100010010
1111001111110110
1111011111001101
1111110110011111
100010100
101
1100110
1111111110000111
1111110101111110
1111111101110111
1111100000011001
1111110111101110
1111011011100001
1111101110010101
1111001010011100
1111010011011011
11100101
1111011100001111
1111011011000000
100101000
111110001110
1000011000000
1000001000100
1010110011110
1000001011111
10101000000
1111111111100010
1111110001110110
100111
1110111
1101000111
10110010001
100111101
1111111011100100
1111111111100001
1111110010001000
1111111010000000
101001000
1111101110111011
1111110101010001
1111110100000111
1111100110111011
1111000001011101
1111100100100101
1010100001
110110011
110011011111
1000100011010
1100100100000
111111011001
110010001000
111010111011
10000111100
1111101110111011
101101100
10110110001
101111010
11100011
1111111000101000
101100100000
1111110011110111
1111111011100110
1110110
1111110110110011
1111111101111100
1111111101011100
1111101111100011
10010011
1111111100110110
1111111100000110
1111101110011010
1011000100
1011000011
1111000011
101011100010
110001111110
1010011110101
1100110011010
110101100101
1111111100111011
1111100100110011
1111111110111100
1111111001111110
1111111110100110
1111101011011110
1111111011001110
11010101111
11001001011
1110011111
110111010
1111101101011100
1111101100101101
1111111101000110
1111011001001001
1111100011110100
1111101010111011
1111101010110010
1111101111101101
1000000010
1111111111101111
1100100
10001001010
100110010001
110101010010
110000101110
101111100010
10111110
1111011111101001
1111101001011001
1111111101010111
1100101000
1111110100011111
1111111001001010
1111110001101101
101001001101
11101000
11000000000
1111110111110001
1111101101000011
1111110100011101
1111101010100110
1111110011100111
1111010101001101
1111100101011110
1111100110011000
1111101111110110
1111110100100011
1111110100011100
110100000
11011110111
111111010001
101010100101
110110010100
11010001101
1111110010010111
1111011010000001
1111110100000000
1110110010
1111101011010010
1111101101011101
1111110011111100
111010001
10011011010
10000100101
101000001010
10101011111
1111100110001111
100001011
1000110
1111110001000010
1111111011001100
10111100
1111111000110101
1111111100011100
1001101011
1111111111010111
1111111111000010
1111101001
111000010000
111001001010
110010101000
1111011111111101
1111010100101100
1111011101100111
1111111011011100
1111111111000000
1111101110010000
1110010
1111101010111101
11100001101
10101010100
1010110011
1111111000011001
11100010011
1111011110101001
10100000100
1111110111111001
1111101011101011
1111111010101100
10001111001
100011110
1111111011011011
10100110
1111111011001001
1111110011110011
1010001001
111000100001
1100000110001
11001010100
1111010001100111
1111001011101001
1111101010001111
1111111101010111
1111111101000110
1111110010101101
1111111000100010
1111110100110010
11101101011
10001100110
10101110101
11011100101
1001100011
11101000
1001001111
1111110011011100
1111100111
11001000
11111011
11000101
1111111010100010
1111111010111101
1111110000111001
1111110100010000
101100101
1001111100101
1000100011001
10110000101
1111010110110011
1111001011011011
1111101000110110
1111111110101010
101
1111110000000110
1000001111
1111111111100011
1000101111010
1110010110
100010010
101000110
1111111110110111
101100010
100110010
1111101100001101
10011000101
10010100101
110101110
110001
1001001
1100111
1111100010001010
1111011111010001
11110100
100100001111
101101000000
1001111111
1111011010001101
1111001111110111
1111101100011110
1111101111110100
1010011001
1111110011101111
1111101011001000
10100101010
1000011
100100000110
110010001000
1100001111
10100100
1111111111001101
10010100110
10100010
1111110101010110
1111011011000010
1111100011000110
1111101101111101
1111111010111111
1111111100011110
1111100100001011
1111101110111010
10101011110
101111111111
110100000100
10011110101
1111110011110000
1111100100001100
1111010100011010
1111101000001010
1111101010000011
1111011110001011
1111110001110011
1111100010110010
1111111011000101
101010011101
1001011101111
10010110101
1111111010010101
1111111101110100
110110000
1111111000000011
1111111000110001
1111001111000001
1111111100111111
1111111001100011
1111111101100111
1111111111110110
1111101111101001
1111111000100000
100000110010
101011001011
11100011000
101001100
1111111011010011
1111011111101100
1111101010010001
1111011001001110
1111100101110001
1111110010011101
1111011111100010
1111011011110001
1111101101001110
10010101011
110100000101
10000111011
1111100101001101
1111111011011101
11100110
1111011111111101
10010100000
1011110010
1001000111
1111111011101001
1111110011010111
1111110010110010
1111100111100100
1111110110000010
11000010100
11010011101
1000011011
1111111100100111
1111110101001100
1111100111011100
1111101111100001
1111110101110110
1111110111110100
1011000100
1111101001011110
1111110001101000
1110110011
101001100010
1110101100
1111110100000000
1111100000001101
1110010011
11001110110
1111100111101001
101110100000
1101111010
11001001
1000001100
1111111000001011
1111100111111110
1111100111100011
1111110111000010
10110100100
10110011100
10
1111110111001101
1100111
1111111110001000
1111100111110001
10000111100
1111111000100101
1111110010101010
101110
10101100111
101000101
10010001010
110011111001
1111100100
1111111011100100
1111110111100101
1111111100111001
1111011111
1011011110
1010111101
1111111110110111
100001110101
1000100111
11000011
1111110001100011
11100110100
1000011010100
111011001111
100011011000
10001110100
1111101000110010
1111101011110010
1111100101000100
10011010011
1100100001
1111100111100001
1011100011
1010010001
10011100
1111101010100111
1111111011111001
100101000000
100011010010
1111110110011011
11110001100
1111110111001011
1001111110
1111111110101000
11000111001
11101110110
1111111111000101
1111111110110010
10001010010
1000001011000
1000110100110
11110001010
10001011100
1011101011
1111011010010001
1111010110010000
1111110000110001
110110
1001001000
1111101010011000
1111101001100010
1111100011011110
1111110010111101
1111110011001100
1111100001011100
1111110101111101
1111111110111100
1111111000111101
101011100100
1111100001100110
1111110000000110
1111101110001001
1111111011001000
100100111001
11010101011
1000110111
1010101011
111110101
101001011001
1110011111
1111111010010010
1111111001110101
1111101010101000
1111101110000011
1111110101000001
10010011100
1111111111011010
1111111110000001
1111110110111011
1111100110010010
1111101011111010
11001000000
100110011111
100000101
1111111110101101
10010111
1000100001
1111110111110010
10010010010
1111110101000000
1111111110100001
11100111000
1001000110010
110000001110
11010110101
10111000101
101001101
11111001001
1010110010
1111111010010011
1111101010001000
1111101001011000
1111110110110110
11001110100
1011111000
1010110111
10001100101
1000010110
1111011011111101
1000001011
10000001000
11011001
1010110
10110001100
1111111000101000
11011110110
1010001000
110101000
10001100101
110001101100
11000110010
100100110001
100110100000
1000110101
1011011001
111100
10001011110
1010111110
1111111001010000
1111101110001000
1111101110110101
111101101
1101111001
10001110011
10011100110
110000101
1111111011110000
1011011010
1111110101110101
1111111010101111
1000
1111111111110001
1111101000110000
11111100101
111100010110
101001001100
1111110001100111
100101011101
100110011101
10100011111
1111110111111101
110000111
10000100100
110000101
11011101100
1100011111
1111111011110000
111100011
100001000011
1111001110
11010001100
101101110111
1100001111
11000110101
10001011001
100001000111
1111101001011101
1111111100010100
1111011
10000000
100110001100
101011111111
1011010000111
10001011110
1111010010001011
110011110
100010010000
101111010
11011001011
100011101110
1110100110
10011011001
11010111111
101100011
1111111101000011
1001001000
1100100001
1000010010
1010100110
1101111010
1001101110
11000110110
1111111101000110
1001111111
1111110000101010
100000
1111111100010000
10000110
1111101001111100
1111110011101110
10101110001
1111111101101110
1000011111
1111100110
10111000000
1111111000100100
1001100100
11011
1111111000100110
1111110110001111
100101111
1111101010000111
1111100101001111
1111110010101101
1111101000010000
110010001
11010100111
1101111101
1100011
10100110100
110111110001
1111100101001100
101001011
1111111100010111
1011001
1111111011010001
10101011010
1111101101100110
100110110101
101110110010
1111111110101001
100000011010
101010011
1001001101
1001000010
1111100111001000
1111100100010101
1111111101011100
100
1111011101110011
1111101100110010
1111111101010100
1111100111001010
1000111110
1011010
10111101000
100001011010
110000
101100010110
1011111110
1111111101011101
1111111111100001
1111111101111111
1111111011010111
11011010
1111111100010101
100000011101
100011111101
101110010110
1001001011011
1011010101011
1000110000110
110110000111
100111110000
100011010011
110000011101
111010111011
11110000010
1110101010
100110101100
110011110001
10100001
1001000000
110011010110
101110111010
10110011111
1111110010111101
1111111110100101
1011
11111010
11011011
1111111100001111
1111111111101011
1111111111110100
1010010110
10110110000
11101011000
100110110101
101000101111
1011010011
10111110001
101111111001
11100101110
101000101011
1010001101101
1010011110000
10011010101
1101111000
101000010110
11000000111
1111110110110111
1111101010100101
1111101111001011
1111110101010000
1111111100111111
1101011
11111011
100001000
