1001111
1111111100010100
100000011
1111111011001011
1111111100101111
1111111110010001
1111111011111010
1111111110110000
110010
1111111011011100
10100100
10010111
100000000
111000010
1111111000010000
11000
1111111110101000
11100
1111111101101011
100110100
11
100011000
1111111111110101
100111010
1101101
1111111010100001
1111111010110000
100110001
1100010
100100010
10111100
1111111101001111
1111110000001001
1111101110001110
100111010
1111111101100010
1111101110100110
1111101110111011
1111100101101011
1111110001000000
100100000
1111110010111000
101000110010
100011000111
1111111111010011
1111100000101100
1111011111101000
1110111011001100
1111101000111010
10010110011
1100110111
1111111101010000
1111111100100111
100000100
1100101
1111111011110001
1001101
11110010
1111111001000011
1111100010111110
1111101010011010
1111111011011100
1111101110100100
1101001
1111001011011110
1110101000001110
1111010001101000
1111101011100011
1111010101000110
1111110110100110
1111101100001110
1010111000
100010001110
1111000
11011111001
1101101101
11010011101
1111001100111101
1111111111000010
1111110111110000
1111010000001011
1111100111111001
1001110
100000110
1111111100001000
1000
1011100100
100011110011
100111100001
1111111110110011
1111100011110111
1110111010
10110010001
10110010
10011000101
1111101110011011
110000000
1111111011
1111111110101010
1111111011011110
1111100111000101
1111101101111110
1111110100110101
1111111100011011
110111001
100010000
10011001
1111110011011110
1010010
11101100
111111001
1111111110111010
1111111010101110
11111101110
1111110011010001
10000011111
1111101110101011
1111111001101001
1110110110101011
1111111011011011
1111100101001010
1111100110010100
1011110110
1111111010110100
110110111
10110
111011000
1111111011000111
1111101000000000
1111011110110101
1111110100100000
1111110000011101
1111111111111011
10100110111
1100101
1000111000
111100100
1011000000
10011101010
100011010
11101110
1111111100011001
1111110001110000
11010110110
1111110100000111
1111110101101010
1111100011010111
1111101110101110
1111111111000010
11101010
1111011010010101
110101
110000101
1111100001
10001010110
111011
1111111110100011
1111101101101110
1111011100100100
1111110000100010
1000000110
101100010
1010111001
1001000
1111101110101010
1111100001000110
10111111
1111111101100000
1111111011011110
1111100011100110
10011000100
1111100100010100
1111111001101000
1111111010001001
1111101111111111
1111001111001001
1111110001011111
1111111111111110
1111101111000001
1110011100
110101101
1011011
1111111110001001
110010001
1111111010010011
1111111011000111
1111110010111100
11001111
10110100
1111111111100100
1111101001010101
1111111101001000
100100000011
1111111011110110
111
11101
10010001
1111101101111001
10001110
100110010
1111111111001001
1111111000001110
1111011000111101
1111011111111100
1111101010011001
100000110
1011101100
111001000
10110100
1111110111010011
1111111100101001
1111110110001110
1111110010111101
1111110011101011
1111101101011110
1111111010110001
11110101
10111010
1111111111110100
11011010001
1111111111110110
10010011100
1111111110
1111110011110111
101111101
1111010111111110
1111100100000110
100100101
1011000
1111010111110010
110100010
1111111010101100
1111110101111100
10010101
1111111001100111
1011001001
1001000101
10110100000
1101100
1111101011001110
1111100001001101
1111101010101000
1111111101000011
111010100
10011101001
11000011001
10001000000
10010100111
11001100001
100010011100
101011011111
111011
1111101000101010
10001010000
1111110011000010
1111110111011101
1110111100000000
1111101110111100
100001010
1111110110001011
1111100110001110
1111101001101000
1111111100110111
10111001010
10111101010
11101001111
10011010110
1111111111010100
1111110101101010
1111100111101100
1111111000101101
1111111110010100
1001011000
100110110111
10110101001
101010011101
101101001000
1001101111101
11001001011
1111101001111010
1111101010001100
10100001000
100110
110110110
1111101010101100
1111011010010100
1111110001011000
11110111
101111
1111111010101110
1111111111010001
1011000011
101100100011
101001111001
100100101001
1001011010
1111101111111011
1111100110010000
1111100010001110
1111110001100100
1111101110111110
1111110001000110
110100110
100010101110
1000000111011
11111101100
101010110001
1111101000000111
1111111110100110
1010101
1001111000
100001101010
1111111101110001
1111010111110011
1111100101010001
1111111100110101
1111110101111101
1111011011011101
1111010110101000
1111110000001100
10001001011
1111000
101011110
1101110001
1111111001111011
1111100001101111
1111101101000100
1111010000100110
1111000001101101
1110100011110101
1110101100111100
1111010101011110
1111110001001101
10000111010
100010110101
1111111110111101
100111001
1111101110111011
1111100100100010
1101101110
1111101101101111
1111010111001111
1111110011010010
1111110010010110
1111110111011001
1111001001101011
1111010011001111
1111101000111110
1111111000101111
1111111110101010
10000010110
1000101011
1111110001000101
1111101110100110
1111101110111101
1111100010111010
1111100011101110
1110011001011100
1101001111000011
1101000000011110
1110010010111100
1111001000110101
1111101111001100
1111011010111101
1111110111001101
1111110011111111
1111010010101011
100011111000
1111010101000000
1111001101100000
1111111010000101
1111101111111101
1111110111000111
1111110001100110
1111011101100001
1111100011001000
1111111100000001
1101010101
11110011101
10110001101
1111110111111111
1111100111110111
1111101101000000
1111111011011101
10100000111
1111010110111010
1110001100000000
1101101101110111
1101011011100111
1110111110111111
1110111001010100
1111011010101011
100001011110
11101000010
10010100111
100000011001
1111010111110010
1111011011001011
1111101110111010
1111011011001110
1111110101111000
1111111100111000
1111111010001010
1111101100011111
1111111111000010
1011110110
1011101000
1001001101
1111101100001101
1111011001011001
1111100110000111
1111111010010101
110100011
1111111111010010
100110
1111000111101010
1110101100011101
1111111111110010
10011000111
1111100011010010
11100001101
1010001111
11000101111
101000010101
11011001110
1111101011111011
101000
1111011100110011
1111101001111101
1111100101001000
1111011000111101
1111010111101010
1111111010110110
1111111000001000
1111111110100101
1111111011000000
1111101110110110
1111010101001000
1111110011001011
110110110
110101110
11100110111
11101110110
1111001111101111
1110000101110001
1111010100110100
1111100010011110
1111010101101111
1111100101010101
1111101111101110
1111111101100101
111011101010
100001100010
10111000101
100000110111
1111110000001010
1111011011000100
1111001111100100
1111001001110011
1111001000000111
1111100111011101
1111111001111011
1010111110
11111010
1111100100010000
1111101110111101
1111111100000101
1110101111
1111111100110111
1100001010
1111110001111101
1111100000011101
1111000111011110
1110010110010101
1111110011001110
1111100001000111
1000000
11111011100
1111011011100011
100011001010
10101100110
11100100100
10000001010
10001010001
1111101001100011
1111101010101110
1111100111001111
1111011011010100
1111011101101101
1111101110111100
10001001011
10110001111
1000010101
1001010000
1111111111100000
10001001111
1100111010
101101000
1111111111001000
110110010
1111100111000010
1110111111011000
1111111010100000
1111011111011101
100100100
110011101111
1111100111011100
1000010101
1101001111
1110011101
1111110000110111
10000011001
1110110
1000110000
1111110011100011
1111110101000100
1111100101010011
1111111000100000
10011101110
10011111110
1001100001
10110010001
1111111100010011
1011010011
1010110111
1111111011010101
1111111100101001
1111111001001011
1110111110000100
1000101001
1111101101011111
1111110110100010
11111100010
1111110010000111
1111110110010100
1110001010
1111111011100000
111100101
100110
10111100
11001111100
1000101111
1111111001100001
10010110
110111110
10011001111
10001011100
1110111110
10101110001
1111111101011111
11000011
1111111101000100
1000101100
1111110101001011
1111101110111001
1001101011
1111101111010011
100111110001
1111100101000011
11011111111
11001111
1111110111111101
1111100000010010
1111110001011011
1011111100
101000010
1111111001000101
1011001011
10001100011
1111111111011000
1111111101110010
1010000101
1111111101101100
1000001000
111010001
101101011
111100111
10010110
11001001
1000011001
11000000
10100110
101011111
1111001101100111
1111111001001010
1111111011000101
1111111000001001
11100011000
10100010011
1111110111001001
1111101000001001
1111110011011101
11110010
11001101
1111111001000000
10101111100
110100101
1111110
1111111011101100
1101000011
100011010
100110100
10000011111
1111111011100010
1111111111101111
1111111000011000
1111110011111100
10001110
1011000
100111100
10100111101
1110100100100001
1111111000001010
1000010111
1111111000000001
1111111111000010
10100010000
101110010
1111100100011000
1111101011101110
1111110101001000
1111110111000011
1111110000010000
11001110
10010011001
1010100011
110100011
1010000010
1111111110000010
1011000
1100010110
1001111001
1111101000
1111110100010111
1111110010110100
1111110000111010
1111111110001101
1111100010000101
1111110111010100
110010010
1111110010101000
1000011100
111011010
1111111100011011
1111111111111100
1111111101010010
11000111101
1111111100101000
1111110110000001
1100001
1111111100000000
100110000
111101001
1111111010011111
11101010
1111111010100100
10000010100
1110110011
10100110111
10000101000
1111110100001010
1111011110001010
1111010101000000
1111001110001100
1111101111001111
1111110001000101
1111100011111101
1111110111001110
1111110011000100
1111110111000000
100110101011
1111111110010010
1111111100101110
1111111010110101
1111111111001000
1111110101001011
1111100010001010
1111100010011111
1111100110010110
11100011
1111110011100010
1010011100
1111110001001101
1111110010111111
1011110
10011001001
11011010110
1101100110
11001101
1111010011111001
1110110110011001
1111000000101100
1111111011100011
1111100011
1111111000001010
1111111011000011
1111110011111101
1111001101010110
1111111101111010
101010
100010100
11111011
11111000100
101010101
1111010011000110
1111101110110111
1111011011001101
1111110001100000
1111110110110010
1111111010100110
1111111011101011
0
1111111111001101
1010110100
1111100001110110
1111001111011110
1110011111001001
1110111110110110
1111001100111110
1110111001000000
1111011110100011
1111100101110100
1111110010010110
1111110000000010
10010101000
1111110111011001
1111111001011011
1111111101100010
10101110
10101
11000111
1111111101011010
110010101000
1111101000001010
1111001111001101
1111101100011100
1111101100010110
1111101011010011
1111101000001110
1111110001001010
1111011011111100
1111011110111110
1111100100110110
1111001011100100
1111100001000001
1111111110110111
1111110111000000
1111100100000000
101100110
101010110
1111111101100010
1111011011011001
1111111101101010
1010101110
100111010
1111111100111100
1111111110101101
1111111100000110
100001111
1111111101011110
1111110011011101
1111101100111100
10001001011
1111111110010101
1111111111111011
1111011000110101
1111100000110111
1111111101110010
11100010
1111100100000010
1111010011111010
1111111010111000
1111100110100011
1111111101100100
1111111011110100
1111011011001010
1010111110
1011101101
1111111110000100
1111110101011110
101010011
1111111110010110
1111111110000111
1111111111111010
