1111111100001010
100001101
1111111100000110
1111111111000001
1111111100001011
1111111110110110
11
1111111111110000
100101101
11001110
1111111011101010
1111111100100011
100011
1010110011
1000000111
1111111101001000
100010101
1111111100000100
1111111100110101
1111111100011000
11010011
1001001
100011111
1111111010110100
1111111011110001
101000100
1101010
1011111
1111111100111100
1111111011111011
1111111110010101
100010111
1111111101100101
1111111100111100
1111111001111011
1111111100000110
10001
11001001001
1100010010
1111100001101110
1111101001000100
1111100110100011
101011000110
100000001
1111101110100111
1111101001111110
101110011101
1111010010
101001110
100000101011
1111111100001010
1111111010000001
10101100
101001111
101011001
1111111111101110
1111111011101110
1011001
1010000
1111100001010001
1111100100010111
101010000011
101110001110
111100111100
100101100110
101010111011
1000010001000
111001110111
100110111000
110110100100
101100000110
1001000001110
1000011101011
110110100001
100010000010
101100110
1010010
1001100110101
100110000110
1111111111010010
1111111011010001
1111100001001111
1001
1111111100001110
1111111010111000
1111111010110011
1111100111001111
1111011100011110
1111011001100100
1001000110
1111001
100100101
1111111011111100
1111111110011100
1111101101010010
10011101011
101110110
1111111011001000
1111101100111010
1111111110010100
1110110111
1111100111111011
11110
1011111101
110011
1011011001
1000001000101
101100111110
100110111
1001001000
1111000101100011
1111111100011100
100110110
1111101011110010
1111011101001111
1111000101100111
1001110
1111111111110110
1111110101010101
1111111111010100
1111101100010111
1111100001001000
1111010011110111
1111110110010101
10011001010
10010010111
1001101101
1111100000001111
1111101010001001
1111101101110101
1111111011110110
1111111110011001
11000010010
1111110111010011
1111110110101001
10001110001
1111101010
1100100001
1111110000010011
1111111000010001
11101
1000101
1000100000
1111110101100011
1111110010101111
1111010001010010
1111011000100001
1111110111010111
1111110000001000
1111101110011111
1111111101100111
101100100110
111000011101
101000011100
100010110011
1111111111101001
1111100111010100
1111110110110000
10010110
1111101100010011
10010101110
1111111000100000
1111110101010011
1111100111011000
1111111011000101
1111111010000101
1111101000001001
1010101110
1111111010101111
1111110011111101
1000100010
1111110011101001
111010
1111000110111111
1111000100111011
1111111101110010
1111110100000001
1111110100100010
101010001
11110110110
100001111010
11111001101
100011001100
10110010100
1001110100
1101001111
1111100111
1111111101101010
1101111010
1111101111110000
1111110010111100
1111111001001010
1111110010101010
11110010
1111100001111101
1111111101000011
10101111
1111011011100011
1111111110011001
1111011101110011
1100011000
10100011
1111100100100010
1111110011001100
1111100000101010
1111110111101100
101100010
1111111110101001
1000100111
10011100111
11101101101
101101110011
10111001000
100000100
10101001010
11100001000
1111111100111110
101
1111101101000100
1111011001110000
101010101
1111110100010111
1111011101110100
1111101001111100
1111010111110010
1110111110
110001011
11011010
11100110000
10101100
1111110101000011
1111110100110111
1111100100001001
1111100100000100
1111110001110110
100000000
1111101110000111
10000111
1011111010
10100011000
100111100
1000101010
1111111011101000
111001010
11000101
10010000110
1111111000010011
1111100011010011
10001
1111110001010001
101111001
1000001
1111110011101000
1111010001100110
110011100
1111110100101101
1111100111010111
1111110101010001
1111110101101000
1111101101111100
1111100001110111
1111100000011100
1111111010011100
1111110100101011
1111100000110100
1111010100000000
1111100011011101
1111100111001000
1111101010111000
1111101001110010
1111110111101100
1110010
10001110101
11110011
1111110001010001
1111111101100011
1111100111100101
1111001111010110
11000010000
1111111100000101
1111110000010011
1111100110010000
1111010000101010
1111011111101111
1111101001001010
1111110000100011
1111100100010010
1111100010101010
1111011000100000
1111010110100101
1111111011000101
1111100111101001
1111110000010010
1110111100100001
1111001000001101
1111100010101111
1111100101111110
1111100100001101
1111111101001110
1101111110
1100111000
1111110011010100
1111101101000100
10100001110
10000110010
1111010010011110
1111101000011000
1111110001110010
1111110101011011
1111100000111101
1111010111011110
1111100001000101
1111010101000110
10010000000
1111100110001111
1111110000111101
1111101111110110
1111111000011110
1111110000011100
1111100100000011
1111010011001011
1110111000100110
1111011110000100
1111111100111011
11110100111
1111110101110011
1111101110101010
1111111100101000
101001001
100110110
1101000111
11001111010
100001000010
1110001000
1111110010101100
1111110011001101
10000001
1111011001111100
1111110001111101
1111110101001011
1010010010
1111101100111110
1111101010001010
1111011011110111
1111110001011100
1111110010100110
1111100011010010
1111000111101110
1111011000101010
1111111111100100
10010011101
11101101010
100000101100
1111111110010000
101110101
111010001
11010100110
10101010110
100000101100
100000001001
110000110001
1111101001101100
1111100001110110
10011000111
1111110010111011
1111011100000000
1111100010001111
1111101100100010
1111110110001010
1111001110010001
1111111011110101
1111111111010100
1110101
1111110111011101
1111100011111010
1111101101101000
1111110010
100100001110
101001001000
110111010000
11001000010
1111010
10111010000
1111001100
11110011011
1000011011
1111000100
111011110
1110010
1111101100000110
11000101111
1001111011
1111111011111011
1111011100100001
1111000100010110
10000001001
1010110
10100101110
11110110000
11000000010
111011101
111110001
1111111110111000
10110110100
101111011111
111100100110
100001000101
10101101100
10100101010
1010100110
1010110010
1000101100
1111101100
1111111110011100
1111100100001110
1111100010001111
1111110000111011
1111110101111111
1111111011
10101011001
1111111010100010
1111101000011100
1111110101110110
11111100111
1111111110010110
1010101101
11110100100
10110111100
10111111101
1010011101
1011001000
101011000001
11101001000
100101011110
10100000010
1111110101100001
10010010011
111001011
1111110110101000
1111111001100001
1111110010101001
1110001000
1111111000101000
1111100010101100
1111101000010010
11101101
0
10110101010
1111110111000000
1111010100011101
1111011000011000
1111111100100110
1001000100
1100110001
100101001010
100101000111
110010100110
10010000100
1110010111
100011000101
100000011101
1111111000
11010011000
1010100000
10100100011
1110000100
1111110100011101
1111100110111101
1111011111110000
1111111001100101
1111110111111001
1111111110101010
1111111001100101
110011100010
110100101010
1111110000000000
1111111110101111
1111000111011110
1111111011010010
1101011010
11100110000
1111101010011011
111011011
11001001000
111000000100
101101010011
110100101111
111101101000
110101100111
110000100111
1111110011
1001010111
111001100
1111110101100100
1111101100000001
1111100010100100
1111100010001010
1111110101100101
1111100110000111
1111110110111000
1111101111000011
1011110010
1111101100101111
1111011100111000
10001111
1111010100111011
1111100110111011
111000101101
11110001110
1111100110111000
1111110011110101
1111101110101101
1111111100011100
10011011000
101000111001
11111101001
100001100111
11101001000
1111011000
1111110101000001
1111111111101100
1111101100011101
10101101
1111110101011001
1111110010111101
1111100101100110
1111111001000111
1111101101011100
11000011011
10011100100
1111101111100100
10101110010
1111101110011110
1111010001111010
1111001100011100
1111100001011101
1111100011111010
1111101001000111
1111011111111111
1111011000101110
1111100010010111
1111011010000100
1111110111010101
1100000011
101010110
1000001111
1111111101011110
1111111011111100
10100100
10000000001
10011001000
10010000101
1111111111001111
1111101001011101
110100101
1111110001111110
1111111000100000
1111101100100100
10011110011
1111101000000000
10011101
1111011001110101
1111011010001111
1111110100011010
1111100010100111
1111100011101001
1111110110101111
1111010111110111
1111011101100101
1111010011001010
1111101111110010
1111110000101100
1111100001110001
1111101011111111
1111100101011101
1111111000000011
11000011110
100000011000
11000000110
1111000111
100000101
1111101100110010
1111011111111110
1111110000100010
10011000111
101001100010
1111111111110010
1111010100111111
1111110000111010
1111111100010000
1111101000011110
1001
1111110010010111
1111100000011101
1111101111011100
1111110001011010
1111111000101001
1111110101000100
1111110111101001
1111101010010011
1111100111001010
1111101110101101
1111100011001000
1111110100101101
1000011100
1111011011
100001010
11000001
1111110011110001
1111110101110110
11011
1111111110111111
1111111100001000
10010100101
1111011000001100
1111110000111011
1111110001111110
1111110100001110
100111011
11100101000
1111111101111100
1111011011
1101111
1001111010
1111111111110101
11110
1111110010
10011101100
1110000000
1010101011
1111111001000011
1111101000111010
1111110100000010
1111110101110000
1111110000111000
1111101000111001
1111101111101011
1111110101011110
1111110001
1100000001
110001000111
100111000101
1111011010011000
1111100111110101
10010010
11100011
1111111100011010
1101111000
1111110110100111
10001111110
110110001
110010010
1101110100
1111111100111011
1111111100010001
10111010
100101001011
11011110010
10100110
1111110011000011
1111110101111010
1111110110100000
1111111100111011
10001110101
10111111010
100100010010
1000101101101
101010101110
10100111100
11000111100
1111100101000101
11100000
1111111110101001
1110110
1111110111000000
1111001001101100
101101
1111110110101001
1111111110111101
100101101101
100001110010
10010011100
111001111
110101111
10111111001
1111110100010111
1111101011110100
1111111100000101
1111111110010101
1111110001000000
1011000001
100111111011
11110100011
10001011011
100011011000
10101001101
1111110010011000
111100000001
1111101100000100
1111111111101000
11110010
11000111
110010101
1111100101000011
1111010010010010
1111100000100000
1111100100010111
1111101100111010
10000010100
1111110111000110
1111111101011000
1111101011001100
1111101001011010
1111101101101010
1111101101101110
1111101010100100
1111100010101110
1011110010
1000000000
100100001
1001101100
11011100011
10101101001
1111100101000110
1111011010111111
1111110100010101
1111111101111011
101001101
1111111101001101
11010100
11010
10010011010
100111100010
10111010
1000001001
101011100
1000010000
1101110111
1111101011101010
1111011010011001
1111111011101011
1111111001001011
1111111010001011
1111011011101000
1111110000011001
1111110011
1111110011111000
1000110011
100000101000
1000000000110
100100001
101010
1111110110101010
1111111101010101
1111111111110001
11011000
1111111010110111
1111111011011001
1111111010110010
1111111110110111
1111101001101011
1111011111101000
10100100110
1101010010
1010000010
1110100011
1111101111000001
11110010001
101110111000
1111111111010011
110110010
110110101111
1001000000
10101001111
10000001110
11110001110
101001000101
11001001000
101110110
10111111
1111111011101010
100001010
1111111110000001
1111111110010110
