1111111101110000
10000011
1111111100111010
10010101
1111111100000111
10110000
101011
1111111010100101
100101110
1111111011100101
10001100
10
110
111111011
10101110001
101001110
11000001
1111111111010101
100111111
1111111110100001
11001
1111111111011110
1111111110110001
1111111111010110
10011000
1111111010111101
1101010
1111111011010011
1111111101010101
10101001
1111111101011111
1111111011001100
1111010110
1111001111
11100100100
11101110
111001010
110000011110
111000000010
101110101011
100101000
110011111
1111010000011111
1111101001100101
1111110001101110
1111100011011100
1111101100010110
1111110111110101
1111110110100110
1111101001010101
10000001
1111111100000100
1111111101101000
1111111101000100
1101010
1111111100000110
100000000
101000001
111000010
10110011101
11010111011
100010100101
10100100010
101000000110
11100000111
110010111110
1000001011
10011101011
110100101110
10110011010
1101000
1111111100111101
1111110111100010
1111110011111001
1100110110
1111110100111101
1111111000100110
10100011
1111110010111110
1001100000
10101001000
11010000001
1110010
101000011
11000000
1111111110000101
10010111000
100100011001
10100000010
11010110100
1010001000
1111101100000000
1100010
11100101111
1111111101110001
1111111000000000
111101001
101100101000
101000000
1111110110010010
1101100111
1111111110101101
1111110010101111
1111110011011000
1010001011
1111111000100001
1111101100100100
10100101
10011101101
10011100100
11001000100
1111111110111000
100010000
1111111100110111
11111001010
10011110101
111100001
1111110100101101
1111011010111110
1111000111010110
1111001101111101
1111101100100101
1110101110
1111110101100101
1111011100
10010001001
10000010100
1111111011011010
1101011100
1111111111001000
1111110101100110
1111111110011111
11111001
1111101111110011
10001001000
1011100100
1111110110001001
111110100
1000110
1111101101110001
1111111111111101
1111111100111000
110110011110
1111101110100011
1111110010010111
1111110100000101
1111010001101001
1111011001000111
1110110011110001
1111000001110000
1111010001001011
1111110010101001
1111110111100111
11100001
1111101011010011
1111110100110111
11101000100
1001110011
10100101010
1001000100
1101001100
100000001101
10100011010
1100111011
1101001110
11010000
1111101110110101
1111101001011011
110001
101111001
11011110111
1111011100000011
1111101111100101
1111111110111011
100000011
1111101101010001
1111001110001100
1111100010111111
1111011100010000
1111110100110100
1111011111111110
1111010000100110
1111010000100010
1111101011110011
10001
1111111110011011
111000100
1110100110
1111110111000000
1111110000000110
1111110010011110
1111101101010000
1111100100000101
1111011110001000
1111110001101001
100100010000
11000111
100100011001
10110100001
1111010001000100
1111111110110110
1111101101001000
10011100
1111100100110101
1111101010101010
1000001010
1111101011001111
1111101111110010
1111100000000110
1111010100010111
1111110110110100
1111110100110101
1111100010011011
1111110010011001
1111101111000011
1111111110111011
1111101011010010
1111101101010000
10110100111
1111101100100000
1111110000011110
1111110110010100
1111111101011001
100001101101
11100010000
10110011000
1111110100010001
1110110111101000
1111110110111011
1111001011001001
1111100000010000
1111101101100010
1111100000000010
1111100110100010
1111111010101010
1111110110101110
1111111011111011
1111111010010100
101111010
1111111111101010
1111110010111010
1111111001000001
1111111010101100
1100111110
10010100111
1111111111010001
11001101
1111101101010100
1111010011011011
1111101101001111
1111110011101100
10010000110
1111111100111011
10101100011
10110011100
1111111111100011
1111011001
1111110100011010
10011000000
10010100
1111101111101000
1111110000110001
1111111001110010
1111110111001101
11101010
100101000
10111011011
111000101
1111110101010110
1111111011101010
1111111100101101
101001001
1001100101
1101001000
1111101001000101
1111010001010110
1111010110000000
1111000110110110
1111110111100011
1111110010110000
1111111011110010
11010001010
1111010101100000
1111011100010000
111010000
1110011011
100000000
1111100010010001
1111101100101100
1111100101011100
1111110111100100
1110000110
100111000
1111100111110010
1111111000000001
1111101110010111
1111101001001000
1111110100000011
1111100000001101
1111011001011100
111000011
1001110
1111110101100000
1111010011100010
1111001111101000
1111110000010011
1111101010100010
1111110010101110
1111111011111101
10000011011
1111000110010010
1110101100101010
1111101001110110
1111101101001000
1110111100110100
1111000000111111
1111000101100111
1110111011111010
1111010100001111
1111011110101101
1111001011100011
1110111100110000
1111100001000111
1111011100101001
1111101100000010
1111100001111011
1111010111110100
1111110000001110
1010110101
1111111011001111
1100111
1111110011011100
1111101110110101
10000001100
1111100110001100
1111111111001101
10101110
1111101000010100
1111001101001111
1111001000000111
1111111010100011
1110110110101111
1110011001000011
1110101010000001
1110111011110111
1111000001110000
1110110110001001
1110111010111001
1111000000000000
1111000011111100
1111101010100010
1111101110101101
1111110011011110
1111100100101000
1111101101011111
1111111000100001
110111111
1111111111101110
110010
10100010
1111110001001101
10111000111
100010000000
10000110001
1111111000
1111101001011100
1111011010100010
1111110000101001
10011000010
1111101100011110
1111110011111000
1111111001010101
1111101011110111
1111101010110100
1111100011011101
1010101110
111101000
1001100001
10000010011
1111101111001101
1111111000110110
1111111000110010
1111110110001011
1110101111
1111110101100110
1111110101001100
1111111011000001
1111100100
1110001000
11010010011
1000000001110
100011101101
1111111001111110
1111101001100010
1111101001011000
101111110
11101111110
100011001111
101011100100
10000100001
110001
1111111101101001
1111110100010000
10101110000
100000011100
110000001000
11101011000
111001001
1111111010010100
1111011000011001
1111101110000101
1111111010011100
1111100100011100
1111110110001000
10100010011
1100001000
110000100
1111111001001010
111110111101
100001100010
1111111110111010
1111101011000101
1111111000010110
100001001
100100100011
1000011000000
110000000011
1000111001
1110001011
101110110
1111111000111001
1001
1111000100
101100001110
10100001001
1111110111110100
1111101000111010
1111011010010111
1111111100100010
11001101
11010010
110010101
1111111010110001
1111111001100000
1
1111101000
101100011100
11111101000
1111111111100001
100010101001
1010111110
110010001
100011000100
101001101100
101001100101
101000101100
11011110000
10101001111
10111001
10000
1001111
11110110000
100000110101
100011010001
1011100011
10101000
1111111001011010
101111000
1111111011110100
1111111111000110
111001011
1111111111011111
1111110010001011
11011111100
100110011100
110111001111
1111111100011000
110000101111
1100
1111110011001101
10101010001
10110111100
10111000110
1010001111
1010101001
1101100011
1111111000000101
1111111000100001
1101101100
100000100101
100011100101
100100111100
101100
1111110101110100
1111101100111111
1111111000110110
111001111
111001001
1111110100010000
1111110111111000
1101100010
100000101001
10100101100
110011101000
1010010110
10111101011
1111101101001000
1011100001
1111111101011110
10100000
10110011010
1111111111
1010110011
1111111111001100
1111111100000111
1111111100100010
110101101
10011000011
11011000100
1000011111
1111110011101000
1111101110011110
1111111010110000
1111111111110001
110101000
1111111111101111
100000110
1111110010110111
100001110011
101111000000
1111111010000000
100101001000
10011011111
1111101111011011
1111101111110001
1000101000
1110011101
1111111110100011
110101110
1000011111
1110111111
100100001
1010010110
1111110111111001
1111111101110011
100001110010
100101001000
11100001011
1111101
1111111101000100
1111100101100011
1111110111011111
101001000
1111110000111110
1101010101
1111111001110001
100101010001
110110001111
110000011101
1010
1111111110000111
1111101001011000
1111101110000000
110111001010
100000001010
1111100110001101
1010000100
101010110
10110100000
1001100010
10001001
1000011100
1111111000110000
1111110100010010
1100001011
1111111000011000
1111101110110100
1111000010011111
1111010010011011
1111010001001001
1111101010011101
1111100110000000
101011100
111001
1101110111
1111110101111110
110101011110
1111110001001010
1010101010
11000110101
101011011
11011000000
11101111
1111100111111110
11011
1111111100011101
1111111111111101
1111101001110111
1111101111100101
1111010011000001
1111000100101100
1111011000101100
1111011111100000
1111101010000011
1111100100100100
1111011001001010
1111001010101011
1111011101111011
1111001000010010
1111011110111000
1111100000110000
1111101001010101
10111111011
11000110110
10111010110
1111111111110100
1100111111
1100111101
1111111101011010
11000100010
1111111010101101
1111110101001101
1111101101101001
1111011111101110
1111011110101111
1111101101000100
1111011011010001
1111000100101010
1110010101100010
1110011100100110
1110110000001011
1111010100011001
1111101101001000
1111110110110110
1000110111
1111011111100111
1111011111000100
1111100110011000
1111101100101010
1111100100100100
1111110111001010
11111
1111110111100001
100000
11101010
1111111111100010
100010101101
100011010010
1111100011001001
1111111101010101
1111011011110111
1111010010010110
1111011001100010
1111101101001101
1111100011001101
1110110001010011
1110110010010000
1111000110110101
1110110111000000
1111001000111100
1001011110
1101001011
1111110110111011
1111010000001010
1111101011010100
1111011101110111
11111
1111010111100001
1111010111110010
10101
1111111011101000
10111011
1111111011000110
1111111011100010
1011100111
1111111101110111
1111010110011011
1111101110110000
1111001110011110
1111001101010100
1111100100000010
1111110011000110
1111111010100011
1111000010111011
1111001100010100
1111001001010101
1110110000111000
1111010001001000
10001111011
11010011100
1111110011101000
1111011000000000
1111111111000111
1111101101011011
1111110101101010
1111001111000111
1111101011111011
100101011010
100111100110
1111111101100000
1111111110111000
1111111110010001
1111111010010100
1111011100011000
1110111110110100
1111001000100100
1110110111100100
1110110000100000
1110011101101010
1110001100010011
1111010111111010
1110110111010111
1111000100111010
1110000111111111
1110100001011110
1111001001100001
1111011110001110
1001100
11000001
1110101100001100
1110110010011111
1111011100011101
1111001110100111
1111100111011100
1010001010
11101011000
11001011100
1111111101101000
1111111010110111
1111111100101000
1111111100011110
1111101100100010
1111011111101101
1111010111101110
1111001110110011
1110111110110001
1111000101110101
1111100010101001
11010011100
1011010001
1110000111101110
1111001110011101
1111001000100111
1110101011111111
1111100011001100
1111111011001010
1111111000010111
1110101010010000
1110011011100100
1110111010011110
1111001010101011
1111101010110000
1101000110
1111111100011001
1110010
1111111110010100
10101101
1111111010111000
1111111110111100
1111111110110010
1111111011100110
1010000
1111011111001000
1111100111001110
1111100011000011
1111011101011011
1111110000001011
1111100010001011
1111011010100001
1111000011010100
1110110011001000
1111011111011010
1111100000100110
110000000
111000101
1111001001100110
1111001100010011
1111000110000111
1111100100101110
1111111
1111111101000001
1111111100111101
1111111101011101
100010110
