1111111101001010
1011101
1111111010111100
10011111
1110110
100010101
100001011
1111111101010001
10001110
100110111
10111001
1111111111000000
110000010
101001101
1111111010011011
11000101
1111111010101111
1111111100110101
1111111100111010
101000011
101001110
110101
100100001
11111
1011111
100001101
1111111011111101
11001000
1101101
1111111110011011
1110
100110
1111111100011001
1111110111001011
1111101101101110
1111101110100011
1111101011101101
1111101000001000
1111011100010110
1111110111110110
1111101111000101
1111011100101000
1111011010011110
1111100011110111
1111100111111111
1111110010100010
1010011
1111110001111110
1111010111101100
1111010110001001
1111100000010111
1111100010000001
101011001
1101100
1111111110001101
1100100
1111111110110011
10000100
10001100
1111101011010101
1111101001000100
10010101
1111100001001100
1111100111100101
1111101111011111
1111010010011100
1111000010011101
1111010111110000
1110111000110001
1110110000001000
1111010011101111
1111011101111001
1111001000000100
1111000110001011
1110111001111110
1111110100000111
1111011000000101
1111100111111101
10101101
10001111001
11111101110
1111110001
1011011
1111111100011010
100001011
100010000
1010100010
1100
1111011110111101
1111101001111010
1111000101011100
1110111000110000
1111001000101010
1111000111100111
1111000101000001
1111101111001011
1111000100100111
1110101110111001
1111000101110101
1110011100000110
1110100001001111
1111010010001010
1110111100000011
1111010110000110
1111110111001001
100011101000
1100110100
1111110000011011
10100010100
1111110111011010
111110000
1111111101010011
1111111100000011
1111111000011101
10100110110
1111000
100000001101
11101111001
10001100000
110001001
1111110010001010
1111100111100000
1110111111001011
1111011001001010
1111001111101000
1111001111010111
1111000100011101
1111010101000101
1111101001110001
1111011111010110
1111011111101010
1111100101011101
1111101001111101
1111111111101010
1111101111000001
10010100
1010001001
1111111000111011
1111101010111001
1011100010
1111111101100111
10100010
1111100011100101
10111100
1111101000000001
111110101
110100
1011001000
100011000010
11000111001
11000001111
10011101101
1111111001111001
1111010110000010
1111101001001110
1111111111011010
1111111001110110
1111110010000111
1111100010101011
1111101000111101
1111011011011111
1111100111010100
1111101011110000
11011100
100010111101
1111110000111011
1111110101111000
10000011111
1111111101010101
1111100100101111
1111111111101001
10110011001
10111
11101110100
11010000001
10001111100
1111111111001011
111011011
10101100000
101111001
1111111110100001
1111111010111111
1100111110
1111111010110001
101010111
11000000111
1111111011111011
11011001
1111101100000010
110100001
10100110010
1101100111
1110110001
1111111000100111
110100100
11001100001
1111111111100010
1111110001011001
10100011111
11101000100
100111
1111110101110101
1100110000
1011110110
1010000010
1010110
1111111111110100
1111110010000110
1111111101010101
110
1111110001000001
1111100011111111
10110111
10100001011
1111111011011101
1100110
1101100000
1010011
1111110000100010
1111111110001011
1101100000
1111110101101001
101000010
10111000011
11000101
1111101011000011
10001101
111000000
11011100001
1111000
1111
10011100101
11011000100
10010000
1111111010101001
11100100
1111101111111110
1111011101000010
1111100110001010
1111111010011001
1111101011110101
1101010110
1001100
1111111110111000
10011111
1001001010
1111100100101100
1111110001101001
1111110111100010
1100101011
1111100101011010
1111111101110001
10011010
11110111000
1111101001100111
1111110110100111
1111111010000000
1111111011010001
10110101
1010110100
10110011110
1111111101101110
1111111111110011
1001111
1111111000010010
1111011010100100
1111111101111100
1110000110
11001110
10100101
1111110011100001
1111110000001001
111110111
101111010
1010101110
1111110101101101
1111110101110010
1111110010110110
1111011111101110
11000110011
11110011
11010101011
1111110110111101
1111110101101110
1111110101011010
1111111101000010
1001111011
1111101100000111
1111101101111110
1110011101
1111110011101100
1111110110001110
1111100001011000
1111101101001000
100001111101
1000000000001
11101111100
1111110110000100
1111010001000110
1111110010010011
1111111010111110
1111110011111111
1111101111011000
1111101011000101
1111011111000001
11100110011
1111110011101101
10101011010
100011100010
101001110011
1000001100
1111010111
1111110100100111
1111110110
1111111111111100
1111111100111101
1000000011
1111110101000001
1111110011100110
1111101011101100
1111110001111000
1111101100011101
110101100100
1010000000100
100010011011
10001010
1111101001111011
1111111100101001
1111111001001000
1111101101010001
1111111101100010
1111110001010001
1111010010100110
1111111111110001
1111010011010100
1010000000
100000001011
110100100010
110001111100
1000101101
1111110011011111
1111100011111101
1111101111010111
1101101010
110011000
1111110000001000
1111110000111011
1111101101100001
100101
1111101100
100111100011
111011011110
110011001101
1010001101
1100111
1010001100
1111110100111001
1111101
101111001
1111011001110101
1111100101101100
10001000101
1111101110001011
100001100
1111110000101000
1111101001
100000011001
1011101111
111010
1111010011111101
1011001000
10101100001
1111110010111010
1111110001111100
1111111000111001
1111111011111010
1110010101
100010100100
100011101111
101010011001
101001000000
11010101011
10110111110
1111110010110000
1111111100010111
1111111100000001
1111100000010000
1111101001100010
1111111100011111
10011100
1111010110010011
1111001111001011
1111100110001101
1111110111010100
10001101010
100010001010
10011001100
1111011110100111
1100001011
1101001111
1111110000111111
1100100001
11101110
1010011
10011001000
10011100000
10011110001
110000110011
110000010001
100001111000
10011111110
1111111111100011
1111111000010100
1111110100010111
1111110101100110
10011001101
1111110011001110
1111101001110011
1111000110110101
1111101001010110
1111110111010100
1111111110111101
1111011110010010
1101101101
1111110100011001
1111100100101010
1111101110000011
1111101011100001
1111111011011010
1111111001010101
1110000101
11000000100
10001000101
1011001010
1010111111
101111001100
11101011101
100100000000
101100110
1111110101111110
100101
1000110010
100101100011
11010011001
1111101110101101
1111100000000110
101001
111111001
11000011010
1111111110111010
1111001010001111
1111101110111001
1011011101
1111011100100000
1111001111001010
1111101110001100
1111111101001110
1111101000010100
1111111001000011
1111111101000011
1010011010
1111111011011110
10001000011
11011010000
101101110110
11100011111
1111110011110011
1010000001
1111111010000110
10000110
1111110011001110
1111101110111100
1111000110110011
1110100010011111
1111001011010011
100001000110
1111111110111011
1000010000
1111011010000011
1111000100000100
1111110100101010
1111100011000000
1111011100110111
1111011011100010
1111001010001000
1111100011001010
1111010100000100
1111011011001101
1111100001000011
1111110011001111
1110001001
10000010000
11100000010
110100
110011010
1111110001110110
1111110101011011
1111111100111010
1111110000011100
10100
1111101111011111
100011111101
10001010011
1011111100
1111101111010001
1111110111100100
1111101010101101
1111001101110100
1111101111101110
1111101110011001
1111010010101110
1111010110011111
1111011011011010
1111001001100100
1110111100110001
1111010110000101
1111100011110001
1011011
1010001001
1100101001
10001001111
1111101000010010
1111100000110010
1111001110110110
1111000100111110
1111011011011010
1111011001100000
1111010110011001
1111010100010111
1111111101011100
100100110011
10001101111
1111101011111001
100101010110
11001110110
1111110111010111
1111101011111111
1111011111111001
1111011000001010
1111111001110000
1111101110001010
1111011010100111
1111001100101001
1111110010000100
1111101011011001
1111101110111011
100111011
1111110110010101
1111101011001011
1110110111100010
1110101010010010
1110100011110100
1111010010101100
1111010000101001
1111001000101100
1110010100010110
1111011110111010
1010001000
1111100001010000
1010100001
10100111
10100001100
100111010
1111011101100010
1111010110111011
1111011011000000
1111100001001111
1111110110000001
1111111001001001
1111100011101101
1111111101011111
1111111010111101
1111101110101001
1111101011110010
1111110001001011
1111010010110000
1111011010100010
1111000101000101
1110110110011111
1110101111011011
1111000001110010
1111100101011101
1111111010011000
1110110010101111
1111101000111001
1111111011001011
1111110110111100
1111101011010010
1111111011110011
1111101000100010
1110111100111010
1111011111011110
1110011
11001010
1111110001011101
1111101011000100
11001010
1111110000
11000010100
1111111101101111
1111100110000010
1111001010101010
1111000000010111
1111001100101000
1111110000110010
1111100001110110
1111100111001110
1111100000000110
1111011101110000
1111111001111111
1111101110100011
1111001011100001
10010100001
1111111011101111
10011100100
10001101
1111111111110011
1111111111110000
1110101111111010
1111000011100111
10001011100
1111101111100000
1111111101100010
1111111100000100
1111111110011101
100000001101
100100111011
1111110011001101
1111100001010001
1111010010100101
1111011010000010
1111110110100111
1001110000
1111111001010101
1111110101100011
1001000000
1111101110101001
1111101011111110
1111111100001101
1111100100111010
1111110100101000
1111110001111001
110001110100
1111111101111101
10011
100100100
1110111010011101
1111001111001001
10000101011
1111111101001111
1101000101
10000101001
110001
10000100110
1111110101010010
1111110001101011
1111110101001111
1111110000101001
1111101111011110
1111101000010001
1111110001010010
1111110010101000
1111110111111011
1101101
1111011011011010
1111101100000110
10111001001
1111101110011110
10010111111
10111100
101011111111
11011111
11110100
1111111011011110
1010111010
1111110110000100
1001110010
10100011100
10010011011
10111101111
1100111100
1111111011010010
1111110000101011
1111011110000011
1111001011100101
1111101100110110
1111101000001110
1111101000011100
1111101111110101
1111000110
1111111110100001
1111110101111110
1111111011100100
1001000011
1111111010101100
1111111000010011
1111101100011000
10000001010
11110000110
1111111011110101
110100
1111111111110000
1111100010111011
101000101101
11111111001
1111110110111101
1111110110010001
1010100010
111101001
1010111001
1111101101100100
1111110110011000
1111011100001101
1111100100011001
1111101111000100
1111101111110001
1111111010011001
100011
1111111110010011
1111100000001101
1111111001111000
1111101010011101
1111101001000101
11001101
1111010100
11000010
11010101
1111111011100111
1111111110010100
101001101
100001011
10001101
1111110100100100
1101111
10101110101
11001010101
1111111010001000
100011101
1111111000011000
1111110001100001
101100100
1111111001000011
1111010001111101
1111101100011100
1111111100111000
1111111010100001
1111110110101001
1111110000011000
1111011010000100
1111000100100001
1111001111011110
1111011111001000
110111001
1111111000110101
10111000
101001001
1111111110001110
1111111100110110
11111010
11100110
1111110000011010
1111111001011011
1111100110111000
1111110000000011
1111101110100110
100101111
1001000001
1111101011110010
1001111001
110110001
1110111100101011
1111011110111101
10000101010
1110010110
1111111101010000
101110110
1111100010
11010000110
11101100011
10010010100
11110010
11011000
1111111010110010
1111111100000111
