11010100
1111111101010110
1111111010101001
1110010
111101
10110000
1111111101010100
1111111110000110
1111111011110110
100101111
1111111011011101
101110
1010100
1111110011111000
1111110001111101
1111111100111000
1111111111010001
1010001
1111111011010011
1111111100100101
100111011
1111111011100010
100000001
11001
10111010
1111111101110001
100000011
1111111110101000
101001001
101010101
1111111101001000
100100111
10110101011
10101101011
11111100111
110000010111
100111011001
110110111100
110110001011
1010101001010
1011100111001
11111011101
1111111000011011
101110001011
110010010010
110011110100
1101100100001
1001110101001
1000001010110
101010011011
100110100101
100100000001
1111111101101011
11110101
1111111100100011
1111111110001000
1111111100100101
1111111010100111
1101011010
11111000110
11110011010
101011110011
1001100111100
1001110010110
1011011101111
1001000110000
1110011010000
10001100100011
10010100100011
111110100101
1000000111001
1000011100111
111101110100
11000001010
101110000101
110011011111
1000110000
1001011001101
111011100001
110000100000
11000011001
111111101
101001111
1111111110010001
1111111110111110
101001111
1111101001110110
101000001111
11000100101
111101001100
111111101000
1100011010001
1110110110010
1010100100011
1001010010011
111101010101
1011110111011
1110100011000
1011001101110
111111001111
11011101011
10101100001
1100111101
101010101
1010001010
10100100011
11110111101
1101110000
111001011010
1110111000
11011000101
1111111110001001
1110100
10001011111
1111101010101110
10001111
10011000101
100000011001
101011011000
111111111110
110000110001
1000110110111
1001100011110
100000011111
10011111101
10100011101
1111111010010011
1111111010100111
1111110011011010
1111101001110110
1111111101011011
1111111001010110
1111111011101011
1111111011001110
1111110111101101
1010101110
1111110001110100
1111110011100010
1111101001010000
11001110001
11111100
1111111101001001
10011000000
1111101010100100
1111110100011000
11110101
1011
1111110101011101
1111111011001010
111000011
11000010000
1111111010011100
1111110110000011
11110111000
1111111101011010
1111110001100110
1111101110001111
1111110110000100
1111111001011111
1111111011111011
1111110010011000
111100
1111110011111110
111011010
1111111001110011
1111110101101001
1101101000
1001000010
100011100
1111110110000010
10100111
110001100110
1111100110101001
1111101101111000
1101011100
101100000
1111101100111011
1111001000110110
1111100001010101
1111111100110100
11111000
101010011
1111111000011111
1111100111000000
1111100100001011
1111100010000000
1111110111101111
1111101111011011
1111110000011001
1111111001011110
1111110111101001
1111100010110110
1111111010011011
1111111110011000
1111111111001110
10100110000
1111111111011010
1111111001000110
100010110
100101000000
101010101
10100
11001101
1111110010010011
1111011101111111
1111011100100100
1111100101001001
1111110110001010
1111101100111111
1111100111110111
11010010
1111101011001100
1111010010000000
1111100010010000
1111110100001000
1111111001111011
1111110000010101
1111101011010111
1111111010101111
1111101100010000
1111110111101000
10111010
1111110001111011
11010110001
100011111001
101000000011
1111111010010111
1110101
1111110010110110
1111111101010111
1111111101010101
1111100111111011
1111100100010101
1111100000000111
1111100001011001
1111100100000000
1111110010011000
1111111001001110
10010101110
110101111
1111111101000111
1111110111111010
1111110001000101
1111101100011110
1111111111100000
1111111001100011
1111101101011101
1111110100111101
1111100010100011
1111111010101111
1111111011100001
101100001
10000011001
10001110001
1111110010001010
11000110000
1001001100
1111110101010100
1111111110011100
1111101001100110
1110011
1111100001000100
1111110110000000
1111101111000110
1111110100111011
1111111100111111
100111000101
100111101010
11001110000
1001101111
11100101
1111111000011000
101101
1010010111
1111110010010011
1111110010101111
1111110011011000
1111110000101000
1111101110111100
1111110100000010
10110010000
1011100111
10110011100
1111100
1111011101010010
111100101
1111110001110000
1111100110100100
1111110001111011
1111111011000010
1111100110111010
1111011011110101
1111011001111110
1111110010010001
10000000101
11001100100
11110011101
10101100000
10010
1111111111111011
10010011111
111010011
100001
1111111101000111
100011110
1111111101000100
1111100111110110
1111011011100101
100001110
100010100011
1111110110011100
1111101101100111
1111100011110110
1111100101001001
111101111
1111100101111001
1111101011111100
1111101001010110
1111011000001111
1111011010110101
1111011000000110
1111111000010010
100000000
111111100
1111111000001110
1111111001001000
1111111111110101
100100011100
11110111001
10111100100
1111110111011000
11101010
1110100001
1111111100111111
1111010011100010
1111101001100110
100100101
1101010011
1111111111110010
1111001101010001
1111100001011100
1001011101
1111110001111011
1001001111
1111111110101110
1011010111
1111110110000110
11001011
100111001
1000101110
1110010101
1111111100101111
1111101011111001
1111110000011101
1010000001
10110001101
1101110010
1111111111000100
111000000
1111110110000001
1111111101010100
1111110101100111
1111101001101101
1111100011010000
10110100111
10010000110
10110110110
1111100110110000
100001100
11010011010
1011011000
11000010110
1110101010
10001010001
110001111
1111111000000000
10100100000
100100000
1111111010111101
1111100110111001
1111011011010110
1111101000111111
1111111111111000
10100100000
1111110111001101
1110010101
101110110
10011111010
10000101001
1111100111101001
1111100111110111
1111110001000110
10111000000
10000110011
111011111
1111010110001100
1111100010100110
1000101111
10111001000
10100101111
10001000111
10000001111
10010
100010000
11010100001
10000110111
1111110100111100
1111100101001011
1111010010010101
1111101101100100
11000
1111110110011111
1011101110
11011000011
10110111111
1111111011101011
1101001
1111001110001111
1111100111100000
10111110011
10010111101
11110000101
1100000001
1111000111001001
10100001101
1111111100101111
10000101110
1111111111000110
1011000100
10010111
1111100010100000
1111011110011000
1011100000
1101001101
1111100111011101
1111011110110110
1111010000101111
1111100010000010
1111110101001111
10000011111
11100110000
11000111011
1111111101111101
1110101101
11010111101
1111110100001111
1111111001111111
1111111101110111
1111111100001000
111001000
1111111100111001
1111101000101010
10010101110
1111111000111100
11001100
101101111
1001001100
1111111110111000
1111101100110101
1111111011000100
1111111011111110
1111111110111111
1111110000100011
1111100011111101
1111011100001011
1111100100011100
10101110
10001011011
11010101
1111110101011011
1111110100101001
1001011011
1111111011100000
10110001001
1111111100011110
10101000101
1000100
10011000
1111101100010100
1111110000111101
10100101010
110
11101000
1111111110010000
1000000100
101001110
10011000100
10010011000
1111111000001011
1111110010000000
1111110010011001
1111101100010000
1111110101101001
1111110111011010
1101111
1111111000100110
1111110000001001
1111101001011100
111110001
1111111000101111
1111101001000001
1110111110
10101000
1110110010
1111101000011011
1011101001
1111100100111010
1111111111010011
100100011001
10000100001
1111111010110100
1111111101100010
11010101111
111010101
11000010010
100101110011
11111001000
10000011001
11101011
1110001000
1100000001
1011010111
1111010111
1111101111010000
1111100100101011
1111111000110001
1111111110101011
1111110101010001
1111110010101010
10000001110
1111111000011000
1111110001100111
1111101101100101
100011100100
1111011011010001
11010001101
100011101100
1101100010
101010100
11000100
1000010111
1001111000
100000100100
101110000001
110011111110
100100011000
100001010011
11000001101
1110111010
11001111000
10010100000
1111110101010010
1001000010
111101111
1111111010001111
1111101100110010
1111110000001111
1111011110001100
1011110011
11011000
1111111111111010
100010011111
1111110010110110
11001100010
101010000001
11111000101
1111111010101100
1000001110
1011110100
11100100010
11010110010
11000011110
101001111110
100100111010
100000100110
10001001111
1100101101
1010100101
100101101
1111110111110011
1111110001000011
1111111111010000
1111101011110111
1111110110011011
1111110000100110
1111010001100000
1100001110
1111101001110010
1010010001
100111110101
11001011
1111111111110111
1111011011011000
1111110000110010
1111111001110010
1000011100
10100100111
1110011101
11011000100
11001010101
1110000110
10000101110
110011
10010001
1100001100
10101101010
100110
1111100110101001
1111101100101010
1111101000100101
1111111110000110
110000110
1111110010001011
1111101010100000
101111111011
1111111000
1010011111
1010000101
1100011010
1111101001111010
1111010110000000
1111010110111001
1111111001111010
1111111111010111
1111111100100010
1000000111
1100011101
10000001010
1011010110
10010010
1111110101011010
1000111010
1111010101
1111110010
1111110001001101
1111110011001001
1111000001011011
1111011000001100
1111011011100010
1111010000111000
1111100000110010
1111101100110110
110000101110
11001101101
100001001
1111111100001000
101001000000
100010011
1111111101010100
1111110111101000
1111101110011001
1001010110
110100010
11011101011
100010010110
11010110110
1111111110001101
11110
1111110011101010
1111110000010010
1111111111111010
1111100100001101
1111001101110101
1110110101011010
1110101001100100
1111001110100111
1111011110101101
1111011111011010
10110001
10101001110
1111111100001001
1111111100000100
11110011
1001000
1111100100110000
1111100001101010
100111111
1111110100101110
1111011100011011
1111100101010111
100100
1111110110101010
1111011110110100
1111101000000011
1111110000010000
1111101100001100
1111011111000111
1111011001110100
1111100100110010
1110110000000000
1110110110110000
1110011011101000
1110011111010101
1111111111111001
1111111111000010
1111010111101011
1111111001011011
1111110000101110
100000010
11001101
1111111110110110
101001000
1111101000111111
1111011111101100
1111011110110101
1111010011101111
1110110010010000
1110011111000100
1110000000110100
1110011101110001
1110011000111100
1110010011111010
1110001011100001
1110001010011010
1101100011010010
1101110100010101
1101111001111001
1110000010101101
1110011010001111
1110011110001001
1110111110101010
1110111101011010
1111000000010111
1111010011101000
1111110010101101
1110111011
110111011
11000100
1111
10010001
1111111100001000
1111110000011101
1111010011110101
1111111101001010
1111001011011110
1110110101011001
1110110110101101
1110111111111111
1111000001100001
1111000011001010
1111001110000001
1111011110100010
1111001001010101
1111000011001001
1110110110011100
1110110011010111
1110011111000110
1111000010101110
1111010011001100
1111010010011001
1111010010100110
1111011110110001
10100010101
1111110101110011
10001010
10011110
100101110
1111111111111001
1111111100101011
11011
1111111111010001
1111110110101110
1111101101011101
1111101101001011
1111100100001010
1111011010001101
1111101101110111
1111011010001111
1111111011010011
1111111010000100
1111011011001011
1111000000011010
1111100101000001
1111011001111001
1111100110001011
1111011010001011
1111100000111111
1111100100011000
1111110001011011
1111110001011110
1100010
1001011
11010001
1111111011001101
