10010101
101011100
100000110
1111111100111100
10000111
10011000
1111111100001011
1111111111111110
1111111111000010
1111111110011110
1111111011101110
1111111100001010
10100
101001000
1111111000101011
1111111110001001
1111111100101010
11100
100000000
1111111010110011
11001011
11010110
100101001
101010010
1111
1111111110111000
1111111100011010
100011110
1111111011101000
1111111101101010
100010110
101001101
1010011110
1001110
1000101101
1001100101
10001100111
10011001011
101001001110
1111110010101110
1111110100011010
1111111000011100
1111001111001010
1110110111110001
1111010100110101
1111100100000111
101110000110
110111111000
101101010010
100000000110
11000101000
1001010001
1111111110111011
1111111011101110
10111100
11000101
1111111111101000
11
100000111
1111101010101100
1111101101001011
100011011011
1111101101111100
101011111
111010000010
1010101100001
101000111010
1011011111
10010101001
110001111
1111111010110110
1000100110
1111001010
111001100000
11101101110
101001001010
1001100010
111100100111
1001010010
101001011
100101101011
1111110001000011
100111110
1001000
1111111011000000
1111111101111001
1111101101110100
1111110100011101
1111110101101001
10111010001
1110111001
1111100011101100
1100100101
101011000010
10001111100
101001100
1111100100110100
1111100101101010
1111011111101000
1101011
101111100
1110000
1110001000
101011010111
10000110011
1111110111011110
11110101000
10001101100
110110101
100110000
10100011000
10000
11000010
10110011
111100100
1111011100001001
1011010
1111111111110001
1111110010100101
1111100111101010
100111011
1111101010
1111110001011000
1111010101011111
1111101010110111
1111100101011011
1111101011111101
1111010011000111
1111101100110011
10011101
110111111
1110100011
101111100011
10101100001
1001111010
1111111111010110
1111111000010110
1011010
1111110010110111
111110010
10011011
11110111
101101011001
110000
11011011
1111100100011010
1111111111101001
10001010
1111111111000111
1111110101111110
1111101011111001
1111010100000001
1111110101101011
1111101000101001
1111110010001110
1111011011011110
1111110000100011
1111101011111111
1111111000110101
1001111111
1100110100
10011110111
1000000001
1111000100
111110010
1111100100100010
1111110110101011
1011111011
1011000
1010110
1000100000
1111111011010110
11010111
1111111101001001
1100100101
1111110110111111
1111110000010011
1111111010100010
1111101001100100
1111010001110101
1111100110100111
1111101000100011
1111011010010110
1111001001101110
1110110110110101
1111000011000100
1111100000100011
1111110101001000
1111111001111010
1111110100101000
1111101001110100
1100110111
11001011101
1010100110
10111110
1001111100
1111111101000111
110011
10111110
1111100010001111
111000
1111110111101111
1111111010111101
1111101000001110
1111111101111101
1111110111000010
1111110101100101
1111111100000000
1111101111000001
1111101011100100
1111101001000101
1111000000100110
1111000111110001
1111010011101110
1111100000100100
1111101110110011
1111110100001111
1111101000101110
110010
111001111
10010110101
1111111100001111
100011111010
10001111100
1110101001
10110011011
1111111011011110
1111100001011001
1111011000111101
1111010111111100
1111111011000000
1111101111001101
1111100101001000
1111110001001000
1111110101100010
1111110010010101
1111100100011000
1111100110011010
1111000100011100
1110110110101010
1110110000100010
1111011110111110
1111100110011000
1111110101011000
1111101101010010
1000110110
1111111001101011
10011100000
1001101001
11000011110
10111100101
10100010
1111111110
1111010001010010
1111111000010000
1111111111111001
1111110100000001
1111000101011100
1111011111101111
1111110110001111
1111101001110000
1111100001001011
1111011010011010
1111110010101011
1111101011000001
1111011101110100
1111001000101000
1110110010101001
1111011000000010
1111111001001010
1111111111110001
1111111110110001
1111111001011010
1011001001
1111101001011110
1111111111111100
1111111110010011
1111110110000011
1111111001110111
1111110011111001
11000010000
1111011101100111
10000010100
11100100010
11100011100
1111110010000011
1111101100011011
1000100001
1111111001101000
1111110010100010
1111110101010100
1111111111111010
100100
1111110001111010
1111001010000110
1111011111111100
1001011
100110101100
11000000
1100110010
100111010
1111111100100011
11010101011
110111100
10110101111
110011010
1111101001011111
1111011111101011
1101010
1111110011111110
1111100100100011
100111011
1111011000010100
111000
1111110011100001
1111111110111000
1010010100
10011100
1111110000
1000101110
110111001
1000100000
1111101001001011
1111101111101000
100001011011
10001011101
10111110010
10010100101
10111010111
101111110
1111101111100111
1111111000111111
111000
1111111110010100
1111001001111110
1111001111010000
101011010
1100111111
1111010001111101
1111110111001010
1111011100011000
1111111100101000
10100111
1000111111
1110101111
1111000001
101000110010
101111001001
101000000110
100111011101
1111111000110110
1111111011100111
10100001000
1101011100
10010010
1111111101011001
1111110111001000
1111111001011100
1011101101
1011111111
100100111101
10001010101
1111100001100100
1111100101000111
1111111100011100
1111001110
1111100000100010
1010100000
1101110
1111110000
11001001010
10110110100
10011111010
10010011011
100111011111
101110011111
100110011111
1101101110
1111101011110100
1111111100010000
1111111001011010
1111110111110110
1111
1111110101101101
1111111000011001
110110100
1111110110001110
1000011100
100011101011
11000001
1111110101010100
1101110010
10001000000
1111100110001110
1111101011111001
11011110111
1010100110
11101000001
1001100110
10010100110
101000001000
11010011010
10001110111
11101001111
11100110110
1111110111101001
1111110110001000
1111101011100011
11111111
1000101111
110000000
110010010
10100100000
1111110100001111
10011100010
1111
10010011011
111000101
1011111010
100001010010
11000100100
1111110100100110
1111111110101111
101000000011
1000000000
10010111100
1110111011
10101001100
10010000010
11110011101
11101010111
10101000011
1111111111100111
1111110101011111
100011
1111110111110100
10101110001
100000011101
1100110000
11011101010
110110101
1111110101
10000111001
1110101001
111011100
1111100001111010
1000001110
1100001001
100000101001
1011010000
1111111101110010
1001110
1111100001111001
1001011110
1111110010100000
10010100010
10100100000
10111010100
10100100101
11001001011
1111110110000011
1111110110010011
10100001101
11111000001
11100101111
11110101011
100010000001
10101110011
10110010000
100010101100
11010011110
1001010111
1011001011
1000001
100111100010
1111111001001000
10101110
1111110010100011
10100110011
1111100000101000
1111111001011010
110000000
1000110000
100101000
11001001101
10101001111
10010000100
10000001000
1111101101100100
1111111101010001
10000011001
1110111111
1101010011
110100110
11100010110
10100111100
10101011110
111010000100
11101000111
1111110011001010
1111111111010011
101101111
1111011101010011
1111100010010101
1111011011100001
1111101101100000
1011110101
1001001001
101011111111
11100110
1111110111111011
111100111
10100001011
111011011
110100001
1111111100010100
100000101
110111001
111110010
101110100
11000011000
1001101011
11111111100
11100010001
100000000111
11110011110
10010100011
1110000100
1110011000
1111101000001011
1111011110010001
100111001000
1111111110110100
1111100011100111
1111101101111100
10111100101
10010100111
1111110100100111
1111110111101101
11000101010
1111111010111111
11101110001
10100000010
1111111100001111
1111011000100111
1111101100010010
1111111011100111
1011101011
1110010111
10110000111
11110001100
1001000111
1111110100
1111111111110111
10001100100
100111110010
1111111110001001
11000101
1001011010010
1111010100
1111111110100010
1111011111100001
100000110010
100001111011
1111110111011111
1111001011111101
1111110111011000
1111111010110110
1100001110
11111101101
111010111
1111110011010011
1111101010000001
1111011110110101
1111011100000111
1111110001110101
1
1111110101110101
10000001000
1111110000000110
1000101001
1111111101100110
1000110010
10100000111
1100111101
1110100111
101110011110
1111110100110111
11
10000101001
1111111001001011
10001001011
1111011100101100
1111101100011010
1111010111011100
1111110111110101
100101001
1000000000
1111110011100001
1111111001100110
1111111011111000
1111110001110000
1111011101110100
1111101001101000
1111100100111110
1111110011110010
1111111100111000
1111111000101110
1000110
1111101110001101
10010111
1000001011
1111110100101101
1111110110001110
10010111010
1111100
1111111100110110
1111111110011010
1111110101101010
10000101000
1111110011000101
1111110010100010
1111100011100010
1111111001100001
1111110010000110
1111111001010010
1010100001
111101111
1111111010111101
1111101010000011
1111100010011110
1111110000001110
1111101000010000
1111011100110000
1111011111111010
1111101101
1010110100
1000111110
1111111011001110
1111100101000011
1111100101000100
1111110000010011
11001111000
111000
1101001
1011000
1111111010101011
100000111111
1111111110000111
1111111001000010
1111111000110100
1111101011011011
1111101101110111
10010100
1111101001001100
1111101100100111
1111100100001101
1111011111000100
1111101001001001
1111101001111001
1111100101111101
1111011101001001
1111101010111100
1010110011
1111101011001101
10000100
1111011110010111
1111010011001001
1111010011100000
1111111010010011
10011011101
1111111011000110
1111111110101110
1111111111000110
1111100110111011
101010000
1111010001011101
110000010
1111111110000101
1110110
1111110110111111
1010110111
1111110100000111
1111101000000010
1111100110011100
1111100010101010
1111111010111111
1111111101010110
1111110011110111
1111101011101011
1111111101010000
11100001
1111111000011001
1111111100010010
110100101
1111100010011010
1111011100100010
10001000010
10110101110
1111110
1111111101010010
10000010
1111100100111001
110100111
1111011000101001
1111111001110001
1000010111
10111101
1111100101011001
1111011110010010
1111110001000000
1111111101111001
1111111110000110
1111101100100111
1111010101001000
1111100111110110
1111101001111010
1111110000101111
1111101011100010
1111010110101100
1111110011111110
1111101111000000
1111101000101011
1010000011
1111111101011110
1001100000
10100000001
10000011
1111111110101101
1111111101101011
101010100
1111111000111110
1111100001101100
1111111100111000
1111100100110110
1111010011000010
1111010010100101
1111010001101110
1111000000000001
1111011010100101
1111110100100010
1111010000110101
1110010111010100
1110111010100111
1111000100110100
1111100111101010
1110110111110111
1110111001100010
1111010110011111
1111000101101100
1111010001110000
1111100100100111
10011001011
1111111101011100
100110110
11100101
1111111010111110
1111111110110100
10010011
1111111110100001
111111011
11100101100
1111100001001010
1111100001101001
1111011011110110
1111011110100101
1111001111001001
1111001000000010
1111010000101101
1111001001101011
1110110011001110
1111010010001100
1111000100000110
1111100101001110
1111110011111111
1111011010111010
1111011100101010
1111110010100100
10010000011
11000110011
1111111101101101
100100011
1111111011011101
101001001
