1111111010111100
101000011
1111111110110000
11100000
100010110
1111111110001011
100010
10010101
1111111110110101
101001
1111111111111011
1110001
1111110011011110
1111110001000000
110111
101111000
1111111011010101
111011
1111111111110110
1111111011110000
100001110
11101100
11100011
10101011
1111111100110011
11100010
1111111110101001
1000011
101011011
1111111010101101
1111111101010100
1111111110111101
1100110
11101001
1011001101
10011101
1111111010001010
1111101100000000
1111010
1111111010011010
100011
1111111011100101
100111101000
101010110001
110011010
1111010001110101
1111110101011101
111110010
110000100
1010111111
1111101001
111001001
1111111010101110
1111111100010010
1111111110001011
101001010
11110001
1111111111010010
1101100011
1111111011000011
1111111010001111
1111101111111100
1111101011010010
1111100010100010
1100011
1111110001011101
1111010010100111
1111100001100011
1111100010001010
101000011110
1100101110
101110001010
101111000000
110000
100010101110
10011010100
101001111011
11101010011
1111111011101100
1111100111110101
1111100101100000
1111111000010110
1110000
101000
1111111111100001
10111010
111111101
100011101110
100010110000
1111110100001101
101110
11110100000
1010010000
1001000111
110001111
1111101101110001
1101100
10011011101
11001100
111110101111
101100000110
111111
100101000110
100111101010
10001100111
1111101010111100
101010010
10000111100
1111111110011100
10011011110
1110110110
10000111
1111111111001110
10110010
1111100010001111
1111110110110110
1111110110110011
1111101001001101
1111111000011011
10101001101
110101101110
110101000101
100100000101
10110101000
11010011111
11100000010
101010111101
110000000011
101011100110
11000000000
1111111110111110
1111111100111101
10100011100
10110101
1111111010110110
1111110100101110
110111111
10010011111
10111100110
1111101000011010
110111
1111111011101111
100101001110
1100010110
10110000100
110101001
11000100100
100010100110
1001010110
1011001001
10101000110
100000101101
100100001001
100010011010
101001101100
100010011001
101010010001
1111
1111101011100000
1111111110001000
10110011110
10000011100
1001100
10000011
111010
1111111011110011
1011100001
1111111000110000
10101101
10000011010
10001111
1111100111001010
1111111111111000
1000110111
1010110110
1111110011101101
1111111101101001
1111110001110110
1111110111101011
1111110011010110
10101111
1110111
10100100
111111011
1111111110001001
1111111000111100
1111110100001010
10000100
100010100100
11000001110
10011011001
101101000111
1001101010000
111010011010
11011110100
11110010110
111001
1111101110101010
1111100000000101
1111101000111111
1111110010011010
11000000110
1101010
111100111
1111110011101010
1111100111001010
1111011001100111
1111110011011011
11001
1111101111010100
1111101111010111
1111101111111100
1111100110001010
1111101010101000
1111111100001010
1001010
10101110100
10000110111
10001010101
10100001100
110000100110
101111111111
11111000000
100010011100
1111101000111101
1111010001001100
1111010110110010
1111110010101011
11011100001
11111000001
10100011011
11001111
1111101101110010
1111011111001100
1111110101011111
111111
1111111011010011
1111111001000101
1111101100111111
1111100110110101
1111101010101000
1111111110111101
1111111111110011
10000000
1111101010111100
1111101010110001
10011100000
1110100001
100101101001
11001000101
1110100000
10101111110
1111110100110100
1111101100100000
11001110101
10000001101
1111110110011001
101111010
1001101000
1001000101
10011110
1111111000101000
1111111000001010
1010101101
1111111110111010
1111110110101111
1111110100111000
1111110110010111
1111110111101101
1111110111001001
1111101010011000
1111100111001000
1111110001101110
1111111101111010
1111101101101100
11110010000
11001100011
111100010011
101111000001
1111101100111010
1111111011010000
1111111001111101
1111110110111000
1111101111100000
1010110
1111100001110100
1111100010000111
1111111010101001
110000000
1111111011110010
11100010
1111111110101101
1111111011101101
10100100
111010111
1111111101101111
1111101000110100
1111110011011110
1111101011110101
1111101100110100
1111111000001100
1111110011011111
1111111001110111
110100101101
1110100010
1111100110010000
10110010110
1111111111010001
1111101100011000
1111110111010100
101111
1111101100000111
1111101101001010
1111111000010000
1111010001000001
1111011010101111
1011010101
1001001001
1111111101001100
1111110000000011
1111101010011111
1001111
1001001100
1001011101
1111110011101011
1111100110011100
1111101001100011
1111101010001001
1111101011101110
1111110100101001
1111101110100110
1111101111111010
110011111
1110000111
100010011001
1111110011101111
1111101111011011
1111011001110010
1111011000001001
10010110011
1111011110011101
1111100000011100
1111110011111100
1111111101110100
10011100111
11000000100
11011001
1111111010010011
1111111111010101
11011101100
101010001110
10110001110
1111110000011001
1010001011
110101010
101110100
1111111000101111
101001
1110110100111110
1110101001100001
1111001110010100
1111011110111001
1111100000001000
1111111000100000
101101000
1111110001111011
1111000110111100
1110110010
1111011010111011
101000001
100011111000
1111111101110100
1001110100
10001010101
1111111100011111
1111111000101010
100011101101
1000010100010
110100101101
11000010011
100100110
10000100000
1011000010
10010010010
1111100111111000
1111000100100011
1110011010111010
1110100101110111
1110110101101101
1111101110110101
1111100101111011
1111111001000011
1101111010
1001000010
1111110110011101
1111111100010110
1111001111100011
1111110100111000
11001101011
1100000011
1111101
1111101100000100
1111111101000101
11101111101
100001100100
101100100100
110010000001
10100010000
11000110001
100010000
1111101010001111
1111010111010100
1111001011011110
1110111110110010
1111001111011111
1111001110000111
1111111100111010
11100010110
1111111001000010
1111100110110001
1111110111100011
10110100
101100000011
1111011100101101
1110111110111110
1111100100000110
1111111010100010
1111110101010100
1111111011100101
1101011000
1010111
10100111000
11100110010
101001010100
101010110111
1111111100110010
10001001111
1111101000001010
1111011110100100
1111101111001101
1111010010100100
1111101010100111
1111111110011110
1111101010000010
10010011111
11011110
1111110011000010
1000111010
1111100101001011
110011011
101110011101
100101100
1110100011100101
1111011110111111
1111100101000011
1111010010110010
1111100010001111
1111110101101111
10010100
110011100
1100110010
100000010001
11101100001
1111111110100000
1111110011111101
1111011011011100
1111101000100010
1111100100100010
1111010010010010
1111001111001010
1111111111011001
1111100001000001
101010001010
1100111
1111110100000011
101101110
10011110
10110010
10111000011
1111101101000111
1110111001010100
1111100011100010
1111110111010011
1111100101100000
1111010100001000
1111001100001110
1111001011110100
1111110100001001
10100010111
1111100010
1111110011110010
1111101010011010
1111101001011101
1111010011011010
1111001010001111
1111100110110000
1111011001111010
1111101110100011
1110100111
110100110
11000100111
1110101001110010
1111010000000111
1010010111
1111111011111111
111001100
1111111001100010
1111111011110110
1111101101111110
1111111011111100
10001100
1111110001011110
1111010001011110
1111001000011000
1110110001111100
1111001111111110
1111101110101000
1111110011101001
1111010111000110
1111100101010001
1111011001111110
1111001001011110
1111000111111110
1111010010011010
1111111101100101
1111110111011001
1111110001111110
1111110000011101
10100010011
1111110101011111
1111010011011110
101111100110
10110000101
1111011010101010
1101010110
1111111110000111
1111110000011110
10010000110
1111111001010100
1111101100011001
1111101001001100
1111010101000110
1111010001001111
1111000100101011
1111011101111111
1111110110101010
1111101001111010
1111111001000001
1111110110110111
1111111101010001
1111110101010011
1111101100111111
11010000
1011100100
10100000
100010001
11110111
1111010001001010
1111111001000111
10110101101
1111111101111000
1111101101111110
11101010101
1000111100
10110111101
1110101101
10110001101
11100100
1011010
1111111110011101
1111111111000100
1111111100000010
11010111
1000011110
10001100
11000011000
10100011000
10111111001
101101110101
10010110110
110101010110
101111110101
11110010001
10111111010
1111110000110001
1111100001101101
111101001
10010111010
1111111110101110
1111011001
100001011101
1111111111011110
111101100
1111110001000011
101010000000
10000000111
1100011001
11000001001
10000100010
1111001011
10000001000
11001000100
100110011001
100101001011
1110110101
11000011100
101011111111
100101100111
11010110011
1011110101
10001110111
101011000110
1111011010111011
1111011100001001
111110
1111110110011100
111100
101010111
1101101100
1111110011110011
1111111011011011
111100
1001100101
11000111110
100100111110
10001101101
11000110011
100000100011
100010001100
100010111001
10101010110
11110000010
10000110010
10111011111
100111001101
101010110010
10010101001
10000100111
1011010
100111110000
11001
1111101010001000
1111101101110101
1111110100010111
100011011
1111111010111001
111001011011
101101101001
1110000110
101111110
1111111010100110
1111111011101011
11111111000
11011100110
11111001011
1011101100
11111110011
10110000010
10101100001
101100100011
110011001110
101000000101
111011101100
111010000101
101111100101
101001011
10101001110
101110111111
1111111001110100
1101011111
11111000
1111111111011010
10111010
1111111100101011
1111101111100001
101101000
1111011111111100
1111011111010011
101010110
1011000000
10100101110
10001111100
10010101010
100100010
10010101010
11110111111
110100110011
101101000100
101000101111
1111
101110011100
10001101100
1111111111111011
1111111010101001
100100010010
1111111011101001
10011010101
10100100101
1101001000
1111111111010111
10000011
11011011
10011110101
1111001100100011
1111110010000011
1111110000011011
100010100011
101111000100
100111110001
11110001
1100110010
1100000110
11100111001
11101111111
10101010000
11011101000
11011111110
101100100101
10110000101
1110111001
110001010
10100100100
110111011101
10110100011
100001101111
1111100101111110
1001111010
10010111
11111001
1111111011111001
11100110
1111101110101000
11110100111
1111110100010111
1111101110011101
1111111111011000
10001010111
1111111010000100
11010101001
100001010010
1010010101
11011001
11110100
1110100
1111111010111111
1111111111001101
1111101001011100
1111101100011011
110010100
11111101011
110010100
1111110000111011
1111110010001001
1111111000111110
11010000
1111111101101101
1111111101001100
1111111100101110
1111111111101001
1111111111110101
1111111001100011
1111101101110010
10010010001
110001000
1010000001
1111100110011001
1111111000101001
1001011110
1111110001010000
1111010101101010
1111110100111110
1100000000
1111101001100110
1111011001011100
1111111000110000
1111010001001011
1111011011111101
1111011110111101
1111011101011111
1111110100100011
101011011
11011110
1111111110010100
1111111100000001
