1111111011110010
1111111111001000
11010111
1111111111101001
101010001
10101001
1111111011110000
100110000
1111111011011110
1111111110010000
100101010
11000010
1001000100
1111111111100110
1111100001001010
1111111011110001
1000
11111
1111111110010001
101001000
1010011
1111111100111111
11011111
101001111
1111111110110101
1111111100100000
1111111110110010
1111111101101010
1111111101100111
1111111111101101
100100000
1111111110000101
1111110110100111
1111110001100011
1111100011110011
10010111
1011100101
11011001100
111010111
1111110110110001
10011000000
111101100
101011001
1111110010101110
1111101000110001
1111111111100000
10101110010
11001000011
11001101010
10001000000
1111111111101111
1111111101100011
1111111110111111
1111111110000010
1010100
11110101
11000010
1111111101011000
1111111110100110
1111110101110100
1111110101011001
100100101
1111111010010100
10110011110
1010000
1111100000101010
1000000
1111111100101010
1111010010111010
1111100000001101
1111101111010011
1111100010001000
1111110110010010
1111110000111101
1111110101100011
1111111110100101
1010111110
1111111001110111
1111011111
1111111100101100
1111101110000101
1111100101100011
11100000
1111111101000011
1111111011010110
1111111111100001
1111100110101001
1111110101011100
100001001111
1111110101010010
1111011101000111
1111110000001101
1111101010011111
1111011101001001
1111101101100000
1111111101100011
1111101000010110
1111010100110010
1111111101101001
1111111101110011
1111100110010011
1111110001110001
1100110101
10111101000
111001000
1111101010010101
1111111100001101
1111110110011000
1111100101010111
1111011010100010
1111100101011010
1111111100011101
1111111111011110
1111111001001111
1111100000100110
1111111011111111
1111101110011101
1111101111000111
1111101010010001
1111111101001011
1111010111101100
1111011110000111
1111100010010010
1111110000101010
1111110010110001
1111111111000100
1111111111101011
1110110100
1011010101
10010100100
1011111110
10111101100
11000011110
10110011001
1111110101000111
11110111
1111100001010001
1111110110001010
11110
1111110001
1111111101010001
1111111100100110
1110111000000111
1111101110000110
1111100111111110
10000111001
1111110100011100
1011011111
110000011
1111111010110101
1001111111
1111111100000111
1111111100000100
1111110011100111
1111111111111010
110001101
1110001111
11011010110
1111100010
100000010000
1100101111
10011100011
1101011
1111110101000001
1111111111100101
1111111110001011
1000001001
1110111011
100110000
1111100000100001
1111010011100000
1111101011000111
1111111101110101
101010111011
110010111
10001100111
11111001
110010
1111101010110000
1111100110011111
1111101010100010
1111011111101011
1111110111000101
1111111010100000
10111111100
11011101111
100010011
1111010
100001010
100000101101
1010101110
11100101
1100101001
11111010101
1111101101101011
1111011111001111
1111111110000100
1111000110001001
1111110101001010
1111100110000110
1111101000100100
110010000
1111110011110110
1111101010110111
1111101110101001
1111110000011111
1111110101100110
1111100100101011
1111100110010110
1111110011000100
1111101101010100
1111111110001110
11001010101
100011011100
10110100011
1111110100011010
1001000111
11001001001
10000100
1001000100
11010101001
1111111111001110
1111111010001010
1111011011000001
1111100100010010
1111100110
10110011110
1111101111101111
10110101
100000
1111110011001000
1111111000110110
1010010
1111101101101001
1111100111001100
101000010
1111111010001010
1111110001111111
101101100
1111110110110110
1111111011111111
1111111111010110
111110100
1111110101101101
1000110111
1000001110
10000010
10000101110
1001110110000
10000010101
1111101010011000
1111110010000001
1111111011010000
100010100
1111111010011111
1111111000101101
101011000
1111100010010000
1111100101010000
1111110101011001
1111100000011010
111000001
110100100010
111110111001
1000101100001
110000110000
11010100111
1111111000001100
1111101010100111
1111110010100101
10010011
1111111100101101
1110001000
1010000111
110101010
1101011111
1010010011000
1110110111
10010110100
1011001100
1111111100010001
1111110100111110
1111101000001001
1111111111111101
1111110001011011
1111101010000101
1111110100010001
1100011001
110101101100
10011010011101
10011010110100
1101011110000
1100100011010
1000011010111
100000111111
1111010100
1001001111
1111110100100000
1111110011010101
1111111011010111
10111101111
1100111011
1111100111
101100101011
1100010111111
111101
1111010011111011
1111010111100011
1111111111101100
1111011101010100
100000111100
10010011111
1111110000000010
110001101011
1100100100101
10010111001001
10111101100111
11000101010110
1111110110111
101100100110
100110110010
11111110001
1011111
1111111010010000
10011010100
100001100
1111110110100011
1111111110011100
10001010100
101011101
11010011100
10111111110
10000011110
1111101011001010
1111100001110010
1111101110101110
100100
1000101101
110001100011
110010011001
100000111100
1100100110111
11011110000111
10111000101000
1010101110001
101010101011
1110110
1111110111010001
1111101100110111
1111101100110001
1111100110100110
1111110100101101
1011001
1111111011001110
111111100
10001111010
110
1101101111
11011001010
100101000100
1111111101011011
1111011001010100
1111101100111100
1001010100
1111100101001111
111100001
11001000010
110101111010
110000111111
1100111110101
1001000100001
11000001000
1111111011100000
1111101101001010
1111100000100100
1111101011110011
1111101011100011
1111101011001011
1111110000000000
1001010100
100011111
11010111
1101010101
1111111000100000
11
1111110111100110
10010101011
100010101101
11000011001
1111110110111001
1111111010100011
1111111011111101
1111111110111000
10000000111
100111011
11010011001
1111010110
1010001111
1111010101101010
1111101011110110
1111011001001000
1111010000111111
1111100010101001
1111110011001011
1111110110000000
1111110011110000
1111101010011000
1111110011110100
1111111101111110
10101100001
110001001
1111111100110000
11100100
1111110111000000
11001000
10100111000
1101101
1111111001010000
1111101000011010
1111011111110100
110000001
1111110100000011
1111101011101100
1010011001
101011111
1111011010001100
1111001111110011
1111100110110101
1111100000110001
1111101001100010
11101100
10010011110
10101101011
1111110101111100
1111110001000011
1111111001000011
1111111010101101
111001011
1011110111
1111110110000111
1111111110011111
1111101100001111
11011110
1000111100
10010101100
10000000
1111011001110010
1111010100011000
1111111110000100
1111010110011111
1111011101010000
1111011011111011
1001010101
1111101110011010
1111110011100001
1111111001011011
1111111110110111
1111111001111111
10001010101
11110111001
11100111110
1001010011
1111100011001011
1111110110001111
1111110101000110
1111111010000001
1111111000011011
10100
1111111001101100
1111110100110101
1111100101111000
1111110100010110
1111101111001100
1111101001010101
1111100101001001
1111010010111101
1111111100110000
1111001100100010
1111101110100110
1111110001111101
1111111010010111
1111110000010011
1111111010110100
1011011100
1111111110011001
101000011
11101010001
100001000100
100101000111
10011011101
1111111011110101
1111111000010011
1111111101101100
1111111101010011
1100001
11111
1000100
1111111111001001
1111101011111001
10111000110
10010111001
100000000
1111111111110111
1111010000000011
11001111001
1111001111001101
1111101010000100
1111010110111100
1111111000011000
1111111101001110
1111110110000110
10101100000
1111110101001110
1111111101010001
1011101000
100001100100
110001111101
11100111001
100100001
1111110111111010
1111101011011010
1111101101010001
1111111000011100
1111111100111101
10001001
1111101011100000
1111110111100100
1111111000
10110111010
1111011011110111
1101100101
1111001001001000
1111101111100001
1111100101111101
111000100
1111111100110001
1100101110
1111111110000011
1111111110010000
1111111110001010
11010010011
11111110
10101000011
101010010000
100111110010
1111111101100100
1111111010000111
1111100011011111
1111011111010110
1111100111100110
1111110010010011
1111111010100011
10000011110
1111110010110111
1111110001000001
11
10100111100
1111100001010101
1110110110100000
1111011001100111
1111111111110101
1110001010
1111011101
1111111000011110
1111111011100000
11001100
1111111110001100
10111010100
10101011101
1110011010
1000011111
10110110101
10010001001
1111111011010110
1111100011001111
1111110000010100
110011100
10111100
1111001111011000
1111110111101111
1111110001010111
1111111100000100
1111101101010010
1111110100000010
111111011
1111100010011011
1110100110100110
1010010100
1111110011101011
1111000011101100
1111000101011001
1111110100111001
1111111011110000
1111111011110010
1111110100111101
11110011
110110110
1111
1111111000100001
1011101110
10000111001
1111111110011010
100110100
1111111100101110
1111111100111000
1111110001000000
1111100111001010
1111111001001101
1111111101010110
1101001111
1111110101001001
1111100011101010
1111100101001100
1110110010
1111101000111101
1111111111000011
1111101010101101
1111101001010001
1110011010000100
1111101000000110
1111011111000100
1111101010111001
1111101101010110
1001000001
1110100111
1111110101110010
110100111
1111111111101010
1001111011
111010011
1111110111001010
1111110100010111
111000
1111111101000011
10010011
1111111011111111
1111011111000001
1111101011100110
1001001111
1111101110001111
1111001111010100
1111110111010111
1001110010
1111111110001001
111111
1000010
1111011110101110
1111101110111111
1111110111000011
1111111001000001
1111100101010000
1111110000101101
1111110110101011
1111110010110000
1010110000
110100010
1111111110110111
1111110111110010
110110000
1111110101000010
1111110101101010
1011101110
10000001110
1111110101011110
1111101001110010
1111100010111111
1111101100000111
1111011100001010
1111111101001010
1111111101000100
11110111
1111111110011010
100100
10111101
1111101100011000
1111110111011000
11010101
100111000100
1111110001011100
1111100001101000
1111010101011000
1111110011101001
11101010
1111111110110110
1111111111100010
111000011
1010011111
11111111100
10010110011
1000110101
1111111001100100
1111110011000111
1111101101001010
1111101110100011
1111110010001101
10011011001
1011000
1111000111001001
1111011111010000
1111111011011111
1111111101101100
1101100
1111100110100001
1110001110
1111101100001110
1100110101
1000111010
1111110101111011
1111000111
1111110100011011
1100101111
100010001100
1111111100111100
1111111011101011
1111111110110000
100001010100
11010000101
101101000
1111110100100010
1111111100111101
1111110000000110
1111111010101101
1000011011
100100100
100000011
1111111010101010
1111101100001000
1111111111001011
100000
1111111100100010
1111111101000011
1110101110
100010011011
100010101111
1000001011101
1001000100
1101001100
11101010110
1010001000
10101110110
1111111110001011
1111101101111101
1111111110101100
1111111001110101
1111001001000000
1111010101011111
1111110101110000
11000001011
100111111111
110110000001
110001100110
11000001000
110010010
1111111110110000
1111111011011101
1000001
1111111011011011
1111111100110010
11111010
1111111110010011
111110
1111111111011100
100000011011
11100011011
100110111001
101101000110
101100111000
101111011110
1000110000011
1001111000010
1001001111100
11000111010
111011101
111110011
1000000011
11110011010
10001010011
11100011010
10110110111
101011000
1001111
1111111111011111
1111111110101110
101001100
