111110011101
1110100111111011
1111001110011111
1111001111010000
1101111001001011
101001110
11000000110
101000100001
1111101011001001
1111001011011110
110000100011
11011101111
1111100011110111
1111011011000111
1111000110000000
1010010011010
1010101101111
110101100111
1111111010101100
1111111100011011
11100010111
1101100101
1111111110100001
1111101000100011
11010101
100001011011
1101110100
1111110101011100
1110110111000100
1111101100001010
