11111101110
1111000110111101
1111111110001000
1111110101110111
1000101000100
1110101001110011
1111100101000100
1111110000001001
1001010011110
1010100
11011011
1111011011001110
11001010010
11000001001
1111111011000111
1111100111001011
1010011101111
1111100010110100
1001001100101
1110110010111101
1010101
1111101010111101
1111110111011000
1111101100100000
1111101010101011
11010100000
1111111000110100
1000101
1111100111011100
1100011101011
