101001000110
1000000010111
1000001010000
1110111111000110
10001111000
1001011101
111101111010
1101000001
1111000110011010
1111000001100010
110111101000
10001011111
1110001110
110101111110
1111101100000100
111010011001
10100100
110000001000
1110011000100101
1111111111
11101111011
1011101101
100110011110
1010100011
1111011000110011
10101011101
1111111010001101
1110110111000111
1111011110011011
1110101001110000
