1111110110010100
1111000011010110
1111100011010010
1110000100010010
111111010100
11001101110
1111101010010100
110011101001
1010110000
1101110001010011
1110101000011010
1110101101011000
1110010100011101
100000110000
101110100100
1111001111110001
1111111000101110
101100110101
1001010100110
1111110100010011
111101110011
1111111101010010
100000101011
1110011000000010
1111000101010000
1111110111101101
1110101011100110
1111010000001100
110101001
1101111100
