10010000100
110001011110
11110101101
10010101000
1011101000000
100111001010
1111011100011010
1111100111001000
1111111010011001
1111101111101011
1111100111001111
1110101111010010
11001111
1111000010101011
1111111101010000
1111011001111100
1101011000000011
111000010100
1111110
1111111111100011
1111111101000010
100010101000
110001101001
100111011100
111001010000
1110110000001110
1110111110100011
1111101100111100
111110111011
1111110111000110
