1110011111111001
1100000011100
11110100010
1110110100000100
1111000110111111
1000110111010
111010001101
110000010
1110110010011100
110100111101
1111111001010011
111001010000
1001101010
1111100011111111
1111100101001000
1011000100
1100110011000
1111101011011110
1111100011000000
1011000001110
100101001001
10110110
1000000011101
1111111000111101
10000110010
100011111000
1110101101011110
10001101010
1011111100
10001001100
