1111110010011011
1100000100100
101010110100
101001001
1111100110111000
101010111011
1010011111
1000101010
1110011110100000
11001101
11100011100
1111101101111011
1111111100111111
1111111000011001
111010010
1111100001011010
1111001011110010
1111101100010011
1110110010101001
100001110001
11001111111
111000000011
101100110101
100101101
11000000001
1111111011101000
1111100000101000
1111101111101101
1111110100101000
1110100011000010
