10111
1000011001010
111001101101
1111101100010010
110110100011
10111101101100
1010100010001
11001011110
111111100111
1110010111100000
1100000001
1111110111010001
1001100111111
1111110010100010
11010101
1111110100000001
1001100000000
1111000100000000
1111011110000001
1111010011010010
101101101101
1110001011100
1110101101000100
10110110011
1110110011001010
10111101001
1111111011000000
1011111101010
1111110001100000
1010101101
