1111011110001101
1001011010100
1101011101
1111100111
1111110001110100
1001111011111
1111111001110010
101101110001
1110111000101110
1110110011101011
1111010001001011
1110111110111110
1111110010111101
1111011001101001
11001111111
1111111010100000
1110101000011010
1000011000000
1111001011111100
11101101000
11000100010
1111100
1011100001
1111110011110111
1111011101000001
1111010101000010
1110011000101010
1111111111001111
10011101110
1111001100100011
