1010101111111
1101000101101
111110011111
1111110111001010
110101011011
1110001101011111
1111001110010000
1111000011001000
1001111001000
100110000000
110000101111
1111011111010000
1111111000110100
101101110100
1111101110100100
11001011000
1110101100101
1111001010
1111111010101111
1111011000010010
1111111010001110
1111001010100110
101110111000
101010110101
111011011000
1111000100110110
1111100011011000
1111101110110010
1111000100011011
1111111011110111
