11010001101
1110000111110111
1110111101100100
1111010100110000
100001110011
100011000000
1111000100001011
1110110101011100
101001100110
1001111001
1111100010000001
1111111101001000
1111100011100001
1111110101000010
11011101100
1111010000111110
1110100110011011
1111000011000100
101000111101
100010000101
1111101110101111
1111010000001110
1111001001111110
10111010101
1111010101101000
1111001101101011
1111111101100011
110111011010
10101011000
111111010110
