1010110101110
1110011000011001
1111101110111000
1010110100101
1111110010011011
1111100001011100
1110101001001110
1111011000110000
10010
1110111010100111
1111100100010010
1111010111010101
1000010001101
111011100111
1001010100
1001000
1110110111100111
101000111110
101011111011
1110100000101010
110010011
10000100011
1111010111001010
1111100011101100
1111111101011011
1111111000000001
1000011011100
1111011100100000
1110011100110010
1111111000010110
