1110110101010111
1111010000011000
1111011010111101
101100100010
1111010010000111
1111101001011001
11101001001
1011010111010
111111000
1111010001110001
1110110101110101
1111010111001100
11011010000
101100001100
110001010110
101000011000
1001000011
101101101110
1001111111000
1111010000110110
1111001110011101
10110011111
1111100111111010
1111010100000110
1111100001101100
1110111010011
110001111011
1111101111010000
1111111001010100
101010101100
