1010101111101
1111100101001101
100110001
10010010001
10100010011
1111110011111010
1111001110011000
1110010111111101
1111101001101101
11010010100
1010110011110
1001111011001
1000010000111
1101110010
1111100100000010
10101010010
11010000110
1110100011111100
1111000110110010
1111111101000100
111001101
1111011111100110
1111010000011000
1001101000110
1111011100110111
10111111101
111001000001
11111011001
1111111011110110
10101100110
