1000110111000
100101101111
10100110001
111101001100
10010011010
1111010100101110
1111000101101110
10000111000100
1000001001010
10000111100
111110010
1111100110100010
1100000010
11110100001
1111011110101110
1111101110011110
1110010001101000
1111101100001001
10110000010
1111001101001111
1110100000110100
10001010001
1111100001011000
1000001010010
1011001101
1110111100100101
11111001001
1110100101010000
1010001011
1110111110110010
