11010110
1110111001110111
1111011011110110
1111001110111001
1110010011001110
100101
110111101010
1111011101110010
1110101000011011
101001001001
1111110010001001
1111111010000100
1111011111110010
1111110101111100
1111010000000000
100101001000
1111111000101101
110001011010
11000111100
1010001110101
11001001100
1110110000010110
1100110000000
1111111000001011
11110010001
100110110
1111111000001001
1111001011001001
1111101010011111
1111111000000111
