100100000101
1110110000011111
1111111001001010
1110000001001010
1111100111110101
1111011101110001
1111111101101101
1111101100001010
1111000100100001
10001110110
110110111011
11000001001
111110100100
100011101011
1110100100011100
1110000010101011
10011010100
1110100000101100
1111111101110011
11011001
100001011011
110111111011
100101011
1111110011111001
1111110110000010
1000001000110
1001100100100
10101000110
110110110
11000110100
