1111010110000001
1111001101101011
1111000000000001
1111110110111110
1111000000101100
10111101
1111101001000000
1110011010100110
1110111000011111
100011110001
1111100001010111
1111110011000000
1110111110000111
1111100100111101
1111010011000111
101101110001
110101011000
1010001110111
100011010
1011111010
1101011101011
1111100000110010
11010110111
1111001101010010
100000010010
1110001010
1111100001110011
11010110110
10011101
100011011010
