1111101000100110
1111000100001101
1111101000100100
1111010001111101
1110010001001100
1010010
100101010100
1101111100001001
1111000100000101
1110111111111101
1111110010010010
11111000010
1111011101101011
1111111101010110
1111111001010001
11100001000
1100111010100
110110010001
10100010
1111110111001110
1110000001010
1111000010100001
1111110111010101
1110110001001010
1111111110000000
11100110011
1111111010101100
11111100011
1110010101001100
11110010001
