1110000111
11101010001
1111011100110000
10001001110001
1110101110101011
101101000
10000111011
1111110010010101
10111010011
1111010001010
101011110
110111010000
1000100101100
1110111110001000
11001010
1100001001111
1111101001100100
1110000
1110111111110111
110011000111
1111010011001111
1111101001000110
1110101001011011
1110101110
1111111000101111
1111110001110001
1110010010100
111100101011
100101110111
1111101111010010
