1010101011
1111011000100000
1111111001110001
1111100010111110
1001010000010
1111110100001000
1110010011111001
1000110000011
1100110111010
1110100001101100
1111100001000001
1111000010100011
1110010011001000
1111111100000000
1000011110001
1111101110101010
1101000101
100000101101
1100011010011
1111000010011001
1111110110000100
1111010110101010
1111110000100100
1111100101111001
1111001111110100
11000111101
1111000111010011
1111011011101100
11100101011
100000110000
