110000011100
1110011011100100
1111001101100000
1111100001101010
1110010111100111
1111100001100010
100101001000
11000101101
1111110110011011
1101110001
1001000011000
1111101010111011
1111101100100101
1100100110
1111100110110011
110010110010
1110011011000010
1000001
1001100111011
1001001100011
1111001110111100
1111010100110111
1100001100111
1111100100110001
1000110001110
11000100011
1111111100110000
1111000101010001
1111100100110011
1110110010111001
