1110101101001010
1011111001101
11010000011
1111100110011011
1000101110001
101001111000
1010111100
1111000000001000
1110101000110100
100100111011
1111001010010011
101011010011
10100010111
1001000001
1010100101
1111010001100101
1101111110011
1111101011111100
1010010001
1111110101100000
101000001001
110011110010
1111101001101101
1111100010000001
1111010001000011
110001010
1111111100011001
1011111001010
11101010111
1000111110001
