1111011010010010
1111010000100011
1111010101000000
1111110111011110
1111001000110101
1111001110011000
1111100000100010
1101110110101000
1110111101111001
1111000101111010
1111001010011011
101101100100
1110101011001100
1111101010001000
10100000110
10010111110
1011101111110
100111100001
1111100010010111
1111011101010001
1110001001000
1111000011110101
1010111
1110101011101110
1111101111001101
111111000010
1100010111
10001011101
1101111111001100
101110000010
