1111110111010000
11111101010
1001100100011
1111010010001000
10111010001
1110110000101100
110000111100
100100100000
1111111010111111
10001001111
11101110001
1111110010001110
1111100010011101
111000101111
1111010110110011
1010001010010
1110100001001
10101011100
1111101110100100
1111110000111101
10001011101
10000100100
110010011100
1111101111011000
1011001000
11011111010
1011110101
1110100101110100
1110110001001010
1111011111011100
