1111101110010011
1111101000001001
1111101110011000
1000010111010
1110110110110111
110101100101
1111100101101001
1111111001001001
1111011011000101
1111110010111110
111110101
1111111110010011
110011011101
1111000100010100
101110010101
1111011000101111
1111010000010110
1111111101100111
1111101110010010
100001000011
1111011101001110
11000110010
1110101110001001
10010000100
1111010100011000
1111011101010110
10100001101
1001011100011
111111100000
1100100
