1111111101111001
1110111111010001
1111011010100011
1111101100111110
1111010101100000
1111011000100001
1111111100000100
1101101111
100001000011
1101110101001
11111000101
1110101110000001
1111111011110010
1111011000100101
1111000100011000
11101001101
1111011001100110
1111110110011001
10111110101
1101100000101
1111001111001110
10101111101
110100001001
1111110001001001
1000001110111
1111010000110000
1111110110100111
1111010011001001
11010011100
1111000001011011
