1010001011
1101101110001100
1110110000010000
10010001101
1111101100001000
1111110111001010
1011000100
110110000
1000000100000
101110101
1111101011101100
110111110011
101010011101
1111001100
1111110000110100
10001101111
1111011000101101
1110111111110011
10110101101
111001011
1111001110000000
1111100111001000
1110100010110110
1111100101001010
1101101111010111
1001101010101
1110100110100
100110001101
111100001011
11100001011
