10110000
1101100001111101
1111010010001111
1111000001100000
1111001110000110
1111011101101010
10011101010
10000011001
1110111111110000
11100101101
11101101
110001111011
1100010111111
100001010100
1110110001111011
1110111001011100
1100001001011
1111011111011011
1111011011001001
1111100110110111
1111010101100000
10101010001
1111000111100111
10010001100
1101101111111010
110010100000
110110110011
1111110101111111
101000100001
101110110000
