10110001100
101011011110
101100111111
110001100010
1100010101111
1000110110000
1111111000111001
11010010
10111011000
1001100010100
1111100100010101
1110111111000100
1111110000011111
1111100110000011
1111000110001111
1111001111100110
1110000001110010
1111111010100011
1111101000010110
1111100010
1111011100010011
1000011101111
100110101010
111011101001
11110111001
1110101110101110
1111001011010001
1111111001001011
1110101111101
1111110011110110
