101010111011
1111010001011011
101011100
110000000011
1111001110101000
1011111010
1111110110101000
11111010011
10010111
101001111100
1000100011
1111001111001100
1101100010010
111100010001
1111100111010110
101110111110
1111101011101110
1111100100011100
1000110100000
1111100000101101
1111001011111110
1010010001011
1100110011
1111111100000111
1111111100000010
1111011111001111
10100111
1111100001010110
11010001100
1110110011001011
