1111001000100101
1011011010000
1111110111111101
1111001111001111
1111111110110101
1111110011000001
1111110011100100
1101000111110
1010100110100
1111111101100111
1011111110001
10000010011
1110010001110111
1111001101011101
11111110011
1111111100011010
1111010110000001
1111111100001111
1110111101110101
1011111111111
1111101101110000
10111011
1111000101001101
111110101101
100000010011
100111110010
1111111101001011
1111100001010000
1111110000101000
10001000111
