1111001001111000
1110111111101
1101111110
1111001101000001
111001011000
11011100000
1111110011011011
1110101111010110
11010100010
1110100010010101
100011101011
1010100101
1110101001111000
1111001111000101
100111111
1110101111010110
1111000111100011
101001001101
1110101011011100
1111101010110110
111100000110
1110101010000000
1111010111101100
10111010101
11111110111
1111111101101011
1111011011101010
11111111111
10010001000
101001001101
