1111111010110000
111010010111
1000110101000
10110101111
1001110010101
1011111001010
1111110001110100
1111111110110110
1111101011100100
1111001011
1111000000010101
1110101100011101
101000100001
1111010001101011
1111001011000000
1111101100000000
1101011110000011
101011001011
1111111110010110
11101011101
1111101010110000
111110100100
111011100100
100010010101
101111011100
1110000010101101
1110111011100001
1110000101
1100001101110
110111100
