1110101011101111
1011011100100
100011111000
1111001101011100
1111001110110
1010010011
1110111111011110
1111011110111100
1000110101000
1000111000010
1111110111111011
11110111110
1101110011101010
1111001111010101
1001111000001
1110101101011000
1111110111010000
1111000110010110
1111101001100101
11011010101
1111010101101010
1110111100010001
1111011111001011
101110010100
100000111010
111100000
1111001101000110
10100111010
110010100010
10110011101
