1111100100011000
11011000111
1111110110010100
1001011110100
1110100011111010
1100110111
1111010001100011
100011010
1100010
1111101100100110
11000100001
11100001010
1011011101000
1111000011010011
110101010010
11010010
1110101010111101
10011011000
1111000100010110
100000000110
1111001000010111
1111110111111011
1111001000110111
1100011101
1111100011111101
1111100111111110
10100111110
110011001010
110011001110
1111101111100110
