1111110110000100
1110100011000
110000110111
11110100001
1111100011010000
1010010111111
11011111010
11111001101
1110010000100101
1111101000111000
1111111001101111
1111101000001111
1111011110011011
11111101
11100111110
10001111011
1110011111111101
1100001011
1110101101111110
111111111000
1111111010011111
1100011001
100000110100
1111101001110110
10111100111
1111110110111100
1111001110110101
1111011110011101
1111100101100000
1110010011010000
