1111111100100001
1010111000110
110000111100
1111101011
1100011001010
1110011010101
10101011010
1101110001110110
1110111100111011
1111010010111011
1111010110110110
1111101010111010
111111111000
1111101100011100
1110000110
1111100100101101
100000110101
11100111
1111101000001000
1111100000000100
111111001100
1000010111001
1111011011110110
1111000101000110
1111001110101101
1010001011
1110111011111010
1100111101001
111010101001
101111010101
