1111011000000111
1111100101101001
1010100010
1111101111001001
1100110001101
1111000110111100
1101011100
111000011001
1111100110111010
101111010011
1111001000110111
1001101100100
1111101011011000
101100011010
110001101100
10000100100
1100101101011
1110000111000000
11011111001
100010011010
1111100100110010
110110000
1111111110110001
11010110000
1110110110100100
11111000100
10111111010
10000100010
1100001111010
1111110010011111
