111101110001
11001010100
1111101111010111
1111000000011111
1010001010010
1010111
1110100111100111
1111001001001011
11100101111
1110010111111010
110101101111
1111000110011110
1111011111100110
1111011001000010
11000011101
1001110001010
1111011111011110
1011111
100010110000
1111001010110110
1110011101
1110110010011101
1111110111000000
1100001101100
1111011110110110
1110101101011011
1110100101110110
110001101101
1111111110010101
101101110000
