1111101000001100
1111101000001001
1111011111011110
101001001010
1100110101
1110111110111001
1110100000000100
1111100
1001001010111
1111001001110110
11011010011
1001111000
1111111101100001
10110001101
1010100000110
1111110011000100
1011000001111
1111001001001110
1111011101100001
1110100101110000
10011110010
1101110011
1110010011110100
10100001000
1111001110110101
111010010111
111001100111
1001111010
1111001110010101
1111111110011100
