100001000101
1111000001100010
1111101001100111
1111011101101010
1110001011110110
10110010010
1001001111101
1101011011110
1111100011010100
111100111001
111001101100
1111011000011101
110111001101
1010001
1111010010101001
1010000010
111001000111
1110111110001001
100001011000
1000010100100
1111011000000001
111111011111
1111101110001011
1111100010101110
1111101101110111
11100011110
110111100
10001111
111000101
1110110010001000
