1011000100011
1001010001000
100000110111
100000101101
10010001100
1111011111110010
1111101100011111
1110011001111011
11000100110
111111000100
1001100110100
101011011100
1111100111011010
1111100111110001
1111100010111110
1111111111001010
101000101110
1111010111111101
1111000010100110
100101011
100011000000
1111010001100000
11001110011
1001000011001
110101001001
1110010101000011
1111011011111011
1111100011011111
1111011011011000
1111010110111000
