1111111011011001
1110000111000011
1110110111100111
1011000011
111100111100
1111101101001010
1110110001000101
1111110001100001
110111001111
1111010011100000
1111101000100010
1111100111010011
1111010101110011
1111110100100011
10001100110
1100000110
1110101000110011
1111011101011100
111100001100
1111101111100111
1111100110000100
1110111111110001
1111001101110110
1111111110111110
1111100110011000
11010111011
10101011
101011001100
110111
101110000110
