1000001011111
11000100110
101010110110
11101100111
1111111010010000
1111110100110100
11011010110
1110110100101000
1111111011001100
10110010111
1000110010100
111001110010
10000010100
1111110000100011
1111111000001001
1001110110101
1101000110
1111011110110100
1110111000110010
10110110
10010101100
1111010010000000
1111110010111110
1000011101110
10111001100
1110101110110110
11100100010
1111111110010101
1111110100010101
1111011000010110
