1111111000011000
1111101001001011
11101111011
1110110100001001
111010101
1111101110011111
111010000010
11010111101
1111000111101010
1110110111011111
1111101101000101
1111010011001000
111000010000
1001100111000
1111001110010000
1111001100111011
1100101001010
11001110001
101000010101
1111111111010010
101111010110
111100001100
110100110110
1111100110010011
1111110101011101
1011110110110
1110111100001001
1111010110111011
1111110100011000
111100
