1011011011
1110111001000000
1111010100010110
1111011111000000
10000000001
1101111000011110
1110110010101101
10101011111000
10000011011000
101110011011
110100110000
111010101010
1111010000010011
1011011001
10110000000
110101000
1111101111100110
1111110001010100
1111111010010000
101010001001
1111111000110010
1110111000001101
1111111110110101
1001010010010
100000110001
1111101111011110
1000000010111
1110101111101001
1111001010001110
1111110101101001
