1001110110110
1100010110
10010000010
100001000010
1111101000010111
101100001
10110000
110011101100
1000100111
11101011100
11111001001
1110101001100011
1010001101100
100110001111
1110111010100110
1111001
1100110110
1111101011000100
11001000001
1111110000100011
1110111001101011
10000010010010
1111111001011110
1111101110010101
1100101100
1111010010001010
1111100111110000
1111111010100010
11100100000
1110110010001000
