11001101100
10110010101
1111111110001110
101101000011
1111100100011101
10100010001
1111101101111000
1111100111111001
111111110110
100010101011
11000100101
10000011010
1111010011001101
1110110001000000
1000011100110
1100101001010
10010111001
1100000011
1111001110110110
1110010000
1111101101111000
1111011000001100
1111000000011101
110110000011
1111111001100100
1101111001000100
1111110111000010
101110111000
1111111100111110
100001111
