100000
101011111110
1111001101010001
100001011111
1111100011001001
1000011101011
110001001001
1010000011001
1110011010100000
1111101111010010
1111011001101010
101011
110011101100
1111011100010111
10000
1111111110110000
1101111011000001
10111101111
1111000110101111
10101101001
100011010101
110011000111
1000011001
1111001001000001
1111110110011110
101100101000
1111100101011001
1111011101010110
100011111101
1110111010000100
