1111100001001001
1011011111
1111111101110011
111011100011
1111111110100100
1000110111101
1111100110101010
1111101010000001
1111101100000011
11111101010
111111111
1111101011010111
1111000010010111
1110010100011010
101000110110
1000100101011
1111101010011011
11011000011
1111100000010010
11100110111
1111100110101000
1111010100111011
1111110100010001
110000001011
1111101111000110
1101111110010100
1111011000111010
110110010010
101001001111
1111001010001010
