100011111000
100100110100
100110010111
11011001000
1001111110010
1111110110100000
1111001100011100
101000111001
1000101010000
1111100000110110
1111111100101110
10001110101
100010000001
101111001110
110011101110
1111110000101111
11101100101
1110100000000010
1011011000
1110101101011000
1111000001010010
110101101001
1110100011010110
11110010011
1111001000100111
1111101101011010
101011010111
1110001010
110111110111
1111101000010001
