101001010011
1111111001001110
10100110000
1110101000011011
100000110010
1111010111011100
100000000000
1111111011111001
1110100011111100
1110101001100100
100100111101
1111001011010100
111000111111
1011001111101
1110111101110000
1110111100111000
111110110010
10110011101
11101111
1101100011
1000011011001
100110011010
1010000101100
1111111100000111
1111110001101001
101111011110
1110111111101010
1111011110000000
1111001001001001
1100001001
