1111101111010100
1111111100011001
1111110100100110
1010000110
1100011011000
1111100010000110
1110100010000111
1111111101001111
1000000000011
1110011000100100
1111101001110110
10111000011
101000110000
1110111011
1000011011100
1111101010000110
1010110000010
1111011110101101
1111110011011101
1110011100101110
101100101
11001001101
1110100101010001
1000100010
1111000111101100
1100110101
110010110101
11010001000
1111011101110110
11101111010
