1110010101100001
111011111110
111001000
11011110110
1111000111101000
1000110000000
1111111010101001
100100001110
1111001100100010
1111110000000001
1110101101001010
1111000111110101
1110111100001011
1111010110111011
10000100111
1111001001111011
1110101101101110
100111110110
1101100111
101110000111
101110101
111111001100
100000001100
1111000011000101
100001110111
1111100001100101
1110110000010010
1111110001101001
11101010
1111001100100101
