1111100000011100
1101001000111
1111110110000010
1111011101011110
11010111110
11110110110
1111011001110110
1000111011110
101101110101
1100100001111
10011110100
11101111010
1110111110100000
1110111110010111
1111110001101000
1011100
1111100000110111
1111111111101000
1111000110101000
1011001000101
1111100100110010
10000101101
101110100001
1000101101111
1001100010110
1111110100010001
1111110110000001
1111101000011110
1010101010
1011001100
