1111011111010001
1111011101111101
10101101010
1111101110001101
1111101000001110
1110110000110000
101001000101
10001010100
11100010011
10001010000
101101011101
1111110111110001
1001100110010
101011110100
1111010100001000
1111100000011101
1100101110001
10111000
100100101
1111001011000100
10101101
101001110111
100011000111
1111001101111000
110010110011
1111110001111000
100100001111
1110110011101100
1111000010101111
101101010100
