1110011010011010
1111101100010111
1111110110111011
111011101001
1111010111001101
101100001011
1110101111100111
110100001111
101111011000
1110001101
1111000011110010
1111011010101001
1111010110000001
1110110101011011
100101100100
1110111101111000
1110110100100100
1111011100100010
1010011110000
1111101001001000
1110101000010000
10001000111
1111001110011011
1111101000000010
1111100011000010
1111100000000011
1111111101100100
110010000111
1001101001111
101101100100
