10101000
1111000101110001
1110111101111111
110000001000
1100101100101
1110010001010111
1110100100100110
101111000010
1111100110010
100010011001
10011011
1111111100011111
1111011111001111
100110010110
1010110001110
10111010111
1110000001
1110111011110001
110001010011
1111010011110000
1111110100100100
1111111000011101
1111011101011000
1001111010001
1111101010001000
110010011101
1001010111101
1111110011011111
10011111010
1111111010001001
