1111011010111010
1111010011011101
1110111100101010
1111110011001010
1111011001011010
1111010110101000
10111011010
101010111
1111100010001001
1110111010001001
11111111001
1010100101101
1111100010001011
1111111110010001
1011011111011
11001011111
1110001000000
1111111001000010
100110
1111000111001010
111000011011
1110111111101011
1111011011011101
11111101000
1111001100010011
1110001011110
1101110110
10100111
1110101100111000
10100000000
