1010000100011
1110100001111110
10010101001
10010101001
1110010110110101
110001100101
1100111111110
1111111111010110
101010010001
1111101111010101
1011110001111
1011010000000
1100101001100
1110011000001010
1111111000001100
1111101100011101
1111010111101011
1111001101101100
1110011010001010
1100111011
1110110000111100
100001001111
1111111101
110111010000
1110100110111001
10001010100010
1111010100011101
1111000101101010
1111010001001000
1100100010110101
