1110010011110110
1100010110
100000101110
111001001000
10001101000010
110011000101
1111010011110011
1011001010
1111001001010000
1111001100000100
1111011110000111
1111110010100111
1101001011111000
10100001111
1111011010010000
1111001111001000
1000000010110
1111011110111001
1010100100110
1111111000010101
1101011000001
1111011010111001
1101110011110
1111110111000010
111011001100
1110000001110100
1111111101
1111000011011101
1111110010010011
1110111010000010
