11000010011
1111001111001011
1111100011100000
1100001011
1111101100000101
1110011111100000
1111101101010111
1111010110001011
11001110000010
10100110001000
110111101
1110111111110010
110111100101
110001111110
1111001100110110
101101101
100100101100
1111101010111
110100000010
1101010111010
1111011101011110
1111101101111111
1111100011010011
1111110000010011
1111011011111100
1111110111100110
1111001100100011
1000010001001
1110101101101
101101110000
