1111011101111010
110000001110
1010110011110
1111011000111100
1001010100011
10010100100
1101101001001000
1100010001
1111110000000111
1110100001110101
110010001000
10010000111000
1111001001010010
11000000
1110011010011
1110010111001001
1110010110100110
1111111100101111
1111111010110110
110110101010
1111000000111010
1010011111101
10010100111110
1111110101010010
1010001101010
10100100010
1111010001100001
100101111
1111001110001001
1010000000101
