110010011001
10111011101
1111101111001000
10100101111
1111101100011101
101111010
11110110011
1000001100
1110101110100000
111010000001
1111000100111000
1111001110110100
1101001010
1111101011000101
1001100100011
110001100010
10101100011
1111010101101011
1111010000101000
1111011100101101
1111101000011000
1101001111
1101111111101101
1110101110100000
1111100101111010
1010111101
1011110100001
1001111110010
1011101010111
100001100001000
