1110100111000101
10010101101
1000110111101
1110111011011101
11011010011
1111000110001010
1111011010000000
1100001010000
10101011101
1111011000000010
1011111101101
110111000111
10000001100110
1010100000101
1001110011101
111100110010
1111001001110100
1111110100100101
1110001111011110
1110100000000000
10110011110001
1100110
1110001110111100
111000100110
111000110010
1111110000000111
11010101000
1111110011010011
11000011101
100011110101
