10110011010
1100000011
1101110100011100
1110010100000111
1010010110111
1110111010001
1111000001100110
11000111001
1111011110
1101111000001010
1101010110111110
101000000001
1111110100111000
1101110101010
1101100100010001
101110000011
1011110010
1010000110
101101101
11011000110
1100000001
1110000100101
1000101100101
11101101001
101001001011
10011001100111
110000110111
1000111011110
1111010100100100
1110100000100101
