1110101000110010
1101010100
1111000100100000
1110100111111101
1100011011111
1000111000001
10010010011110
1101010011101010
1111010000101011
101101011
110110111111
11001011100
1101001001111010
1111110001
1000100011
10010000001010
1111110101010101
100001010000
111101111000
1111111011110110
1000100111
111110011
1111001101100011
1111101001111000
100101011001
1000101010000
1110111001111010
1000101010110
1001011001101
10011110110
