1011001
1110110000001
1111111001011100
100101001010
1111101110111000
1111101011
1011001111000
1101111000000101
1111000110101101
10000111110111
1001010011000
101100101000
1110100000100110
10000001100
1100011110011
1110110101000101
1111010100000001
1111010011100101
1100001101110
100010000111
1110110010010110
1000011010111
111111011001
1111000011100011
1010110000
11111011
1110011101100011
1110011010011100
1110010111111011
11100111001
