1111001000010100
1111010000010101
100010010001
10100000100000
1001001010101
10001101000001
1111011110000001
101010001
1110110010110111
1000010110001
100001001110
1110111111100001
1111101111001101
1111111110110001
1111110011111111
1111110111100
101110110011
1110101000010110
1011000010010
1110101000110011
1100010111
1010100110
1111001000100011
1111111011101101
1111001101100110
10101100110
11101110110
1111101000000010
1101111011010
1110101100011001
