10001010100111
1110101100010001
1111110100100000
1000000101
1111000011011011
1010100
1100110010
101011000001
1000011101001
1111111110011111
1110100011100100
1110111011101001
111010111100
1111010110011000
1101011110111010
1110111000010111
11010000011
11111010010
1010110000011
1101010101010
1111101001011101
1010100
111000100011
1010000100010
1111001001111110
1111110000111000
10010100010011
1111110011111000
100101100010
1111110110110011
