10001100
1111010100100
1101011100110100
1111101111110110
1111100110110100
100101000010
10100110110000
101010101101
1000110010111
1100010101
1110100110
1111011100111010
1111010011001010
10100111001011
1110110010111010
1110111101001011
1111111111101101
11110111001
1111000111000
1100010110000
11100111
1110100001101101
100111110
1111011101100000
1110111100011010
110110100
1111000101010111
100001001101
1110111011010010
1010110001010
