1100101101
1111011000001011
1111111111001010
1001010010001
1110000110100110
110111101
100011
10010010111100
1111101101100
10111110110
1111000001010010
1111000111011111
111000110
1111100001011100
1110110011011101
1111100000011111
1010101101110
1010110100110
11001101100
1001011110
1111010001111010
1111000111100110
11101010100
10000101000110
10101101001
1111000110000010
111111000100
1111101011000110
1110110001100
1111111000001001
