10000011110001
101100010011
10111
1111100001110110
11101111111
1111000111110101
101111010000
1001100111110
1111001100011000
1111110010000001
1110111110100001
111010010110
10100110000
1111110111110100
10001001100111
1111111000000011
1111010001101101
1111100000101000
1110011111111010
1111001000000111
1110110010111111
1111100011110
1111010100000101
1111001111110011
111010011110
111100111100
1110011011000
110100010
1001110011000
1111100001000001
