1111010010010010
1110111111000110
1110100111
1111100100000100
1001110
1011001011001
1111011001101011
10011110001010
1110011100
1111001000010101
1010110011100
1100000101000
1111111001000001
1111010100111111
1111101111101010
1110110100010101
1100111111
10100110100
1100111011100
110011100011
1110001110010
1111101010110100
1110100111010
10000100111100
1010101010010
1111010010011000
1111111000101000
1110011001110100
1110001010011110
100100001000
