11000000000
11000111100
1110110011100
111010101000
111000111101
1110100000101111
10000001001100
100011010111
1111010011001001
1111111111100001
1000110110011
1111101101011011
1000111000011
1110001100110111
1111011010101001
1110101111100100
1111101110001110
1111000011111110
101100100100
1111100110001011
11111010001
1110100110111001
100001111001
1110111100010000
1110000001110101
1101011000000100
111000111101
1101001111101
1111011111101111
10000000101000
