1110001101011101
10010100100110
1110101011
110110011
1111110100110001
1111110011011110
1110101000000111
1110010011001011
1011101010010
1111000100111110
1001101111110
10101101110
1111111011011001
10011100101
10001101100
1111000100011100
1111000110101011
10100001110110
1111010011110111
1001010100001
11001010101
11000100
1111000110101
1111111010001110
1111001111001110
1000010000001
1111011000001100
11000101001011
1110011101010010
1001000010101
