1111001001110100
1111100101011010
1101111000001
1100110010110
1101101001111010
1111110001110000
1101111000011001
1111010011000011
1001101111011
1111111010101001
111001000001
1001100000
11100110011
1111111010101000
110100001000
1011000101000
1111011010010010
11101010110
1110000111000101
1110011011000110
110000101000
1101100111011110
1111111000101001
1010101100
1111111110000011
1111100111100110
1111100100011001
1101100100000111
10100001011001
100101011
