1111010111010011
1111011001110100
101001011
1111100011100111
1011101001
1100110000
1111111100001001
1111111101000111
100111010001
1000101111010
1101110101
1110101000111010
1111000111101000
1111111000110010
10000000110
11000011110
10001001101101
10001110110000
10010010001
1000000010010
1111110110100110
100111101010
1101101101111101
1011100111
1100001110001
1011110101100
10000101101
1110011010101100
10110111
1111001010011101
