110011111
10000011011011
1111101010011100
1111100110011101
111110010011
111011011
1111001000000111
101101011101
1111000110001101
1111100111000111
10011
1111001001000
1111100000000010
1001101101000
1001011100111
1111100111011111
1101101110001011
1111000110000001
1110111110010000
1110111101111000
1111110111001110
1100011101
10000110010000
1110100110111011
1111111001111011
1111011001000001
1110010010101001
1000101001111
1110110110001100
101101111010
